#version: 0.2
t h
Ġ a
o n
i n
r e
Ġ th
a l
Ġ p
Ġth e
Ġ c
a r
t e
l e
Ġ s
i s
o r
t i
Ġ n
e d
Ġ o
e n
a s
Ġ l
Ġ is
Ġn o
e r
e s
Ġ in
Ġ e
Ġ m
r i
a c
Ġ b
u n
u s
Ġo f
i l
Ġ w
d i
u l
o m
Ġa n
ti on
r al
u m
Ġ t
a n
g h
Ġan d
a te
Ġ h
Ġa re
i d
gh t
Ġ f
m al
i c
Ġ ri
i on
Ġc on
f f
in g
Ġri ght
n e
ne um
_ _
Ġp neum
Ġw i
l y
ff us
Ġ d
Ġ v
Ġ le
Ġwi th
Ġthe re
ffus ion
r o
Ġe ffusion
r a
ar di
Ġp le
u ral
un g
Ġl ung
Ġple ural
o u
Ġ re
m on
Ġc ardi
f t
en t
a tion
Ġle ft
Ġc h
ar y
o l
Ġt o
c t
th or
ul mon
ulmon ary
e m
Ġl o
a x
i t
or mal
Ġs t
thor ax
as t
Ġpneum o
Ġpneumo thorax
te r
Ġ or
an g
ed i
c h
p p
p h
o s
Ġ un
ast in
edi astin
e ar
Ġp ulmonary
b le
Ġs e
b e
es t
ediastin al
Ġn ormal
p ac
c e
v e
Ġc om
Ġb e
le ct
Ġcon s
__ _
Ġ ___
i m
re s
Ġcom p
Ġo pac
a ble
o us
il ar
Ġch est
Ġd e
ate ral
c u
Ġs u
Ġp ro
em a
Ġlo w
it y
e t
Ġa te
Ġate lect
Ġs i
as is
ang ed
Ġatelect asis
Ġcardi om
Ġa t
e w
Ġa cu
a t
Ġacu te
ch anged
Ġun changed
Ġse en
Ġm il
Ġmil d
Ġ en
Ġa s
Ġs il
h ou
Ġ ed
hou et
Ġsil houet
Ġed ema
Ġsilhouet te
Ġe x
ol id
Ġcons olid
Ġconsolid ation
Ġa pp
o c
Ġt u
o g
id en
Ġlung s
Ġp os
ul ar
d er
a re
i a
Ġtu be
Ġcon t
a in
Ġ on
Ġc le
z e
ou r
v er
Ġsi ze
Ġcle ar
o p
oc al
Ġb as
Ġ ra
Ġpneum on
es s
Ġa b
ear t
Ġh eart
Ġpneumon ia
Ġm o
Ġf r
Ġe v
i f
a ti
u d
Ġra di
Ġm ediastinal
te n
Ġf ocal
ar g
i ti
or t
og ra
ate d
as c
our s
ogra ph
Ġs mal
Ġradi ograph
iti es
Ġcardi ac
ri or
Ġin ter
Ġlow er
te d
Ġsmal l
c re
Ġh as
Ġv asc
Ġ u
cre as
o w
are d
Ġcont ours
der ate
Ġev iden
Ġeviden ce
s e
ol um
Ġcardiom ediastinal
Ġst able
Ġcomp ared
Ġv olum
Ġl ateral
Ġch ang
Ġmo derate
v i
Ġp re
il ateral
in e
Ġb ilateral
Ġapp ear
l i
Ġ im
Ġo ver
Ġeffusion s
ac h
Ġp rior
t r
Ġv i
Ġopac ity
c ess
pp er
Ġvi ew
Ġlo be
Ġu pper
ti al
if ic
Ġh ilar
Ġpro cess
n ormal
ar k
ti p
op ulmonary
Ġcardi opulmonary
Ġf or
a y
g es
i tion
Ġvasc ular
ic al
Ġin creas
Ġst ud
Ġstud y
Ġvolum es
res ent
Ġa l
Ġc a
Ġopac ities
Ġab normal
Ġ g
vi ous
Ġd is
Ġp er
k e
a d
Ġpre vious
al y
Ġpos ition
em ent
th er
u t
Ġl i
Ġ di
Ġa p
u re
i b
ten t
Ġ tip
Ġw e
Ġre m
o ul
a g
e g
ri c
eg aly
Ġcardiom egaly
l arg
Ġw h
Ġli ke
d ing
Ġen larg
Ġwith in
Ġlike ly
ac t
an t
Ġsu b
Ġm id
Ġin t
oul d
Ġno t
v ed
g m
v al
u res
m in
id ed
Ġn ew
Ġno ted
Ġin f
u e
e c
Ġcon ges
ti f
c l
re m
Ġ 1
in i
Ġcomp ar
is on
Ġcompar ison
ark able
i r
Ġbas e
Ġa g
Ġ___ .
Ġl im
Ġb ut
Ġun rem
Ġunrem arkable
i ed
ou t
Ġim p
ra gm
a ph
Ġconges tion
Ġchang e
it s
aph ragm
Ġh em
Ġen d
Ġ___ ,
l ac
Ġag ain
Ġfr om
e ter
ac ic
Ġimp ro
Ġbe en
l l
Ġinter val
ati ent
Ġo s
Ġp atient
os t
Ġincreas ed
ific ation
r on
p er
ic h
Ġwh ich
is tent
Ġth is
Ġos se
Ġhem i
Ġosse ous
Ġm ay
Ġwith out
l ow
Ġl arg
Ġre p
Ġ j
Ġs in
e ct
Ġca th
Ġcath eter
ach e
t al
Ġs li
Ġsli ght
Ġth or
Ġa ir
Ġview s
t ing
r u
Ġlim its
Ġ 2
ch y
g n
Ġo ther
Ġo b
Ġsin ce
Ġst ru
Ġstru ct
Ġenlarg ed
Ġl ine
ib as
Ġb ibas
ti c
n o
s tr
cl ud
Ġsu g
Ġstruct ures
Ġs h
Ġp resent
Ġrem ain
s s
Ġre s
ate s
d ed
Ġbibas ilar
Ġex a
Ġabnormal ity
s ided
ter min
Ġlarg e
di aphragm
Ġ termin
Ġde mon
Ġc ould
Ġp lac
u al
Ġwe ll
v c
s i
Ġh a
Ġc m
Ġm ini
Ġre f
Ġmini mal
Ġs vc
Ġinter s
Ġper s
Ġdemon str
Ġre c
Ġhemi diaphragm
Ġp a
re n
Ġp ort
p ri
Ġinters ti
ati ve
Ġchang es
Ġc l
Ġintersti tial
an ce
Ġf in
Ġsi gn
Ġa d
iden tif
Ġc t
Ġ identif
Ġthor acic
Ġpro j
Ġd ue
Ġfin ding
Ġidentif ied
le v
Ġimpro ved
ra tion
Ġt r
Ġopac ification
al l
no t
Ġb y
Ġapp ro
er n
o ph
om y
ve l
Ġc al
om in
Ġslight ly
are n
Ġappear ance
Ġde f
t ro
Ġst om
Ġstom ach
Ġrep resent
v ic
ache al
Ġa ort
Ġref lect
Ġfr act
u r
Ġinf ec
c tion
Ġcal c
Ġaort a
Ġex clud
Ġfinding s
Ġri b
Ġproj ect
on tal
Ġabnormal ities
is e
Ġfr ontal
p i
is t
Ġradiograph s
Ġha ve
Ġp ic
Ġre tro
w ise
Ġother wise
Ġs p
Ġend o
c ardi
tial ly
Ġw or
p an
at ure
ar d
s o
ou gh
cardi ac
on e
tr acheal
Ġs c
Ġendo tracheal
Ġretro cardiac
Ġcons istent
Ġas s
ag e
Ġpos t
Ġc ar
g est
Ġsug gest
ast ric
Ġcl in
Ġal so
Ġclin ical
re e
Ġmo re
l u
Ġbas ilar
Ġh y
Ġb o
Ġc ent
Ġvasc ul
Ġcent ral
Ġde creas
Ġvascul ature
t an
Ġv en
Ġp ar
Ġcar in
o ve
s ion
Ġbas es
as e
i z
Ġab ove
Ġth an
Ġwe re
c ern
Ġmild ly
Ġint act
Ġcon cern
q u
aren chy
Ġappear s
e x
en ing
Ġp r
Ġp arenchy
t ain
Ġpr omin
Ġs im
ly ing
Ġpic c
Ġs om
Ġsu per
Ġv is
Ġsim ilar
Ġno d
ediastin um
Ġre g
Ġsign ific
pi ration
ow e
og astric
Ġs ter
Ġtermin ates
id e
a b
Ġc an
l ated
Ġde vic
Ġle ad
Ġcarin a
ron ch
Ġsignific ant
n al
Ġm ost
Ġrem o
Ġinfec tion
tain ed
Ġremain s
ve re
Ġm ul
Ġsu r
Ġexa m
Ġbe low
Ġreg ion
Ġend s
Ġa c
Ġp ac
Ġch ron
Ġob tained
Ġ k
Ġ te
Ġex ten
Ġexclud ed
un ction
iz ed
t le
Ġdis e
Ġdise ase
Ġchron ic
Ġpro b
Ġap ical
Ġsilhouette s
Ġse vere
te rior
y s
Ġf ree
ab ly
Ġm ark
Ġat ri
r ing
g ular
en ce
owe ver
Ġh owever
Ġn as
Ġpers istent
Ġint ra
Ġa r
er ative
Ġp at
Ġven ous
Ġparenchy mal
Ġnas ogastric
Ġwor s
Ġm ediastinum
a th
Ġsp ine
ort u
Ġt ortu
l a
Ġj unction
Ġdi ff
m ph
lu id
Ġpro v
re d
Ġconcern ing
Ġl in
Ġj u
Ġas piration
si ve
ti ve
Ġb ronch
ini te
Ġdef inite
Ġres ol
Ġb on
s tan
Ġhy per
Ġe lev
Ġc or
pri ate
Ġappro priate
Ġenlarg ement
e l
Ġvis ual
Ġ 3
Ġth at
Ġv er
as s
Ġplac ement
or tic
pan ded
Ġju gular
Ġport able
m en
Ġprov ided
Ġe ar
on g
p s
Ġpat chy
Ġw as
g en
Ġf luid
Ġrec om
Ġrecom men
ic ation
Ġvolum e
c ed
Ġvisual ized
Ġe t
Ġsub stan
Ġ if
at ing
not omy
in f
Ġster notomy
Ġa ortic
Ġto p
l ine
Ġdecreas ed
v en
Ġm edi
Ġun der
Ġatri um
Ġg ro
Ġbe t
thor acic
Ġsom e
Ġimpro v
Ġse t
Ġim ag
Ġrec ent
ent ric
Ġexa min
Ġset ting
an d
Ġexamin ation
Ġbon y
ren ic
ati c
pri ght
Ġass ess
oph renic
m ent
h ilar
Ġfract ure
Ġproject ing
Ġc ost
Ġintra thoracic
Ġab d
Ġcalc ification
Ġper i
Ġle vel
Ġsu pp
or g
en s
th ough
Ġv entric
Ġen g
Ġal though
Ġdevic es
Ġeng org
Ġcan not
Ġsc ar
ffus e
Ġdi ffuse
Ġover all
Ġno w
i ated
Ġsupp ort
Ġare as
Ġgro ss
in u
Ġlo c
pac e
Ġp res
ow n
a il
si ble
u tion
p os
Ġplac e
or der
Ġac c
ul t
Ġb order
Ġcost ophrenic
Ġincreas e
Ġd r
Ġc li
Ġf ol
Ġbo th
at us
Ġdemonstr ated
Ġdi aphragm
Ġlin ear
is s
Ġfract ures
Ġinter nal
Ġ i
if ied
Ġre lev
Ġrelev ant
Ġ it
Ġbet ter
i or
ac es
re c
Ġwi res
p ec
Ġev al
Ġcli ps
Ġeval u
es oph
Ġm on
Ġhyper inf
Ġh il
Ġst atus
Ġan g
Ġscar ring
Ġpers ist
Ġprob ably
Ġst and
Ġca v
Ġc ol
Ġstand ard
Ġre l
Ġfol low
Ġgross ly
Ġpos sible
b es
Ġh e
n own
ate ly
Ġtr ache
or m
on d
Ġmon it
Ġw all
Ġapp rec
vel op
Ġcont inu
Ġcalc ified
or ing
Ġex panded
om en
Ġang le
Ġprevious ly
Ġde velop
Ġcont our
Ġabd omen
Ġremo ved
Ġk nown
Ġover t
Ġu pright
Ġimag ed
i g
Ġmonit oring
Ġimprov ement
Ġsug ges
Ġtortu ous
Ġde gen
Ġelev ation
a k
q ue
Ġlead s
Ġdegen erative
s ib
Ġpos sib
Ġl it
Ġlit tle
Ġob s
Ġd ra
u le
Ġunder lying
ri b
Ġe mph
ys ema
Ġnod ule
Ġlo ss
ri al
Ġsur g
Ġear li
Ġpromin ent
Ġemph ysema
x im
Ġbas al
Ġdra in
Ġearli er
Ġappro xim
Ġno tif
ate r
Ġpos terior
Ġtermin ating
s pace
Ġb l
Ġair space
Ġapproxim ately
ic k
Ġdemonstr ate
Ġ ro
Ġnotif ication
al ly
Ġw ould
Ġth ick
im pos
Ġsuper impos
Ġp o
Ġdis tal
Ġdis c
Ġs ing
Ġsing le
Ġc ours
Ġcor re
Ġmark ing
Ġde te
c en
Ġpromin ence
Ġg re
m o
un ting
Ġth ough
Ġmarking s
Ġcomp res
Ġsuperimpos ed
u gh
Ġg i
cl a
Ġwors ening
Ġinf il
Ġ 4
e ous
k er
Ġte le
Ġtele ph
d s
Ġperi hilar
ema ker
Ġsubstan tial
vi an
cla vian
Ġsub clavian
Ġthick ening
Ġpac emaker
Ġproject s
ro ugh
Ġmedi an
Ġgre ater
Ġd es
Ġcomp ati
Ġcompati ble
Ġover lying
Ġdiff ic
Ġad v
Ġgi ven
os is
Ġal ong
Ġdiffic ult
Ġteleph one
tip le
Ġmul tiple
m m
Ġhyperinf lated
j ac
jac ent
Ġth rough
c ted
l ation
Ġcon f
a m
Ġare a
Ġsh ould
or y
Ġad jacent
Ġbl unting
Ġobs cu
Ġn g
Ġs o
Ġres id
Ġen te
ren t
Ġbilateral ly
e re
Ġm ass
Ġd ens
Ġrel ative
Ġass oc
Ġint o
Ġs ti
Ġs ide
Ġpersist s
Ġ qu
Ġassoc iated
Ġsuper ior
Ġh i
Ġ esoph
Ġex tent
Ġinfil tr
d le
Ġventric le
Ġente ric
p lac
le te
Ġmid dle
t o
Ġdete cted
at rial
Ġsub se
Ġtr ac
Ġi j
o atrial
Ġcol la
Ġcalcification s
Ġsti ll
s is
Ġf ur
Ġfur ther
Ġsign s
Ġin clud
Ġc ro
Ġcav oatrial
Ġ Ġ
t ant
Ġcons tant
Ġin s
Ġw iden
Ġd o
Ġdis plac
s ed
Ġv e
Ġexten sive
e ed
er al
Ġresid ual
Ġan y
Ġch anged
v asc
Ġve in
t ail
vasc ular
Ġc ur
' s
Ġmoderate ly
en ed
Ġborder line
Ġd ay
le d
Ġsuggest ing
Ġo ut
Ġrecommen d
Ġsurg ical
c ath
Ġt iss
Ġexclud e
Ġrecommen ded
y mm
is ting
ymm et
Ġle ss
l o
ew h
Ġsugges tive
Ġim age
Ġhil a
Ġsur f
re ak
Ġse ver
Ġresol ved
ost omy
Ġdemonstr ates
Ġap ex
Ġst reak
d y
Ġf i
Ġcom b
Ġtu bes
Ġengorg ement
Ġcontinu ed
Ġcomb in
pec ted
ch n
Ġ its
Ġresol ution
Ġte chn
Ġdiff e
Ġposition ing
Ġtrac e
ad e
__ __
Ġadv an
Ġan terior
d ist
Ġ 5
Ġconsolidation s
Ġhemi thorax
Ġpac er
Ġbo dy
Ġa er
us ion
di tion
Ġpar tially
Ġwors ened
o vascular
p se
Ġcro w
Ġsurf aces
Ġm ade
Ġso ft
Ġsub tle
Ġcolla pse
Ġthe se
Ġdens ity
or tion
Ġdisplac ed
ti ous
o re
Ġinfec tious
Ġsh ow
Ġevalu ation
Ġlarg er
er ing
Ġrelative ly
Ġcrow ding
Ġnod ular
Ġbronch ovascular
Ġtrache ostomy
Ġ z
Ġf il
u p
Ġdecreas e
Ġcomp lete
ex isting
Ġremo val
u b
un t
Ġad dition
ac k
Ġh ern
g res
Ġp ig
Ġdiffe ren
Ġcombin ation
Ġpig tail
tif ocal
ymmet ric
Ġmul tifocal
Ġl y
tic ular
Ġstreak y
i al
Ġ ess
Ġess en
Ġp ortion
Ġl ay
Ġhern ia
w ard
Ġdevic e
Ġessen tially
r ant
Ġminimal ly
op erative
i que
Ġpro gres
Ġdef orm
i mal
lo ad
Ġover load
Ġlay ering
Ġtechn ique
ul ated
cen ding
Ġmark ed
d ay
Ġc o
Ġincreas ing
x imal
z y
Ġa f
Ġaf ter
te b
Ġdrain age
ath y
Ġpro ximal
i ted
Ġatelect atic
ide red
Ġcons idered
ad rant
Ġqu adrant
Ġsu p
Ġpo ten
ti m
il ity
Ġb ack
c y
Ġlim ited
Ġapprec i
Ġprob able
Ġengorg ed
Ġver teb
an s
op athy
Ġfi el
Ġappreci able
un d
Ġesoph ag
Ġar ch
Ġsom ewh
s ure
Ġse c
Ġsomewh at
Ġsec ond
tan eous
Ġly mph
ro tic
Ġcur rent
Ġexten ds
age al
Ġch f
Ġfil m
Ġradiograph ic
h o
cu taneous
Ġpossib ly
eed ing
Ġf eeding
Ġadvan ced
Ġf ul
Ġle ast
os ity
aren t
Ġro t
Ġtr ans
Ġtortu osity
Ġapp arent
Ġmid line
Ġd ual
Ġsuggest s
d e
Ġinfiltr ate
ent u
Ġwiden ing
Ġacc entu
c le
Ġm et
Ġsub cutaneous
Ġdisc us
Ġver y
rib ution
Ġnodule s
Ġcompres sive
Ġas ymmetric
Ġaer ation
Ġex t
ter y
Ġvascular ity
Ġv al
di c
Ġpoten tially
Ġwh en
at al
Ġtiss ue
Ġhi atal
v ing
Ġar tery
en opathy
Ġdiscus sed
Ġin dic
Ġsubstan tially
Ġz one
thor aces
ic ated
Ġdo b
ho ff
Ġloc ulated
Ġre lated
Ġex pected
gm ent
Ġpossib ility
r an
il l
Ġverteb ral
Ġassess ment
ess el
Ġv essel
ten sion
Ġpneumo thoraces
qu ent
p ic
mo derate
Ġs us
Ġper f
te ri
Ġelev ated
Ġno te
ol i
Ġsubse quent
o d
Ġfollow up
Ġpost operative
Ġrepresent s
in y
Ġt iny
Ġal low
Ġcours e
Ġdevelop ing
Ġear ly
Ġ tim
on ent
Ġcomp onent
c es
Ġsignificant ly
Ġpres sure
id ent
Ġassess ed
Ġperf orm
f ore
Ġinclud ing
Ġpar ticular
Ġtim e
p ical
Ġtrache a
b ar
Ġacc om
Ġperform ed
id er
s t
Ġle sion
Ġallow ing
ol og
Ġaccom pan
Ġpar t
Ġval ve
Ġf iss
p t
Ġdes cending
Ġreflect ing
l ate
te ro
Ġvessel s
i ble
Ġesophag us
Ġlo bes
Ġs tent
Ġd ate
Ġn on
Ġster nal
Ġp ass
Ġo l
no b
Ġk nob
i gn
Ġe i
c om
p ect
er v
Ġthor ac
d omin
Ġto day
Ġp ect
oli osis
Ġa mo
Ġamo unt
Ġcompres sion
Ġcl a
Ġcla vic
Ġventric ular
en se
Ġs em
Ġconf lu
b g
Ġca bg
Ġdifferen ces
Ġsem i
Ġapprec iated
cu r
Ġs w
Ġhy p
Ġol d
Ġm in
ardi al
er y
Ġsever ity
di es
os cle
Ġn ear
Ġmet ast
Ġa ther
Ġha zy
Ġather oscle
Ġdis ten
s us
g an
Ġthor ax
Ġh ard
Ġver sus
Ġsw an
m a
Ġsecond ary
Ġp h
Ġ 6
Ġsh i
ub ated
Ġshi ft
Ġn ec
om a
Ġpres ence
re ad
u c
Ġshow s
Ġde g
i ght
Ġaccompan ied
Ġl ong
Ġvis ible
Ġreflect s
com p
Ġin v
Ġful ly
Ġh ist
or al
Ġhist ory
Ġe l
Ġdeform ity
Ġpass es
Ġd ense
Ġbe fore
Ġsup ine
Ġloc ation
Ġfiel d
Ġwor se
Ġdeg ree
Ġlin es
Ġ .
Ġd il
gan z
Ġobscu red
Ġg ran
Ġnec k
w are
Ġon ly
Ġatheroscle rotic
Ġhe tero
Ġgran ul
Ġpre domin
n ess
o ver
Ġpres um
f ul
Ġcons ider
Ġhetero gen
in ct
op d
Ġpect oral
Ġcomplete ly
in ed
Ġhard ware
it one
Ġal l
Ġrep lac
Ġper ic
Ġc opd
b hoff
Ġdob bhoff
Ġcorre ct
gment al
Ġcorre lation
Ġinv ol
Ġparticular ly
Ġmedi al
a ges
Ġevalu ated
Ġcontinu es
Ġp ul
Ġt w
Ġparenchy ma
Ġheterogen eous
Ġexten ding
Ġim ages
Ġconflu ent
Ġdisc over
id es
Ġtw o
Ġm ain
Ġas pect
Ġdiscover y
Ġl ing
Ġei ther
Ġf ib
am e
Ġmin or
Ġinf er
Ġs ame
Ġcomp l
w e
li ke
Ġh el
Ġin dist
dist ribution
Ġhel p
Ġindist inct
ph al
Ġsin us
Ġperic ardial
Ġdis t
us t
le r
ra hilar
Ġinfer ior
Ġsubse gmental
Ġrecommend ation
Ġdevelop ed
aly sis
Ġin d
Ġcompl ication
____ ____
in t
Ġfollow ing
um eral
Ġins piration
Ġca us
Ġex ce
c ing
at or
Ġm m
Ġfiss ure
per itone
Ġdevelop ment
Ġsmal ler
Ġclinical ly
p l
Ġn e
Ġperi ph
Ġrep e
g e
Ġcours es
Ġm al
Ġd ed
Ġded icated
ro sis
g er
Ġ x
ct omy
Ġpre ced
Ġsever al
un ded
Ġres ult
Ġaddition al
Ġpreced ing
Ġre distribution
c rib
Ġinfiltr ates
crib ed
ere x
Ġro unded
Ġrepresent ing
Ġhyp erex
oul der
olog y
Ġsh oulder
Ġhe al
pan sion
Ġsurg ery
Ġlymph ad
Ġthrough out
Ġon e
Ġf ail
Ġposition ed
Ġrepe at
Ġlymphad enopathy
z ed
Ġ1 0
erv ical
Ġa x
Ġc ervical
cl usion
Ġmul ti
p read
Ġw ides
Ġun f
Ġwides pread
Ġfail ure
Ġproj ec
Ġhelp ful
o un
Ġlim it
Ġangle s
Ġex ag
Ġexag ger
Ġra is
Ġg en
Ġsc oliosis
ra t
Ġimprov ing
om ediastinum
vi ew
pi rat
v in
Ġpneum omediastinum
pirat ory
res p
Ġunf ol
Ġcon vin
in al
u ration
Ġconvin cing
Ġcor resp
Ġen ti
Ġpul led
Ġhi gh
r is
de f
Ġ 8
Ġu p
e ath
Ġev ident
esoph ageal
m un
om e
Ġnew ly
Ġconf ig
Ġconfig uration
Ġinvol ving
ex t
Ġimag ing
Ġp ron
u cen
Ġ ill
Ġj ust
ul a
Ġrecent ly
i o
Ġn ext
Ġesoph ageal
Ġsc an
oun ced
os e
Ġpron ounced
le c
def ined
Ġclavic le
ronch ial
Ġinf lated
Ġenti re
Ġcom mun
Ġdes cribed
ar ac
Ġ1 1
Ġre view
Ġopacification s
Ġrot ation
Ġg astric
ol ar
a p
Ġl ucen
Ġg e
Ġch arac
Ġap ic
o int
Ġ 0
Ġhyperinf lation
ic d
l at
Ġclear ly
ti mal
Ġplac ed
Ġlo op
Ġpredomin ant
Ġwor ris
Ġworris ome
Ġj oint
Ġst u
Ġstu dies
Ġreplac ement
Ġatri al
Ġhil um
te m
Ġcon clusion
Ġheal ed
iz ation
ter n
Ġinf rahilar
Ġplacement s
Ġt ra
owe l
Ġsp ec
Ġcomplication s
Ġ 7
qu i
Ġven ti
am eter
en te
Ġref er
Ġm ight
Ġab s
ex panded
Ġb owel
Ġdi ameter
Ġcor on
Ġg as
Ġprojec tion
Ġspec ific
Ġlong er
Ġg ast
Ġwiden ed
r h
ve olar
Ġsus pic
Ġgast ro
Ġexce pt
Ġins piratory
Ġcharac teri
a v
Ġrib s
Ġf lat
Ġrot ated
d ra
cur rent
Ġpo or
dra w
Ġwith draw
Ġp late
Ġcoron ary
Ġal veolar
Ġprogres sion
se ction
Ġflat ten
p en
or rh
u pright
Ġdil ated
r ach
i led
Ġ 9
re ct
Ġdiaphragm s
Ġhe ad
Ġapic es
phal ic
Ġhem orrh
Ġper ib
ce i
a que
ce phalic
ag n
ur g
Ġb rach
le vel
Ġhemorrh age
Ġp ag
th e
Ġm it
Ġmit ral
Ġdisten ded
le t
Ġlucen cy
i es
u es
Ġmal ign
li gn
Ġa lign
te s
y pical
Ġmarked ly
Ġremain ing
Ġpag ed
iti ve
Ġprogres sed
ra y
Ġmulti level
Ġtiss ues
Ġcarin al
io cephalic
b er
Ġob li
Ġg o
Ġm arg
os ition
vic ular
we en
Ġo p
Ġbet ween
Ġf oc
Ġrep osition
Ġdeform ities
ak en
Ġb ia
an cy
Ġbronch ial
Ġs pace
Ġbia pical
Ġmetast atic
Ġbrach iocephalic
Ġnot ably
Ġbronch i
is ed
Ġcol le
ul ation
Ġregion s
Ġentire ly
an k
Ġple ase
ad ow
Ġmarg in
i ous
s c
Ġcle ared
Ġfib rosis
Ġos te
Ġsh adow
Ġre cei
Ġs it
Ġdiffuse ly
u ch
Ġf at
ro und
la vicular
Ġ y
Ġm uch
Ġt re
Ġpresum ed
Ġsugges ted
Ġfr ank
Ġn eed
ven ous
e as
Ġperib ronchial
Ġmalign ancy
Ġa v
Ġremain der
Ġbon es
Ġv ag
Ġ tension
Ġrecei ved
Ġindistinct ness
Ġth y
Ġs er
Ġling ula
Ġlateral ly
Ġdi agn
Ġh umeral
Ġb en
ro id
Ġad enopathy
Ġadv ised
ical ly
Ġven a
Ġgranul oma
Ġ1 2
op aque
Ġcav a
Ġgastro esophageal
Ġcolle ction
ter nal
Ġposition s
Ġas ide
Ġabs ence
Ġspecific ally
ic i
um er
Ġthy roid
Ġresult s
Ġext ubated
Ġgen er
Ġsus pected
at ment
Ġwithdraw n
zy g
Ġpar tial
Ġa zyg
Ġex pl
Ġdo es
Ġradi opaque
Ġhyper tension
m s
Ġappropriate ly
d u
Ġtrans venous
eter min
Ġdef in
Ġperiph eral
Ġfiel ds
Ġconges tive
ur ing
Ġint ubated
Ġposterior ly
Ġob str
Ġbronch us
Ġel ong
Ġvag ue
Ġh ad
Ġsp inal
de mon
Ġhemidiaphragm s
Ġl um
Ġabd omin
Ġrel ate
comp lete
Ġunfol ded
Ġrefer ring
Ġd ated
Ġsu ch
Ġbronchi ect
Ġdi ct
Ġabdomin al
Ġright ward
Ġcorresp ond
Ġbibas al
Ġm as
Ġ es
Ġw ed
etermin ate
Ġpredominant ly
Ġt aken
Ġdi rect
qu es
Ġhil us
w ay
y ond
Ġbe yond
ub ation
Ġtre atment
Ġloc al
Ġor ogastric
Ġcours ing
i pp
diaphragm atic
ipp le
Ġn ipple
Ġleft ward
i ally
Ġhy d
Ġobscu ration
Ġco iled
Ġbronchiect asis
Ġin c
Ġde comp
Ġcorre late
peritone um
Ġfoc us
Ġsh ort
Ġpneumo peritoneum
Ġe m
olum bar
s ide
Ġthorac olumbar
Ġflatten ing
Ġinclud ed
Ġind eterminate
Ġop timal
Ġext rem
Ġhyd ro
ven tion
Ġe ff
s urg
Ġair way
Ġdiagn osis
Ġaccentu ated
Ġh ours
tr ac
e k
oc um
Ġacc o
ia b
Ġd ocum
Ġdist ribution
em in
pec ially
surg ical
Ġventi lation
ail able
Ġinc ident
te red
Ġes pecially
Ġaccentu ate
Ġsu t
Ġf usion
Ġph one
te ctomy
pos ition
Ġexagger ated
Ġm eas
Ġph ys
g round
Ġover li
Ġaer ated
Ġback ground
Ġloop s
Ġav ailable
Ġrais es
Ġdecomp ens
Ġben eath
Ġdens ities
eral ized
Ġab out
Ġsub diaphragmatic
Ġconf ir
Ġtra um
Ġb re
ter m
Ġgranul om
Ġf ore
le ad
Ġin let
Ġen ding
Ġhyperex pansion
Ġpro s
Ġpa th
Ġfore ign
Ġse e
Ġpat tern
Ġful l
o thorax
Ġdisten tion
Ġat ypical
Ġde vi
h a
Ġday s
Ġbronch ogra
Ġsit u
m ost
vention al
ced ure
Ġvein s
Ġm a
Ġlesion s
c er
s ewh
Ġpart s
Ġel sewh
Ġelsewh ere
Ġazyg os
Ġdict ation
Ġin complete
Ġsugges tion
e ared
Ġcon current
Ġre ticular
Ġp la
Ġb i
u ff
is ten
Ġ (
ation s
Ġsuspic ious
Ġv ia
Ġsi te
Ġev en
ha ps
Ġper haps
Ġas cending
Ġexpl ain
Ġcurrent ly
Ġconfir m
Ġbronchogra ms
rib u
Ġde pen
r acheal
Ġdecompens ation
Ġd ou
Ġm an
p le
Ġet t
on es
s pec
Ġreview ed
o id
Ġc uff
Ġpac ing
Ġbre ast
Ġo c
es tion
Ġqu estion
e qu
spec ific
n ing
es ter
Ġbo dies
Ġar teri
ill ary
Ġcon ventional
Ġwe ek
ici an
Ġy ester
Ġyester day
Ġd emin
as es
Ġre section
ente sis
l ung
Ġevalu ate
Ġarteri es
Ġloc ated
Ġcon ve
Ġra ther
Ġsc at
il la
Ġapp eared
iab ly
Ġobscu ring
Ġli es
Ġax illa
Ġincomplete ly
Ġpresum ably
Ġax illary
Ġdi alysis
Ġof f
Ġins er
u ous
Ġdifferen tial
Ġclavic ular
________ ________
Ġelong ation
Ġre trac
Ġz ones
Ġgo od
Ġat ten
Ġb ul
Ġwh ere
Ġdrain s
Ġs ul
Ġdemon st
Ġsul c
peritone al
Ġphys ician
Ġcl ose
Ġ ir
Ġpar at
Ġs y
pec tive
Ġre demon
e ther
Ġparat racheal
Ġcommun icated
Ġapprec iably
Ġs ke
Ġcons pic
Ġres pective
Ġintra peritoneal
Ġlum bar
Ġwi re
le tal
Ġir re
x t
p neum
Ġor ig
Ġch o
Ġirre gular
Ġs ided
Ġcharacteri zed
Ġscat tered
Ġwh ether
Ġske letal
Ġin j
Ġex ternal
Ġresol ving
Ġout side
Ġs ens
Ġb est
il y
Ġcur v
Ġdob hoff
Ġobscu res
Ġling ular
Ġhyperex panded
Ġsevere ly
Ġar tif
o tic
Ġsi x
Ġobli que
r om
Ġple u
Ġser ies
it is
Ġde x
Ġmas sive
Ġmark er
Ġev ent
lec ys
Ġdex tro
Ġorig in
Ġpro cedure
Ġsh ar
uc tive
pi te
Ġcho lecys
Ġa icd
Ġsinus es
Ġnot ing
Ġtermin ate
Ġdes pite
Ġartif act
Ġal most
lec tive
Ġf und
Ġe ti
ne l
Ġshar p
f luid
Ġob vious
Ġcholecys tectomy
Ġc e
Ġse gment
Ġwed ge
Ġplate like
g ing
Ġre ad
Ġct a
Ġfund us
le no
Ġmass es
Ġg leno
Ġtraum a
Ġac cess
p y
Ġweek s
Ġdevi ation
Ġmetast ases
Ġdiaphragm atic
Ġref lective
Ġexam s
Ġcont r
ain t
or ted
Ġmid lung
low er
y ph
Ġde tail
i te
Ġalign ment
Ġsc le
ir d
d ent
Ġnon specific
Ġk yph
Ġcontr ast
r y
an nel
h ed
Ġlarge ly
Ġch in
Ġf aint
Ġcolla ps
Ġto ward
Ġfull ness
qui red
Ġconspic uous
te rial
Ġag e
Ġtr acheal
Ġmedi ally
Ġs at
en ted
erv ation
f act
Ġse p
Ġnear ly
x ation
Ġsat is
Ġsatis fact
Ġth ird
Ġlobe ctomy
Ġcollaps ed
Ġcommun ication
Ġreposition ed
Ġdepen dent
ver se
Ġinf usion
Ġhe ight
m pt
p id
str ated
mpt om
j or
h umeral
Ġsuperior ly
Ġma jor
la mm
oph y
Ġem b
Ġpro per
Ġcorrespond s
Ġsatisfact ory
Ġsulc us
Ġnod e
ri ll
e ur
Ġobs ervation
Ġsy mptom
ib er
Ġhem o
ib rill
v ening
Ġextrem e
ibrill ator
eur ys
Ġprogres sive
ll ing
Ġoste ophy
Ġn ond
Ġappro ach
Ġpla ques
ra ting
Ġcal iber
Ġf our
Ġaddition ally
c um
Ġco il
Ġrep ort
ur y
isten ded
Ġcatheter s
Ġinj ury
or d
Ġf ir
Ġco ar
Ġcaus ed
Ġg ra
Ġfir st
Ġre du
Ġclear ing
all ic
Ġradi ation
Ġeff ort
Ġac tive
Ġmet allic
Ġincident al
o on
Ġad equ
Ġcav it
c ul
Ġtu ber
Ġb all
Ġgleno humeral
Ġb and
Ġlo bar
Ġconges ted
Ġrais ing
Ġsh eath
Ġball oon
Ġcol on
Ġfi xation
Ġtrans verse
Ġthe ir
Ġover inf
Ġdef ibrillator
Ġevent ration
Ġstruct ure
Ġmeas uring
Ġoverli es
res sion
Ġsilhouet ting
Ġnod es
r ac
Ġp ast
we lling
Ġsuper vening
Ġind welling
ribu ted
Ġsymptom s
c ement
it us
pneum othorax
Ġappear ing
Ġs ys
Ġrep orted
Ġtuber cul
Ġsup rac
Ġdocum ent
at ation
cle ar
Ġsys tem
Ġeti ology
b itus
Ġdou b
Ġsix th
Ġadvan cement
Ġapparent ly
Ġm inu
Ġac rom
Ġdil atation
ap ed
Ġsuprac lavicular
Ġun clear
ex pansion
Ġdefin itive
Ġsut ures
Ġdextro sc
Ġan eurys
ere ct
Ġse ven
Ġgener ator
Ġacco unt
Ġinf lamm
Ġdextrosc oliosis
l ass
Ġfib rotic
Ġgro und
Ġdoub t
Ġcardi ophrenic
Ġremo te
Ġpleu ra
Ġindic ative
k ing
Ġradiograph ically
Ġhydro pneumothorax
tro ph
um p
se vere
oc lavicular
sc ar
Ġrespective ly
ast y
Ġres ul
Ġ1 5
ymmet ry
i le
Ġm ere
Ġs ymmetric
Ġf if
Ġinfil t
Ġmere ly
Ġdemonst rating
Ġw ar
Ġfif th
Ġen sure
ulmon ic
scar ring
Ġar terial
Ġpost surgical
Ġtoward s
Ġpath ology
Ġfilm s
Ġasymmetric al
Ġce phal
Ġs k
Ġh umer
os c
us e
ect omy
t ous
Ġcro ss
Ġdemin eralized
Ġresul ting
al low
Ġtip s
Ġsubsequent ly
Ġconve x
Ġm ate
Ġseven th
Ġb one
si zed
Ġreplac ed
tic al
Ġpoor ly
Ġmate rial
Ġp ump
p ass
Ġby pass
Ġindic ated
Ġredemon strated
Ġan n
Ġradi od
Ġre ac
Ġas ymmetry
Ġhumer us
Ġwh ile
Ġperiph ery
ple ural
Ġobstr uctive
Ġgra ft
Ġindic ate
Ġst ab
Ġadequ ate
Ġcorresp on
Ġunfol ding
Ġclavicle s
Ġalign ed
g lass
Ġemphysema tous
Ġscan ning
di alysis
Ġhemo dialysis
Ġcorrespon ding
i oclavicular
Ġst ably
Ġacrom ioclavicular
stan ding
le ss
in ess
Ġha z
Ġobstr u
the tic
Ġwh ose
Ġdete ct
Ġjoint s
Ġminu tes
Ġpros thetic
Ġhaz iness
Ġexamination s
position ed
cur red
Ġlimit ing
Ġcaus ing
Ġrem arkable
Ġsh unt
Ġsens itive
e p
in d
s h
Ġsh allow
Ġthorac entesis
p tion
Ġ -
Ġatten tion
v entric
t oma
Ġint ro
Ġext ubation
ventric ular
Ġple thor
s tem
Ġhyper troph
Ġgener ally
Ġmain stem
p e
Ġint ubation
Ġqu ite
Ġnot able
Ġsk in
Ġh ema
Ġp ad
Ġoverinf lation
Ġal tern
Ġdisplac ement
Ġfor m
Ġdis cre
Ġplethor a
ar c
ro pl
p ort
Ġsuspic ion
ch annel
ens ity
Ġextreme ly
o le
cer tain
sh aped
Ġthe n
og en
Ġinclud es
Ġaltern ative
or s
Ġconsolid ative
Ġbas ed
Ġ icd
Ġcurv ature
Ġdiscre te
p on
Ġgranulom as
Ġl ord
Ġan alysis
a ir
Ġde line
Ġcont in
Ġpar am
Ġcuff ing
Ġm ak
l oc
Ġesophag ogastric
Ġ r
Ġcont usion
Ġosteophy tes
Ġca ge
Ġdefin ition
Ġairway s
Ġretrac tion
Ġhypertroph ic
a ortic
Ġp l
Ġthe y
Ġreposition ing
Ġhema toma
Ġt or
Ġinser tion
Ġover la
Ġlord otic
Ġch ain
Ġlimit ations
ro w
op timal
Ġdef ined
Ġcontin ue
Ġfour th
Ġsub p
Ġre current
Ġshadow s
op l
ar row
l or
Ġat t
at ous
Ġpneumon ic
Ġsubp ulmonic
Ġb asis
Ġun certain
Ġtubercul osis
es is
Ġsub optimal
Ġtor so
b ular
Ġsharp ly
Ġwh at
Ġf ew
am ber
Ġaccentu ates
Ġn arrow
Ġe k
Ġunder g
Ġ ru
Ġek g
v ocal
qui vocal
s y
Ġsup rahilar
m edi
Ġinferior ly
Ġst ri
Ġdis tension
Ġemb ol
Ġscle rotic
Ġd uring
Ġhyp o
o b
Ġborder s
Ġn ur
Ġthere fore
ran ted
Ġwar ranted
Ġin iti
Ġcardi o
Ġimp ression
is hed
Ġindic ating
ver s
Ġh ole
Ġg ase
osc op
ropl asty
Ġgase ous
Ġn or
c a
id uc
Ġne cess
Ġf iduc
Ġgranulom atous
Ġunderg one
Ġobstru ction
Ġfiduc ial
Ġstent s
Ġprov ider
Ġalternative ly
Ġh r
Ġres pon
Ġfiss ural
Ġc er
Ġf av
Ġneed s
at ory
Ġar ds
Ġbi op
Ġaneurys m
f il
Ġportion s
Ġdi min
Ġinclud e
Ġp ain
le x
Ġnond istended
Ġradiod ensity
Ġin teri
Ġd u
Ġinteri m
us ual
Ġcephal ization
Ġra pid
fil led
p ro
Ġindic ation
Ġpredomin ance
umer ous
Ġn umerous
Ġf ar
Ġpneumon itis
Ġha bitus
inf lated
ed ic
Ġcan cer
Ġpoten tial
z ation
Ġhe av
Ġkyph osis
Ġparam ediastinal
Ġmost ly
Ġpros th
Ġhemidiaphragm atic
Ġst ron
Ġcaus e
Ġcoil s
Ġdeline ated
larg e
Ġtechn ical
Ġaccentu ating
Ġcharacteri zation
gh th
Ġei ghth
Ġt ri
Ġdiffe rent
Ġne o
ures is
od en
Ġcont ain
Ġdimin ished
Ġconflu ence
Ġconfirm ed
l ateral
Ġv ar
Ġtr act
Ġsc ap
arc oid
te xt
ac e
Ġbe ca
Ġen ter
Ġbeca use
Ġth ree
Ġexce ption
Ġredu ced
a er
Ġcon text
Ġs arcoid
Ġd own
Ġdecreas ing
Ġchronic ity
g ent
Ġm or
Ġbiop sy
Ġposition al
Ġstron g
y ing
Ġacco unting
Ġl ast
Ġnormal ly
Ġradiograph y
pen et
l im
Ġinf ar
Ġcoar se
Ġtra vers
Ġtrans esophageal
Ġgen eralized
ente red
Ġc entered
Ġmal positioned
Ġres t
aer ated
Ġb le
Ġdefinite ly
Ġfollow ed
Ġbi ventricular
Ġp et
Ġdi uresis
Ġcombin ed
Ġju xt
o ther
Ġim medi
Ġmarker s
Ġunder penet
Ġanterior ly
Ġval v
Ġac quired
Ġpart ly
Ġd ating
Ġup on
Ġc ir
Ġdocum ented
Ġal read
Ġflatten ed
Ġalread y
r ated
Ġt ypical
Ġco existing
Ġinser ted
le ment
tero lateral
Ġe pic
Ġag o
Ġretrac ted
er ved
Ġre ach
Ġre quired
Ġepic ardial
tim eter
Ġthorac ostomy
Ġconsider ation
Ġshoulder s
Ġdu oden
Ġp ri
Ġretro s
Ġsut ure
ed ing
ra tive
Ġdis loc
Ġport s
Ġinflamm ation
Ġiniti al
Ġro und
Ġrespon sible
b est
Ġpul l
Ġexplain ed
Ġpri m
as h
ch amber
Ġa m
Ġe lement
Ġpo int
l um
Ġas best
Ġpo in
Ġinfilt rative
y opathy
Ġcardiom yopathy
Ġlevel s
ar ily
Ġf lex
pp ing
rib ut
Ġoste op
Ġf e
Ġsignific ance
Ġjuxt a
Ġple ur
Ġaccompan ying
Ġduoden um
Ġp y
Ġchron ically
i ter
Ġm uc
Ġf el
Ġ1 6
lum en
Ġfel t
n er
ent ation
plac ed
Ġ1 3
Ġprosth esis
Ġsur ro
Ġgo iter
Ġcavit ary
Ġosteop en
c on
d is
Ġan other
Ġpleur x
Ġ ten
Ġdis section
Ġman if
o t
Ġlocal ized
Ġthe ra
Ġw ind
Ġdist ributed
Ġwind ow
Ġcontinu ous
domin al
Ġconfiguration al
Ġor i
Ġw ide
ch ond
ur ring
ab dominal
Ġar th
Ġoc curred
Ġthera py
Ġcon dition
Ġcom mon
Ġacc um
ogen ic
Ġpath olog
oscop y
c av
Ġper m
Ġpy lor
b o
Ġincident ally
Ġe ach
ul us
Ġmo ve
Ġc all
Ġse que
Ġextrem ity
Ġoverli e
Ġhypo inflated
) .
Ġasbest os
Ġrep air
Ġstreak s
Ġseque la
d uc
v ity
Ġimp l
________________ ________________
Ġdisloc ation
f low
Ġc p
j unction
Ġse cu
Ġab ut
v is
Ġex pos
Ġext ra
Ġcon junction
the less
Ġlong standing
Ġnarrow ing
Ġ ke
oc entesis
m ul
Ġra ise
Ġwed ging
opl as
Ġsi zed
Ġprior s
Ġlimit ation
Ġpl ain
Ġsurro un
ar t
er gent
Ġcalc ific
Ġout flow
Ġtrans p
Ġne ver
Ġman ner
Ġbe ing
Ġnecess ary
Ġre ques
iti vity
Ġpect us
Ġsarcoid osis
Ġreques ted
Ġpers isting
Ġster n
Ġf unction
Ġventi lated
Ġsep ar
t y
Ġe quivocal
id ering
Ġref le
Ġdete ction
bo ard
a pp
Ġcons idering
eral ization
Ġinvol v
Ġstab ility
Ġmak es
Ġexpos ure
c m
Ġc ys
ary n
Ġd ash
Ġed ge
Ġoc cu
Ġar m
Ġsti mul
Ġdash board
c ent
Ġo g
Ġenlarg ing
Ġindic ates
Ġtravers es
Ġmetast asis
Ġform ation
Ġretros ternal
Ġp us
Ġconsolid ated
Ġk in
Ġrel ates
Ġpoin ting
Ġsurroun ding
Ġc are
Ġn in
Ġexagger ating
Ġhead s
Ġnur se
Ġke ep
y ed
Ġstimul ator
Ġnin th
Ġm ust
Ġre tic
Ġun usual
at osis
Ġhi atus
Ġdifferen ce
i ze
Ġdemin eralization
Ġkeep ing
Ġcoar s
um or
Ġm y
Ġloc ulation
Ġshow ed
l and
Ġcer tain
Ġcost o
Ġconve yed
Ġcommunication s
x r
Ġc xr
Ġobs erved
st ration
Ġcross es
Ġscle rosis
Ġmanif est
aryn x
Ġsit ting
Ġquestion able
Ġble eding
Ġpus hed
in ear
ou ght
Ġsub pleural
Ġirregular ity
Ġstri pe
em ergent
Ġpersistent ly
Ġhyper lu
Ġ1 4
Ġcaus es
Ġt umor
Ġcav ity
Ġheal ing
is m
Ġt b
esoph ag
Ġthorac ocentesis
Ġth ought
ho le
i red
Ġsh own
Ġcli p
Ġg lo
Ġprojec ted
Ġup ward
Ġintro duc
Ġnever theless
Ġvisual ization
Ġsens itivity
Ġdetail s
Ġe lect
il inear
Ġann ular
Ġpylor us
- ___
it al
Ġsp le
Ġcurv ilinear
m id
s p
Ġw ill
cum ulation
esophag us
b ing
u ation
Ġtrac king
Ġann ulus
o und
if ted
rec ted
Ġc ri
p re
Ġex ist
Ġsh ifted
Ġcardio thoracic
sp ine
o k
Ġinflamm atory
Ġintroduc er
on ia
Ġp edic
Ġde term
Ġimp os
Ġcomponent s
Ġdeterm ine
Ġimpos sible
on ed
Ġf ragm
od ular
Ġoverla pping
Ġpedic le
c in
m it
Ġf act
Ġpos terolateral
Ġless er
Ġmeas ures
Ġredu ction
l ing
Ġi vc
Ġfiss ures
Ġdou ble
chond ral
Ġp lu
Ġe rect
Ġdes ired
Ġembol ism
Ġscap ula
om atosis
Ġmo tion
Ġfor ward
Ġte am
Ġ0 9
d istended
Ġto o
Ġasymmetric ally
Ġelong ated
Ġd one
Ġev ol
Ġhigh ly
Ġw et
Ġst y
aren cy
Ġcar cin
Ġc en
Ġl ater
Ġpneumon ectomy
Ġinf orm
Ġreg ard
Ġstab il
Ġcri tical
Ġa round
ri ght
Ġv p
ardi um
se l
Ġplu g
Ġexten d
Ġtransp arency
Ġstern um
Ġsty let
Ġobscu re
Ġvar i
Ġ1 7
Ġradi ology
Ġbronch oscopy
Ġintro du
ti um
Ġfin al
Ġaccum ulation
Ġmanifest ation
Ġfil ter
Ġth in
Ġn ature
Ġal one
Ġli ver
Ġhem othorax
ĠĠ Ġ
Ġne oplas
Ġemb oli
Ġm d
Ġfoc i
Ġser ious
o od
Ġit sel
Ġinfilt ration
Ġitsel f
Ġth us
Ġtu bing
Ġinter pre
ap e
Ġcir cum
is placed
Ġf eas
Ġsurf ace
Ġ0 8
Ġlum en
Ġintersti tium
Ġfracture d
Ġtelephone on
Ġfeas ible
Ġloop ed
Ġatt ribut
Ġimpl ant
n ant
ol ateral
Ġrem nant
Ġredemon stration
Ġattribut able
. .
Ġp el
Ġre t
ren ce
Ġtrac ed
Ġcen timeter
Ġcom ment
Ġsp ic
Ġrefle cted
Ġkyph otic
Ġnond isplaced
Ġch annel
Ġbo re
Ġte m
Ġs cre
Ġto tal
Ġconsider able
os p
Ġsecu re
Ġspic ulated
Ġlo ok
i um
ti l
Ġobli qu
Ġunderpenet ration
Ġstabil ization
ar ding
ang ular
Ġbl ood
Ġvalv ular
n t
Ġdis h
Ġcorre lated
Ġside hole
Ġdemonst ration
Ġcosto chondral
Ġret ur
Ġ q
in c
Ġse ating
pac es
Ġcomp are
Ġpre operative
Ġbase line
urg ent
Ġfragm ent
tion s
Ġheav ily
Ġimmedi ately
c ies
Ġor der
Ġradi olog
Ġreg arding
Ġ0 5
Ġverteb ra
Ġpla que
Ġre nal
ual ly
Ġha ze
Ġmor ph
Ġabut ting
Ġ ul
Ġde cu
Ġaccentu ation
like ly
Ġenter s
Ġevol ving
Ġdecu bitus
i ary
th ere
Ġdi rected
Ġabs cess
in ary
s ing
as on
et ric
Ġthick ened
a iled
Ġde p
Ġcont ribu
Ġco al
Ġverteb roplasty
Ġobliqu ity
Ġl ack
ri es
Ġre ason
Ġcontain ing
Ġextra pleural
Ġesophag ectomy
Ġcavit ation
l ous
ot omy
Ġan ti
Ġco inc
Ġrecommendation s
Ġexagger ate
Ġbul la
Ġscre w
Ġa ble
ang e
ob str
i ve
t is
Ġc ough
Ġre tained
Ġcons equ
Ġsi ted
Ġne i
Ġbul lous
Ġsple n
Ġre qui
Ġmon th
itone al
Ġexpl an
Ġinvolv ement
Ġconsequ ence
Ġa ff
Ġdist ortion
Ġsep tic
Ġinfar ction
ced ural
Ġlymph ang
Ġse cre
Ġresid ing
mit ted
Ġcentimeter s
Ġnei ther
ti g
Ġwithdraw al
isten ce
Ġretur n
obstr uctive
Ġb il
Ġgro w
Ġsep tal
Ġneo esophagus
Ġcoal es
uc ent
Ġpel vis
Ġf low
Ġde t
Ġsh ape
Ġpatholog ic
Ġexplan ation
Ġli p
Ġdefinitive ly
Ġinform ation
Ġun likely
Ġbl urring
Ġru led
un ted
Ġopac ified
Ġnodular ity
Ġmas tectomy
Ġatt ributed
Ġexist s
b ronchial
Ġ ,
Ġe ct
Ġh osp
Ġbl unted
Ġartifact ual
Ġtri angular
Ġhosp ital
d al
Ġt y
Ġde ep
iti c
per ic
Ġcorre l
Ġresult ant
Ġneed ed
Ġp age
Ġv s
it u
Ġpers istence
cen cy
Ġaneurys mal
Ġosteopen ia
Ġkin k
b as
s itu
Ġazyg ous
Ġoverla p
ac u
Ġstrong ly
Ġdet ailed
Ġin n
op er
Ġsus pect
Ġjuxta hilar
Ġty pe
Ġan ch
Ġre curred
Ġ___ -
ove red
Ġprim arily
Ġsecre tions
Ġp en
Ġtr ue
Ġrot ator
st omy
Ġlucen cies
Ġy ear
Ġtraum atic
Ġadvan cing
Ġly ing
Ġaspect s
Ġcoil ing
Ġmorph ology
Ġm ig
ate nt
ass ess
Ġarth roplasty
Ġcertain ly
. ___
oph arynx
Ġente red
Ġcharacteri ze
Ġde position
Ġmil lim
Ġlymphang itic
te st
is h
is ted
il tr
Ġe ch
Ġm ist
inf iltr
Ġsymmetric ally
Ġreac cumulation
Ġintrodu ction
u pper
Ġsu c
at um
Ġresid es
Ġbil iary
Ġmist aken
id ing
Ġde termin
og n
Ġon ce
Ġsuc cess
Ġs low
Ġsub mitted
Ġh al
Ġcompar able
Ġfol d
io tic
Ġma ke
Ġaccount s
Ġ ;
lect asis
Ġcentral ly
Ġac cur
Ġl ucent
Ġpre lim
Ġatten uation
Ġmak ing
app ear
infiltr ate
d es
t ation
Ġd est
Ġheav y
Ġanti b
Ġhal f
Ġbronch itis
Ġprelim inary
Ġantib iotic
' t
Ġlocation s
Ġdest ru
c age
Ġ us
Ġo v
Ġt un
Ġt ree
Ġrec ogn
Ġrib cage
Ġcontribu te
Ġcost al
cur rence
Ġex cav
Ġres piratory
Ġflex ed
Ġmillim etric
Ġis land
Ġpneumo peric
Ġimpro ve
Ġ0 4
Ġelect ro
Ġexcav atum
Ġpneumoperic ardium
Ġn one
Ġm e
Ġdiagn os
re lated
Ġt ric
Ġle v
Ġsc out
Ġfil led
Ġr ange
Ġori entation
Ġw ater
Ġtubercul ous
k nown
ar ing
ac er
Ġb ub
Ġ1 8
Ġeff ect
Ġplug ging
Ġaff ect
er ve
at ter
Ġpresent ation
Ġperiph er
Ġov oid
Ġbub ble
us pid
ne led
iz ing
Ġatheroscle rosis
Ġop aque
Ġoff ic
Ġcoinc iding
Ġtun neled
Ġap art
Ġnas o
Ġconfirm ation
Ġtric uspid
at s
Ġru le
Ġmuc ous
Ġperipher ally
t ra
Ġre assess
res sed
Ġsimilar ly
Ġside port
Ġan at
Ġan tr
Ġpro be
Ġsp read
Ġsplen ic
bas ed
Ġantr um
Ġsp aring
Ġfollow s
Ġce ll
x ic
Ġde pic
Ġex pansion
Ġconsider ations
Ġinfar ct
Ġun known
oc ardi
Ġdense ly
ici ent
Ġsymmetric al
Ġinterpre tation
1 0
n am
tr as
Ġhyperlu cency
Ġradiolog ist
un ct
ra di
Ġsu ff
test inal
f e
Ġ ring
Ġl atter
Ġ2 4
ente ric
Ġul tras
) ,
Ġb are
Ġresid ent
appear ing
Ġultras ound
Ġbare ly
ate lectasis
Ġex isting
op neum
Ġpre c
Ġmargin s
Ġdevi ated
Ġglo bular
Ġto xic
ve x
Ġnon emergent
Ġdepen ding
Ġpleu ro
Ġs a
Ġs paces
Ġm ic
Ġw id
Ġnon urgent
j u
Ġvisual ize
Ġteleph oned
ju gular
Ġp e
Ġp unct
ri d
Ġb ar
ve al
Ġtrans jugular
Ġdist inct
Ġtem p
radi ation
Ġ use
Ġun e
Ġinters pace
Ġcl ar
Ġread ily
tra um
Ġwid th
ol d
Ġlo b
it ation
Ġtu bular
Ġwh o
Ġmor ning
Ġect atic
1 2
Ġre qu
Ġly tic
opl asty
Ġune quivocal
Ġb ed
an ent
Ġim pac
pro cedural
Ġperm anent
Ġnaso enteric
m atic
Ġre veal
Ġ2 0
Ġtrache ob
Ġthorac otomy
pro cedure
Ġprim ary
Ġori ented
Ġech ocardi
Ġprec ise
Ġm ed
Ġtri ple
Ġretic ul
traum atic
Ġf air
ay ed
Ġbo ard
Ġgre at
Ġshow ing
Ġlip omatosis
Ġpunct ate
le y
le ft
Ġv ats
Ġcan n
Ġtoxic ity
Ġd ors
Ġsh e
Ġdil ation
Ġcollection s
Ġcephal ad
Ġcys t
Ġserious ly
Ġsuff icient
Ġs mo
Ġat tem
Ġfocal ly
umer able
Ġinn umerable
en d
Ġh or
Ġventric ul
section al
Ġrapid ly
Ġcys tic
Ġper cutaneous
Ġfav oring
Ġs ides
Ġn erve
Ġd en
Ġcardi ogenic
Ġcall us
Ġcare ful
Ġreticul on
Ġgastro stomy
Ġcarcin oma
Ġrequi re
Ġfair ly
Ġdors al
s cribed
Ġo ur
Ġf lu
Ġre expansion
Ġben ign
Ġtemp or
Ġreticulon odular
Ġre currence
Ġrec or
iz ontal
Ġpass ing
Ġobli te
Ġosteophy te
Ġcolon ic
Ġimmedi ate
Ġoccu py
Ġneoplas m
Ġ tent
om ogen
Ġdra matic
Ġcoales cent
Ġunequivocal ly
Ġhor izontal
Ġidentif y
Ġlead ing
osc oliosis
oper itoneal
Ġaccur ately
Ġden o
Ġtempor ary
u ish
Ġl atent
Ġin clusion
an ces
Ġd ys
Ġrepresent ative
Ġtracheob ronchial
Ġrecor ds
Ġex acer
Ġdisc on
olog ies
Ġconsider ably
Ġapic olateral
Ġwar rant
Ġscrew s
p ulmonary
Ġradi o
Ġvi ral
Ġro ugh
Ġquestion ed
Ġoverinf lated
Ġunderpenet rated
Ġventricul operitoneal
Ġtent ing
Ġexacer b
o red
Ġs tem
Ġendo bronchial
Ġexten sion
Ġperib ronch
Ġsitu ation
Ġrough ly
i od
Ġm en
Ġdis ting
Ġdi d
Ġport ably
Ġbronch opneum
Ġdisc overed
Ġ0 7
demon strated
Ġ- -
Ġosteopen ic
Ġperm its
l in
s vc
al le
Ġse em
Ġintra vascular
Ġeti ologies
Ġcoars ened
acu te
Ġmig rated
ar one
Ġdict ated
Ġam iod
omogen eous
Ġamiod arone
o ing
s olid
Ġp eg
Ġb rid
Ġac ro
Ġscap ular
Ġfe ver
Ġmonth s
Ġn um
Ġh er
Ġreac tive
Ġslow ly
Ġacro ss
Ġh our
Ġor gan
Ġradiod ense
Ġbar ium
Ġdisting uish
e val
is tic
Ġe pi
pi es
Ġsuperimpos ition
Ġarch ite
Ġind entation
Ġstri king
Ġfav or
Ġoccu pies
Ġarchite ct
Ġin testinal
Ġex pan
gres sive
Ġsulc i
Ġnecess arily
Ġsuccess ful
Ġnum ber
s es
th rough
Ġs um
Ġsh aped
Ġhigh er
Ġreac tion
Ġdetect ing
Ġvalv es
Ġretic ulation
Ġcorrel ates
Ġc ran
Ġh and
Ġdis s
Ġpar a
py lor
Ġdepic ted
Ġbronchopneum onia
Ġsum m
en cy
Ġb ro
Ġor th
Ġprocess es
Ġdrain ed
Ġphys ical
Ġcommon ly
Ġpen et
Ġyear s
Ġbrid ging
a ment
Ġsp urring
Ġass ist
Ġatri o
py ema
Ġoccupy ing
pylor ic
g oing
p ortion
Ġ usual
Ġn eg
Ġon going
con solid
te ad
Ġh omogeneous
Ġse qu
Ġse gmental
Ġvi r
Ġpac k
iss ural
Ġcrow ded
moderate ly
Ġhyp opharynx
Ġlook s
p late
Ġhyper d
Ġol der
t inu
Ġ iab
Ġs ay
ti ated
Ġag gressive
cav oatrial
Ġdestru ction
Ġorth op
consolid ation
Ġiab p
b ore
Ġl v
Ġsub acute
Ġend plate
Ġperi vascular
dy nam
Ġgen eral
Ġmy el
Ġanat om
Ġdiscon tinu
i p
Ġt ak
ron ic
Ġins tead
Ġdetect able
Ġlev oscoliosis
Ġrequ est
Ġdiss emin
Ġorthop edic
g re
n d
th an
ac terial
Ġli e
Ġli g
ru g
ates t
Ġk er
Ġang ulation
Ġreturn ed
ded icated
Ġpar as
Ġdisc ord
cen timeter
Ġne ut
Ġem pyema
Ġsumm ation
Ġneg ative
gre ater
al e
Ġh ow
ch dal
Ġpro du
Ġsi z
Ġair less
Ġob tain
tic ally
Ġdistal ly
Ġcur led
Ġimplant s
Ġrecogn ized
Ġaffect ing
Ġc ore
tion ed
Ġcardi ovascular
Ġor al
Ġun ilateral
Ġun ex
Ġdis cern
pneum onia
pid ural
loc ulated
con vex
chdal ek
j ect
Ġe pidural
Ġd rug
Ġst ra
Ġpar alle
Ġhemo dynam
Ġker ley
c i
Ġb ig
Ġacute ly
ograph y
Ġbo chdalek
Ġnur ses
Ġfav ors
Ġsequela e
Ġq ual
Ġus ing
Ġepi g
Ġh ous
Ġf ac
Ġcomp le
men sion
Ġscar s
Ġten d
e j
ul ating
Ġdi mension
Ġsub centimeter
Ġcar ries
Ġpredomin ating
Ġbul ging
Ġlig ament
ej un
e ffusion
p inal
Ġth ose
Ġcon tig
Ġtu r
li p
Ġres pect
Ġmonit or
Ġcorrect ly
Ġtre ated
Ġdown ward
Ġsepar ately
Ġsa fe
Ġatrio ventricular
Ġsp ond
Ġpost obstructive
Ġnotif ied
cen ds
Ġrest ric
Ġreach es
Ġpoint s
Ġvir t
Ġspond y
Ġre al
Ġde pos
Ġas th
Ġsubstan tiated
Ġmalign ant
Ġdextro convex
Ġten th
Ġ ?
Ġo val
Ġb es
Ġsu re
Ġgi ving
Ġfib ro
Ġprojection al
Ġparas pinal
Ġcontig uous
i gh
o ti
ti es
Ġm agn
Ġfol ded
Ġanch ors
Ġ #
Ġd omin
Ġch amber
Ġpos itive
Ġsc ale
Ġcar oti
Ġqu an
Ġco ver
Ġexagger ation
Ġreplacement s
Ġglo b
Ġqual ity
h an
p arenchy
Ġc ase
ct ing
Ġpre existing
Ġte ll
Ġcharac ter
Ġbes ides
parenchy mal
o f
cu le
Ġpostoperative ly
Ġel lip
Ġimpac tion
Ġhous e
Ġh is
Ġenter ing
Ġlob ulated
Ġbig ger
Ġasth ma
Ġ ________________________________
Ġcon cei
Ġbe h
if y
Ġg land
Ġcal led
____ __
________ ______
Ġoptimal ly
Ġcontain s
________________________________ ______________
Ġq a
Ġbed side
Ġdissemin ated
Ġ________________________________ ______________________________________________
Ġconcei v
y si
Ġin trac
Ġb b
Ġse ed
Ġbe com
res ol
ogra m
Ġi le
Ġfi ve
Ġmulti loculated
Ġcoars ening
Ġvari ation
Ġvari ant
Ġmed ical
Ġcaroti d
Ġbeh ind
al tered
Ġun altered
Ġlarg est
Ġdens er
Ġav r
Ġcomple tion
Ġsh a
teb ral
lat ory
Ġcross ing
Ġembol us
Ġseem s
Ġtur n
u ries
Ġp m
Ġradi ol
Ġos s
ys is
am p
tim ated
pt ure
Ġoc c
Ġinj uries
Ġcir c
Ġhyperlu cent
Ġexacerb ation
Ġsiz able
Ġellip tical
Ġsha ft
f er
Ġas ci
Ġex isted
Ġrep res
Ġreg urg
Ġcor tical
Ġprogres sing
Ġventi latory
art ment
Ġdep artment
Ġbulla e
Ġdomin ant
Ġasci tes
Ġregurg itation
l ay
Ġcon tent
Ġac ce
Ġmass like
Ġpl an
Ġmic ron
Ġshe et
Ġmyel oma
Ġile us
u ge
Ġe c
Ġan terolateral
at ures
Ġpa uc
Ġtr an
cardi ogenic
Ġregion al
Ġsupport ing
dist ributed
Ġthorac o
Ġproper ly
oscop ic
Ġreach ing
Ġcarcin omatosis
Ġcann ula
Ġpauc ity
c ence
Ġ Ċ
Ġc v
Ġo per
as piration
Ġexclud es
Ġhe p
Ġflex ure
Ġvertebra e
Ġoffic e
Ġglob al
han ced
in ter
Ġp se
il d
Ġex act
Ġimp ort
Ġfragment s
Ġpse ud
Ġ term
ne ath
Ġu r
cl us
Ġcl us
Ġunder neath
Ġph ysi
Ġinvol ve
Ġgleno id
Ġband s
Ġnarrow ed
Ġgrow n
Ġkink ed
Ġrepres ented
f issural
Ġis in
Ġh uge
Ġcont ribution
Ġcont ribut
Ġosse us
Ġpo le
Ġdes cends
Ġav oid
clus ive
ac ted
Ġcl os
Ġadequ ately
Ġneoplas tic
Ġlv ad
c ir
r ome
u ity
Ġo pp
Ġl atest
Ġab and
Ġob ject
str ates
Ġi ps
Ġro ds
lo bular
Ġsy nd
Ġform ations
Ġdepos its
Ġsynd rome
Ġre distributed
Ġ___ %
Ġinter f
Ġupper most
Ġcalc ium
Ġintra fissural
Ġtechn ically
ici ency
Ġobstru cting
Ġkin king
Ġdetermin ed
Ġtak ing
Ġaband oned
Ġips ilateral
t u
Ġn p
es tig
Ġatelect ases
Ġappear ances
ut ine
Ġcor dis
Ġro utine
Ġfil ling
Ġinv estig
Ġconvex ity
Ġfact ors
Ġdiagnos tic
Ġmen tioned
eval u
Ġvirt ually
1 1
Ġo u
Ġun til
Ġcont acted
Ġcl amp
Ġdifferen ti
Ġproximal ly
Ġatten ding
Ġminu te
dis placed
o th
Ġa ct
Ġs ten
Ġb ran
Ġacu ity
si le
Ġad j
Ġcar ing
Ġexten ded
Ġy et
Ġconspic uity
Ġexpan sile
Ġconceiv ably
Ġbran ch
g ed
Ġsub jacent
ec tive
Ġremain ed
Ġmin d
av r
Ġcolle cted
cum scribed
Ġsepar ation
cir cumscribed
. ,
c al
it ary
Ġdef ect
Ġrel ayed
Ġvag al
Ġlocal ize
Ġelectro de
Ġthoraco abdominal
i ation
Ġf lo
Ġg all
si ent
inf ec
Ġfol ds
lo bar
Ġdirect ly
Ġpatholog ical
Ġneut ral
Ġtran sient
Ġin ten
Ġf l
Ġse al
Ġmild er
Ġmid portion
Ġng t
Ġstent ing
Ġmain ly
Ġband like
Ġinvolv es
Ġelect ronic
Ġflow ing
Ġou ter
Ġl ap
ro p
der ness
Ġvis c
Ġi v
Ġexagger ates
Ġem ail
Ġelectro des
Ġfac ility
Ġacce pt
or ding
Ġtermin ation
inf lamm
Ġacc ording
Ġpossib il
ma iled
Ġmuc us
Ġten derness
Ġechocardi ography
Ġusual ly
Ġcover ing
f unction
o thoracic
Ġ '
Ġb at
Ġun less
Ġsi tes
if orm
Ġinter position
Ġ1 9
Ġwor k
Ġpost traumatic
Ġperi od
Ġ0 6
demon strates
Ġlocal izing
Ġprogressive ly
Ġiniti ally
Ġanch or
Ġattem pt
Ġoblite ration
Ġaccept able
t ly
Ġm ri
Ġt avr
Ġcon ne
ardi ac
pac ity
se al
si p
Ġar ms
Ġcol lect
Ġei ght
Ġdramatic ally
Ġmagn ified
Ġpossibil ities
d esis
p ted
Ġs its
Ġcon clusive
Ġde c
Ġdis pl
Ġsub lu
Ġagain st
Ġj ejun
Ġmassive ly
Ġtravers ing
dis tal
Ġsequ en
Ġcontent s
Ġur gent
t re
Ġb acterial
an ted
Ġhem op
Ġver tically
Ġlymph oma
Ġoste o
Ġcer vic
Ġsecu red
Ġfact or
t ysis
Ġ ris
re ction
Ġp ulmonic
Ġf ine
ic u
it ud
Ġbe g
Ġpos ted
Ġsub tly
Ġheight s
Ġabut s
Ġradiol ucen
Ġhep atic
Ġimport ant
Ġinterf ace
Ġcollect ing
Ġhemop tysis
c p
Ġn sip
ac cumulation
Ġclear ance
ort un
Ġsc ans
Ġreg ressed
Ġintra venous
stan ces
Ġcombin es
Ġbul k
Ġuse ful
Ġdiscord ance
Ġcontribut ing
Ġsequen tial
a ff
is ition
Ġe p
ra ble
Ġun able
ver tebral
Ġmo dal
Ġradiograph demonstrates
Ġacc oun
Ġdiameter s
Ġcircum stances
Ġcervic othoracic
Ġaccoun ted
Ġbul ge
Ġimpl anted
Ġclar ify
Ġepig astric
inflamm atory
c ys
Ġa mon
Ġa men
Ġw ay
oc k
Ġinter vention
Ġsub c
Ġalong side
Ġinspiration al
Ġ0 3
Ġser ial
Ġeff ac
Ġkyph oplasty
Ġmuc oid
Ġsmo oth
Ġdeno te
Ġwarrant s
Ġanatom ic
igh ted
Ġbecom e
Ġpseud o
rop athy
Ġamon g
Ġamen able
d ated
x ed
ar th
or ation
op ath
Ġwe ighted
Ġpers on
Ġbronch o
Ġver tical
Ġpredomin ately
Ġrepe ated
Ġeff ective
Ġread ing
Ġfe atures
Ġdep ression
Ġflo or
Ġmargin ated
position ing
Ġexplain s
Ġbul let
Ġpleuro desis
Ġclus ter
Ġep is
s ures
Ġ /
ri ding
ri tis
ra ys
our ce
Ġpre fer
Ġend ogastric
Ġ2 1
Ġha ving
Ġct s
Ġpres erved
Ġpres sures
Ġne ph
Ġbre ath
Ġman y
Ġvar ious
Ġarth ropathy
Ġarchitect ural
Ġbat tery
tre atment
f usion
m ild
Ġs ent
Ġs ick
Ġf em
Ġst ation
Ġlong itud
Ġthyroid ectomy
Ġconcurrent ly
Ġwhere as
Ġmy c
Ġtem per
Ġsten osis
g ra
Ġp cp
us ted
ral ateral
Ġle ak
Ġcar til
Ġtrac k
Ġup dated
Ġman di
Ġmajor ity
Ġthin k
Ġparalle ling
Ġris k
Ġsick le
o ce
p ir
u ted
Ġp ur
ar inal
Ġs te
Ġs ource
as ia
mal l
ic ial
Ġpneumo cys
Ġun iform
Ġcont ralateral
Ġaort opulmonary
Ġi di
Ġmas k
Ġdocument ation
Ġparam edi
Ġembol ization
Ġperibronch ovascular
resol ution
Ġact ually
Ġtemper ature
Ġpneumocys tis
h y
Ġe mailed
Ġh ol
Ġ2 3
od ys
Ġdecompens ated
Ġwater seal
Ġdys function
Ġmicron odular
Ġjejun um
opath ic
Ġmandi ble
Ġidi opathic
k en
s mall
Ġm i
om egaly
Ġst ate
Ġas pir
Ġim mun
Ġper itoneal
Ġ2 2
Ġtrac tion
Ġnon cardiogenic
Ġoste odys
Ġes timated
Ġsegment s
troph y
Ġ- -___
Ġsepar ate
Ġradiolucen cy
Ġlongitud inal
Ġosteodys trophy
d en
e f
p ar
ri um
Ġt a
at oce
Ġinter medi
Ġper it
Ġfin ally
Ġdef iciency
Ġresol ve
Ġmonit ored
mo re
Ġlocal ization
Ġaccess ed
Ġsk inf
lin es
Ġpenet ration
Ġcharacter istic
tu be
Ġparamedi an
l icated
es es
Ġapp end
Ġeviden ced
Ġca p
Ġca val
Ġli ght
Ġmore over
Ġcontinu ing
Ġcur ve
Ġnon dedicated
Ġprosth eses
Ġorder ing
des cribed
Ġgreat ly
Ġbro ken
Ġoss ification
t in
u a
Ġe as
oc a
Ġg lass
Ġpost radiation
Ġprov ide
Ġoffic er
Ġflu or
Ġorgan izing
Ġtend in
Ġrestric ted
Ġspondy lo
Ġsubc arinal
e per
m ediastinal
as ties
Ġb if
an eurys
Ġcomp lex
Ġreg ression
Ġmedi port
Ġresid ua
olog ic
Ġph arynx
Ġ0 0
Ġreac cum
Ġgraft ing
ropl asties
Ġpull ing
Ġgrow ing
infec tion
Ġfem oral
Ġcartil age
Ġperit racheal
Ġappend age
aneurys m
, ,
Ġde eper
ost osis
si gn
Ġlay er
Ġrefle ction
Ġprodu ce
Ġbeg in
Ġaspir ated
Ġskinf old
Ġspondylo tic
w h
Ġ ent
Ġp an
en hanced
Ġcon gen
Ġst aff
est ab
Ġcont act
ific ant
identif ied
Ġexam ple
Ġac qu
cath eter
Ġdiscus sion
st ance
Ġobli ques
Ġmeas ure
Ġperibronch i
Ġoper ative
Ġdifferenti ate
sign ificant
estab l
s u
Ġ establ
Ġc c
Ġof ten
Ġpneum atoce
Ġpro st
ain ed
Ġwh ite
Ġport a
Ġcentral ized
Ġdiscus s
oli otic
Ġsitu ated
Ġru pture
Ġble b
Ġgall st
Ġpseudo aneurysm
Ġpneumatoce le
Ġor opharynx
Ġun comp
arg e
Ġinter lobar
ur c
Ġver b
Ġrel ating
Ġdist ance
Ġben ef
app eared
Ġechocardi ogram
Ġinclusion s
Ġocc ult
Ġprefer ably
Ġacqu isition
Ġuncomp licated
z ing
Ġin significant
Ġe g
Ġm iss
Ġh d
Ġmid thoracic
Ġad en
Ġsim ul
Ġwall s
pl ained
Ġsuboptimal ly
Ġcircum stance
Ġreassess ment
evalu ated
Ġsublu xation
Ġmodal ity
hy d
Ġhol ds
Ġperibronchi olar
is cule
Ġri ding
Ġre ally
Ġcomp ens
Ġpresent ly
Ġinters paces
ven ti
Ġmin iscule
Ġmain tained
Ġbronchi ol
Ġfaint ly
Ġcavit ated
Ġupward s
Ġcran ial
Ġunex plained
Ġbif urc
Ġcongen ital
Ġverb ally
c tive
p ly
ti t
Ġin ges
an ing
Ġcom min
tic ip
Ġres or
Ġpost procedural
Ġ( ___
rom ised
Ġgra d
ind eterminate
Ġcertain ty
Ġrequi res
Ġattem pted
e ve
l ong
r oma
in oma
Ġthe m
Ġf ung
os ed
Ġev acu
cl age
Ġinterval ly
Ġass um
Ġsim ply
Ġso on
Ġsup ra
av itary
Ġcer clage
Ġretros pect
Ġloculation s
Ġreveal s
Ġoblite rating
Ġhyperd ense
Ġintermedi us
Ġbegin ning
ticip ated
p m
t osis
Ġ er
th ing
ul ature
oc arc
val ve
Ġhyper ostosis
Ġdist orted
Ġrefer rable
Ġconfir ms
Ġflex ion
Ġhemodynam ic
Ġhemodynam ically
Ġintrac avitary
Ġcommin uted
ocarc inoma
Ġe qui
Ġw ax
Ġt am
pp ed
Ġpatient s
Ġk n
Ġpres ented
Ġrel ax
olog ist
Ġdist ort
Ġobli ter
Ġclose ly
pon ade
pro ximal
Ġarchitect ure
Ġunex pected
Ġtam ponade
y ear
Ġc res
Ġc ut
Ġc overed
Ġto ge
Ġpro ved
Ġex clusion
ost al
gen cy
Ġapproxim ate
vasc ulature
Ġfe ature
Ġsmo king
Ġinten ded
Ġtoge ther
l s
v es
z one
Ġ "
Ġc y
ar io
en ario
Ġm im
Ġan ticipated
it ant
Ġor ific
Ġpro cedural
Ġref e
Ġsc enario
ab ility
Ġk ne
Ġperic ardi
Ġexce eding
Ġ0 2
Ġbrach y
Ġdu ct
chond roma
Ġpylor ic
Ġinterpre ted
Ġdestru ctive
Ġclamp ed
tit ution
Ġrelax ation
Ġ ide
as ion
Ġcon com
Ġle n
Ġre di
Ġli k
Ġdi rection
Ġperf oration
Ġamount s
Ġventi l
Ġser vic
Ġobvious ly
Ġcircum scribed
Ġtotal ly
Ġdiagnos ed
Ġhyperd ensity
Ġquan tif
Ġec mo
Ġorific e
Ġconcom itant
Ġ icu
Ġp ow
Ġs olid
ti tial
es ted
pac emaker
Ġen ough
Ġex piratory
Ġcompar ing
Ġad min
Ġsc oliotic
Ġenti ty
Ġoblique ly
Ġcontusion s
Ġreach ed
Ġpoin ted
Ġintrodu ced
Ġdetermin ation
Ġradio pacity
Ġcirc ulation
Ġbroncho vasculature
Ġeas ily
Ġbifurc ation
Ġpow er
o ff
u ro
er gency
Ġlo ose
Ġst ap
Ġ___ ;
Ġab ru
Ġinter c
tr act
Ġdis cl
Ġdis appeared
dle s
Ġperic ardium
Ġrais ed
Ġexplain ing
Ġhypo x
Ġpe er
lay ing
cal c
Ġeffac ement
Ġaden ocarcinoma
hyd ration
Ġinges ted
Ġfung al
Ġevacu ated
Ġventil ator
Ġservic e
Ġabru pt
in s
Ġp atent
is sion
Ġm r
Ġm us
Ġex changed
Ġcomparison s
pos ed
Ġpo ol
cla vicular
Ġtrans bronchial
Ġshift ing
Ġmal position
Ġgo ing
Ġmanif ested
Ġreason ably
Ġcorrel ating
Ġmig ration
Ġsuccess ive
Ġcore valve
Ġstra d
Ġquan ti
Ġwork up
Ġconne cted
Ġneph ro
Ġexceeding ly
Ġstap le
Ġinterc ostal
b i
c ular
Ġm at
ri lobular
Ġen chondroma
ll a
ru ption
omin ate
Ġcent rilobular
Ġintra pulmonary
Ġearli est
Ġloop ing
Ġem ergency
Ġresection s
Ġr un
Ġrespon se
Ġcv l
Ġosteo arth
Ġtrack s
Ġbrachy cephalic
a pical
c o
h is
Ġa ch
Ġf ace
Ġf ound
Ġsome tim
Ġdisplac ing
Ġve il
Ġtechn ologist
Ġsw allow
Ġ0 1
Ġme an
Ġvisc eral
oca val
Ġkne e
b ack
t ment
Ġm ax
us ed
Ġw ider
Ġre tract
Ġview ed
Ġcompar tment
Ġhemi thoraces
Ġins titution
de red
Ġprojection s
Ġscat ter
vis ual
Ġta ke
Ġbronchiol itis
thor ac
Ġinter ventional
Ġinter posed
Ġwors en
Ġany more
Ġacrom io
Ġcran ially
Ġpenet rated
Ġcirc ular
Ġprost ate
p atient
s et
s titial
re ctomy
Ġp al
Ġc ou
as tic
il ic
ra m
Ġun d
Ġde his
Ġex pect
Ġev ening
Ġinter vertebral
clud ed
Ġatri ocaval
Ġunder inflated
Ġro d
Ġpass ed
Ġop tim
Ġoc clusion
Ġcomment s
Ġradiolog ic
Ġinn ominate
Ġflu ct
Ġcompens atory
c opd
Ġc re
Ġw aning
om edi
um b
Ġt ail
mal e
em arc
Ġst ated
ver sed
Ġimp ing
Ġsim ple
Ġnod ulation
Ġwors t
Ġcor ac
Ġsupp orted
Ġadv ance
Ġappreci ate
Ġheterogen ous
Ġfe male
Ġtransp arent
Ġus ed
Ġcareful ly
Ġbro ad
Ġdiscontinu ed
Ġclos ure
Ġpool ing
Ġdehis cence
e ity
Ġa ware
en ess
em ia
Ġpro ble
oc on
Ġinter vening
ex isted
Ġapical ly
Ġessen tial
Ġph renic
ust ment
demon stration
Ġreason able
Ġanat omy
Ġspondy l
Ġphysi ologic
Ġlap ar
Ġresor ption
Ġwax ing
Ġhypox ia
Ġquanti ty
Ġsometim es
b d
y m
Ġc ry
Ġin te
Ġag ent
Ġob long
ortic ation
Ġassess ing
pos e
Ġrel ation
Ġassoc iation
Ġbronchiect atic
Ġsple en
Ġlip oma
Ġpleuro parenchymal
Ġdec ortication
Ġbulk y
Ġfluct u
Ġcry pt
h em
v r
al led
Ġp ock
Ġde li
op ulmonic
Ġmay be
Ġaort opulmonic
Ġte xt
Ġtrans fusion
Ġne uro
Ġread j
Ġul tim
Ġsplen omegaly
Ġect asia
Ġlev ocon
Ġpara hilar
Ġphysi ology
Ġeffective ly
Ġmyc ob
Ġmus cle
Ġosteoarth ritis
Ġacromio humeral
Ġpock et
Ġp t
Ġb ur
Ġri m
ch est
os s
Ġnormal ized
Ġad d
Ġ3 0
to tal
Ġheterogen eity
Ġdeline ation
Ġaccum ulating
Ġcoars eness
Ġobtain ing
Ġfibro sing
Ġaccording ly
Ġdispl ayed
Ġquantif y
y nam
Ġ iden
on ic
in oph
Ġs ac
Ġe os
ch an
ph ysema
Ġen c
se cted
Ġad ded
ist ration
Ġendo vascular
Ġsur ve
Ġgi ve
Ġconf orm
Ġdecomp ressed
Ġbronchogra m
Ġman ub
Ġbul b
Ġsystem ic
fe ren
Ġclar ification
Ġmen is
ortun ately
Ġcrypt ogenic
Ġlevocon vex
ynam ic
Ġeos inoph
c us
Ġc olum
Ġin str
us c
id ne
Ġlo bular
Ġlo cule
Ġor dered
Ġcons isting
Ġal te
Ġsub total
Ġpost op
vere d
Ġbl unt
Ġmet al
duc ing
app ro
Ġlob ulation
Ġsafe ly
Ġseed s
inter stitial
Ġadmin istration
Ġdeli vered
, .
d g
e lling
o de
th y
in ity
ti zing
Ġm vr
ac uation
om p
ic inity
Ġv icinity
ro tizing
ch ed
Ġse gm
Ġmo ved
ud al
Ġdis ch
Ġmid clavicular
Ġhemi di
Ġrec ord
Ġsp an
Ġpr ac
Ġk idne
gen ic
Ġnec rotizing
Ġunf ortunately
Ġmargin ally
du oden
Ġpad s
Ġaccur ate
Ġme chan
Ġrequest ing
Ġmi xed
Ġlayer s
Ġrefe rence
Ġnephro stomy
Ġcolum n
Ġalte ration
a icd
f ocal
t s
in es
ti ce
Ġn ine
Ġb ra
em physema
Ġbe li
res s
Ġsu ction
Ġev acuation
Ġsp ared
Ġsp laying
Ġro ot
Ġcur ved
Ġlymph atic
Ġtim es
def ibrillator
Ġgastro duoden
Ġshort ness
Ġinform ed
Ġgrow th
Ġpen ding
Ġocc asion
Ġplan e
Ġdispl ay
Ġepis ode
Ġreaccum ulated
Ġide al
Ġspondyl osis
Ġeosinoph ilic
Ġgastroduoden al
e lla
h eart
p tal
Ġre li
Ġre sected
ph renic
Ġon line
Ġon set
Ġg u
ect asis
Ġad m
Ġte ar
inf lation
ens itive
Ġdegen er
Ġprominent ly
Ġtrans lu
de velop
Ġrepe ating
ente ctomy
Ġthy m
Ġcurv es
Ġnur sing
Ġcosto diaphragmatic
Ġnone theless
Ġinvestig ation
Ġimmun oc
Ġcres cen
usc itation
Ġsegm entectomy
c ab
or tive
Ġis out
Ġcon du
Ġre verse
Ġto ler
Ġun it
Ġun de
Ġex piration
oc y
ograph ic
Ġover lay
Ġca ps
Ġca pture
Ġdis ruption
Ġdi ver
Ġres uscitation
Ġha ir
Ġsupp ortive
Ġro om
Ġins uff
Ġins ensitive
Ġmarg inal
Ġirregular ly
Ġdeline ate
Ġdiscontinu ity
Ġinvestig ated
Ġbranch ing
gra de
Ġtail ored
Ġultim ately
Ġimmunoc omp
cab g
- -___
Ġth rom
al ed
ti v
Ġin ad
om al
Ġan s
Ġv ent
ro t
Ġor d
im um
at a
Ġinter mit
Ġpre vascular
tic ul
Ġtermin al
Ġinters iti
Ġexclud ing
Ġbronch oscopic
Ġqu ery
Ġhern iation
ill ance
cur ring
Ġinfer olateral
Ġma mm
Ġoc cluded
Ġsystem s
Ġr n
Ġtoo th
Ġcontribu tes
Ġcoales cence
lin ing
Ġturn ed
Ġec g
Ġclos er
Ġadj usted
su ed
venti lated
Ġcou ple
Ġoptim ized
Ġiden tical
Ġsurve illance
Ġinad ver
Ġintermit tent
u k
al ign
Ġs en
ed ema
Ġw ound
om ies
Ġle uk
Ġre ct
Ġse ction
Ġcardiom ediastinum
op e
ogra ft
Ġper if
Ġend ograft
Ġinters tial
Ġexamin ed
Ġevalu ating
Ġhe re
Ġdrain ing
Ġcur ls
Ġout lining
Ġcrow d
tim e
od es
Ġallow s
Ġnec rosis
Ġabs ent
oper ic
Ġreveal ing
eval uation
Ġanatom ical
Ġparalle l
Ġopp osed
Ġepis odes
Ġkn ow
Ġretract ing
Ġadm ission
Ġunde res
Ġcapture d
p ost
x y
Ġc bd
is ing
Ġno tice
Ġb reak
Ġd emarc
Ġle av
Ġre d
Ġcardi a
Ġst age
os es
Ġ___ -___
Ġpro xim
Ġca pping
Ġint ral
Ġass ym
Ġpar ase
Ġang i
Ġang ulated
Ġcompres sed
Ġconf ident
lo t
Ġhern iated
Ġosteophy tic
Ġcavit ating
Ġhypertroph y
Ġunusual ly
Ġech o
Ġmic ro
Ġsuccessful ly
Ġsequ ence
Ġpan cre
Ġestabl ished
Ġwhite out
Ġmat ch
Ġmycob acterial
Ġmenis cus
Ġspan ning
Ġbeli eve
Ġimmunocomp romised
Ġvent ral
Ġord inary
Ġleav es
Ġproxim ity
Ġparase ptal
k n
n ed
p el
s up
v ent
w ing
Ġp n
Ġthe lower
en th
Ġl acer
us tif
Ġf oss
Ġv ary
ast rium
ch ange
Ġen hanced
Ġas certain
Ġg et
Ġper tin
Ġj ustif
Ġconsistent ly
Ġvascul itis
Ġelev enth
Ġsetting s
operative ly
ho od
Ġsw elling
uc k
Ġbi le
Ġpull back
Ġarth roplasties
Ġcyst s
inter val
Ġopp ortun
Ġgallst ones
Ġdistort s
Ġmim ic
Ġdiscl oses
omedi al
Ġhemidi aph
Ġcrescen tic
tiv ation
Ġintersiti al
Ġfoss a
Ġpertin ent
b ronch
f ib
h e
p a
u ction
in testinal
Ġp ut
Ġs ymmetry
Ġis ol
Ġm org
an ding
Ġf dg
Ġre cess
Ġch em
ch ronic
Ġcomp rom
Ġex cre
se en
Ġinf lation
ec ted
Ġclin ician
Ġbronch ogenic
Ġrel iably
Ġij v
Ġout patient
Ġtrans pl
Ġtrans catheter
Ġallow ances
Ġcompl icated
Ġr ul
Ġelement s
Ġwide ly
Ġcircum feren
Ġdetermin ing
Ġepig astrium
Ġvisc us
Ġmiss ed
Ġgrad ual
Ġmanub rium
Ġinadver tent
1 5
c ri
j ejun
v olum
te ral
te ll
Ġm es
Ġm ural
um inal
ro pen
it z
os ite
lect omy
Ġcons tell
val ent
Ġsp ur
cardi a
Ġpar ac
Ġcav ities
Ġro of
Ġpectoral is
Ġind eed
ap y
Ġtra pped
Ġtre itz
Ġhydro thorax
pneum o
Ġreported ly
Ġreac tivation
Ġr v
Ġsecure ly
til ity
Ġneut ropen
Ġfibro us
Ġclamp ing
Ġfluor oscopic
Ġbleb s
Ġbenef icial
Ġsimul taneous
visual ization
Ġreadj usted
Ġmechan ical
Ġtoler ate
Ġthrom b
rot ated
Ġtranspl ant
w i
al veolar
al ectasis
Ġp i
Ġthe cavoatrial
as m
Ġin di
Ġm ess
ear ly
Ġcons e
Ġde b
Ġpro ducing
Ġat alectasis
ag ic
Ġinf ra
Ġj ud
iz es
tain ing
Ġvis ib
Ġsur p
Ġgro up
Ġthickening s
und ant
Ġph ase
Ġnec rotic
Ġcoron al
Ġbreast s
Ġirregular ities
Ġapproach ing
ca ve
Ġaccum ulated
Ġdiscord ancy
Ġobject s
Ġadj ustment
Ġtendin opathy
Ġstrad dles
bi op
Ġmean time
Ġproble m
Ġunderes timated
Ġlacer ation
Ġcircumferen tial
Ġmess age
b l
c ol
i as
Ġ til
or ph
di ty
Ġt ape
an z
Ġd am
et te
Ġpre dis
Ġover hydration
Ġg anz
ad der
Ġsuper olateral
Ġinfection s
Ġmul tin
Ġdes ign
Ġverteb roplasties
oscle rosis
Ġinvol ved
Ġpul se
agn i
Ġdecomp ression
Ġhydro pneumo
Ġorig inal
Ġartifact s
Ġdoubt ful
Ġenter tained
Ġintrac ardiac
Ġoss ific
Ġequi valent
ocy tosis
Ġvary ing
Ġopportun istic
Ġisol ated
Ġexcre ted
volum e
Ġconstell ation
biop sy
Ġmultin odular
s ub
t ure
u te
y ps
th ird
Ġl ate
Ġin ability
Ġe q
ul oplasty
an eous
Ġf ash
Ġ___ =
Ġpro f
der ly
Ġres ide
Ġsuper infection
Ġnod al
Ġhyper s
Ġel derly
Ġx ray
pen dent
Ġdocument s
oplas ma
Ġstern oclavicular
Ġkink s
Ġpe ak
Ġcann ul
Ġexacerb ated
Ġstra igh
Ġmicron od
Ġste p
Ġgallst one
Ġrun ning
Ġalteration s
Ġbra in
Ġtranslu cency
Ġperif issural
Ġmorg agni
Ġsurp ris
Ġtape red
yps in
Ġfash ion
g lot
o king
r d
t om
Ġ ter
in ction
ac ia
Ġan ulus
Ġst ages
Ġst anding
ph a
ew ise
Ġmil iary
Ġsize able
Ġab lation
Ġinter lobular
creas ed
tr ypsin
Ġsub chondral
Ġ2 5
Ġres em
Ġrec on
Ġbronch osp
Ġvisual ly
ens itivity
Ġdist inction
Ġhead ing
Ġfav ored
Ġdisloc ated
Ġsurro unded
Ġperm it
Ġevol ution
Ġcoinc ides
Ġreassess ed
Ġhorizontal ly
Ġpara esophageal
Ġtak es
evalu ate
Ġmyc oplasma
Ġestabl ish
Ġbenef it
Ġer os
Ġredi rected
Ġlik ewise
calc ified
Ġpt x
Ġsac cular
Ġreli able
wi th
col la
Ġhydropneumo thoraces
Ġ___= ___
Ġhypers ensitivity
Ġstraigh ten
glot tic
a ther
b ed
g th
i able
m ia
p ment
r and
y com
Ġis s
om atous
ff y
neum onic
ct omies
Ġlo oking
res t
Ġcomp an
Ġpro portion
Ġex p
Ġex change
li ght
Ġal pha
Ġsub glottic
ec k
Ġsp lin
one ycom
Ġbo t
Ġpar ap
Ġver sion
ens ities
pec tion
Ġhi v
Ġventricle s
Ġins pection
Ġdisplac es
Ġco unt
Ġdeg ra
Ġvar ied
Ġam orph
Ġasbest osis
vis ion
Ġsidehole s
Ġanti trypsin
Ġring s
Ġdistinct ly
end um
Ġflu ffy
Ġach i
Ġlapar oscopic
Ġdiver ticul
Ġnotice able
Ġconfident ly
pel vis
Ġdam age
Ġsplin ting
Ġparap neumonic
p olar
r ance
v ole
Ġ ti
th esis
re tro
Ġthe mid
Ġc ement
Ġs ol
or ated
Ġo vere
Ġo xy
Ġl ll
Ġh oneycom
ic e
ch arac
Ġ___ ).
houet te
Ġedema tous
Ġsilhouette d
ten tion
Ġu re
Ġdis trac
aly zed
Ġsub phrenic
Ġmid zone
Ġad ynamic
Ġtr un
Ġaort osclerosis
Ġpic ture
Ġar ising
Ġdisc oid
Ġgre atest
Ġconf ined
Ġconf used
Ġtrace able
Ġincreasing ly
Ġtrans fer
Ġentire ty
way s
Ġlocal izes
Ġacrom ion
con taining
Ġextra thoracic
Ġmy oc
Ġwarrant ing
Ġdistinguish ing
Ġcv p
Ġent ry
Ġgrad ually
Ġequi pment
Ġcompartment s
Ġadd endum
Ġinstr um
Ġgu id
Ġassym etric
sup ine
Ġvisib ility
Ġmicronod ule
Ġamorph ous
Ġovere x
Ġoxy gen
d ant
m an
p ne
s ied
w alled
ar ies
Ġin h
il i
il ated
ul y
Ġan tero
Ġf all
Ġre expanded
Ġre tention
Ġch eck
Ġst ar
Ġst rand
Ġsil l
Ġinter section
li hood
Ġover d
tr ins
Ġca udal
ag ed
Ġlike lihood
Ġmid esophagus
ir ds
per i
Ġidentif iable
Ġconcern ed
Ġdifficult y
Ġout line
Ġprogres s
ho t
pect omy
Ġph d
Ġpreced ed
Ġgen u
Ġge ographic
etermin ant
Ġshort ly
Ġem ergent
isten tion
ribu te
Ġosteophy tosis
Ġreport s
Ġbiop sied
ty pe
Ġabscess es
Ġaff ected
Ġsa id
Ġclar ified
Ġimpac ted
Ġprodu ct
Ġrestric tion
Ġfibro thorax
wh en
Ġent rance
Ġmeasure d
Ġobliter ates
Ġpericardi tis
Ġimping ing
Ġbur den
Ġblunt s
Ġprac tically
omal acia
Ġrect angular
Ġjustif ied
Ġsurpris ing
Ġbronchosp asm
colla pse
d omen
i re
m ass
s hot
re es
Ġp ill
Ġc vc
Ġl a
un ds
Ġf ist
Ġcon ce
Ġre oc
Ġre versed
ter istic
Ġcons ist
Ġcomp romised
Ġex cur
Ġra pi
Ġpre pyloric
tr ache
Ġincreas es
Ġal ways
Ġabnormal ly
ant age
Ġnot ch
ect able
Ġsim ulating
Ġthick ness
Ġadv antage
Ġcur ving
st atic
Ġnon visualization
rach iocephalic
Ġinj ectable
Ġcontain ed
Ġvar ic
other apy
Ġtypical ly
Ġrupture d
Ġcut aneous
Ġredi rection
Ġlik ley
Ġmax imum
Ġpal sy
Ġcorac oclavicular
Ġans w
uck le
Ġsimultaneous ly
Ġsol itary
Ġtransfer red
Ġmicronodule s
Ġoverex panded
pne a
trins ic
Ġgenu ine
Ġexcur sion
b rachiocephalic
m ail
p nel
s ha
w or
in creased
ed s
Ġo pen
Ġo wing
ac tive
ul l
Ġf la
Ġd ome
ra pnel
Ġre evaluated
Ġchang ing
Ġpre gn
Ġal tered
Ġenlarg e
str ate
Ġport al
Ġintersti tal
Ġtr ach
Ġsc ope
Ġar g
Ġaortic opulmonary
Ġemph as
Ġbl astic
Ġany thing
Ġcur ling
Ġesophag ram
Ġnote wor
Ġmal e
Ġenti ties
Ġneed le
Ġhydro static
Ġoff er
Ġaccess ory
Ġpl ates
oplas tic
ok ed
Ġfragm ented
Ġrecogn ition
opneum othorax
Ġmic u
Ġdiscern ible
Ġdefect s
Ġgall bl
Ġuniform ly
Ġmiss ing
Ġlen gth
Ġlocule s
Ġkidne y
Ġcondu ction
Ġinsuff iciency
vole mia
Ġhoneycom bing
charac teristic
Ġrapi dity
sha ft
Ġnotewor thy
Ġgallbl adder
! !
b y
d el
d ensity
n ight
s ternal
t op
Ġ rh
Ġ !!
Ġa u
Ġf ather
Ġcon g
Ġle a
ro us
Ġst at
im in
Ġopac if
Ġpro ced
Ġas per
ud ent
Ġpre clud
Ġpre vent
Ġprocess ed
Ġg ir
Ġsli ver
no on
Ġpost ure
Ġpar alysis
Ġpr udent
Ġpac s
ps is
Ġpres ervation
pos terior
rec ent
ub er
Ġafter noon
Ġdeg rees
Ġel imin
Ġrotation al
Ġrefer able
Ġgastro jejun
Ġwithdraw ing
Ġeven ly
Ġreport ing
Ġhema t
Ġeffect s
Ġdepic ts
Ġinfarct s
Ġprecise ly
Ġopp osite
Ġfl ash
arge ted
Ġpericardi ocentesis
align ment
Ġdemarc ated
Ġcomprom ise
Ġrecon str
Ġtrun k
Ġproced ures
Ġasper g
h es
h ep
o in
o rem
p o
te chn
le s
Ġs ched
is ms
Ġin ner
Ġm ediastin
ri tic
un ited
di uresis
Ġt argeted
Ġre vision
ent al
ol ic
ter omedial
os u
Ġun related
pac er
Ġ___ )
at ology
Ġex cess
Ġapp li
Ġu ip
tr ast
Ġmid shaft
Ġinf low
Ġsh rapnel
Ġpers isted
Ġpa id
Ġad hes
Ġvascul atures
Ġsuper f
Ġtortu rous
men ted
Ġins t
quent ly
Ġperform ance
Ġdisten ds
Ġmulti lobar
Ġtra pping
av ailable
Ġy o
Ġdict ating
Ġsy n
Ġsymptom atology
severe ly
Ġr f
Ġr ll
con trast
Ġarth ritis
Ġdeno tes
Ġassist ant
Ġtend on
Ġwork ed
Ġfluor oscopy
venti lation
thorac entesis
hem orrh
Ġbulb ous
appro priate
fib rosis
he aled
Ġparac ardiac
Ġindi rect
Ġdesign ed
retro cardiac
Ġgastrojejun ostomy
Ġasperg ill
hep atic
Ġsched ule
f orm
p oint
Ġa vascular
Ġp in
le ural
ti a
Ġl av
er cing
Ġe ver
Ġm el
us h
an ed
Ġh id
Ġun available
Ġse ated
Ġse pt
Ġse psis
Ġmo t
Ġfocal ity
ach y
Ġwe ight
min imal
cl ock
ir ing
Ġsh in
Ġpresent s
Ġsp on
Ġintra aortic
Ġprov en
pos es
Ġi tem
Ġobs erve
Ġhyp oplastic
Ġinv oked
Ġtra versed
Ġatten dant
Ġdependent ly
Ġresul ted
Ġform ed
Ġtri polar
Ġdeno ting
Ġorgan ized
Ġorgan isms
Ġbecom es
Ġradiol ucent
Ġclus tered
Ġattempt s
Ġneph rectomy
Ġpur pose
Ġreaccum ulating
Ġkn uckle
Ġmim ick
Ġmax imal
Ġpal p
Ġcorac oid
Ġfluctu ating
Ġneuro genic
develop ing
Ġpancre atic
Ġpi ercing
Ġtil ted
Ġcompan ion
Ġbot tom
Ġure teral
Ġmyoc ardial
Ġfist ula
Ġyo ung
Ġlav age
f i
l om
m ed
u ated
th irds
al asia
ti tu
en tioned
as ive
Ġl ad
Ġin se
Ġin appropriate
Ġb r
Ġb ic
an oma
Ġcardi al
Ġcardi operic
Ġst o
Ġse iz
im ent
et y
ew el
Ġapp ar
op leural
Ġmo d
Ġover ly
Ġg un
Ġg ut
ut ure
Ġdi aph
Ġj ewel
Ġother s
Ġha m
Ġtr uly
Ġpost inflammatory
Ġcan al
Ġsome thing
Ġimprov es
Ġaf orem
Ġthorac oplasty
Ġsemi upright
Ġgastro intestinal
Ġhemorrh agic
Ġgo es
Ġrecei ve
Ġhyd ration
troph ic
Ġann uloplasty
Ġoccu p
Ġantibiotic s
Ġdiagnos es
Ġdeno ted
Ġtend ency
Ġplan es
infec tious
Ġfl ank
par able
Ġcy cle
co iled
Ġach alasia
Ġdisch arge
Ġsen ds
Ġintral uminal
Ġcannul ates
Ġter ms
Ġdiverticul um
Ġdistrac ted
Ġcong lom
techn ique
osu pp
Ġadhes ion
Ġsuperf icial
Ġschedule d
Ġmel anoma
Ġhid den
Ġspon taneous
Ġmimick ing
Ġinse parable
Ġcardioperic ardial
Ġjewel ry
Ġaforem entioned
Ġconglom er
2 0
e um
m l
w ent
on ary
Ġp ne
Ġthe r
ar ticular
ar com
is ion
Ġl arynx
Ġm edic
ri t
Ġh ick
ne w
Ġre vers
ce toma
Ġlow est
Ġsi ght
ew ire
Ġbas olateral
if e
arg ed
eg ally
Ġrep lete
Ġsh il
Ġrec umb
Ġintra parenchymal
Ġjunction s
Ġunder went
Ġtrache omalacia
Ġ4 8
Ġdes cri
pect oral
over tebral
Ġexce eds
Ġbrach ial
Ġlum pectomy
Ġman ag
Ġhumer i
Ġhypo ventilation
Ġcondition s
Ġpatholog ies
Ġsepar ated
Ġog t
Ġmy cetoma
Ġmanifest ations
pre vious
Ġretur ning
Ġpreoperative ly
Ġrecogn ize
Ġreveal ed
Ġdys pnea
Ġstra ight
Ġrestric tive
resol ved
Ġplan a
Ġcontribution s
Ġdifferenti ation
Ġsmooth ly
Ġimmun osupp
wh ich
Ġdistort ing
Ġmamm ary
Ġneutropen ic
Ġguid ewire
Ġla be
trache a
Ġexcess ive
Ġsto ol
Ġappar atus
Ġgun shot
Ġoccup ied
arcom a
Ġmedic ine
Ġhick man
d ling
d den
i asis
u ct
Ġ umb
th iasis
Ġa di
on ec
Ġp ate
Ġc able
is ter
is py
Ġis sued
Ġno tic
Ġin ver
om an
Ġf uture
Ġv ol
ro b
ro genic
Ġre identified
Ġch ond
em ber
Ġnormal ization
res is
Ġsu dden
Ġcardiom egally
at rogenic
Ġen h
og ast
iden ce
op ing
Ġradi ating
li thiasis
ec al
Ġhemi arth
Ġhyper volemia
Ġcost overtebral
Ġlinear ly
Ġi atrogenic
Ġro w
Ġ4 5
Ġout let
Ġinv asive
Ġheterogeneous ly
Ġind eterminant
Ġpag er
ber kn
Ġcho le
Ġsymptom atic
Ġcardio esophageal
Ġhole s
Ġimplant able
Ġremnant s
Ġdep ressed
bas al
appear ance
Ġdys trophic
Ġsublu xed
Ġosteo ly
gra m
Ġtendin itis
Ġobliter ated
Ġstrad dling
Ġrun s
Ġdisch arged
Ġcaps ule
Ġintermittent ly
Ġleuk ocytosis
Ġangi ography
Ġspur s
Ġconsist s
oin ing
Ġmediastin oscopy
Ġrf a
onec rosis
berkn ife
a f
b il
e ved
y ne
in ous
is thesis
Ġn ight
er ior
Ġin ade
Ġm is
ri ty
Ġw ispy
om eter
Ġch alle
Ġlo st
Ġcons tr
Ġde terior
Ġsi gm
Ġpneumon ias
li g
Ġdis lo
ag ing
ag ged
Ġinf lu
Ġimp ella
Ġhemi thoracic
Ġsin ister
Ġtermin ated
Ġcl ot
Ġpr om
tle d
Ġcor rob
Ġbl ur
mo tility
Ġfi x
Ġrot ary
Ġhetero top
Ġcompl aint
Ġdist ress
Ġoste otomy
Ġoste onecrosis
Ġoc curring
Ġquestion s
Ġsharp ness
Ġaccess ible
Ġtuber osity
Ġdoub ted
Ġmaterial s
Ġr ml
Ġstri ct
Ġcen ter
Ġreason s
Ġhospital ization
Ġdys motility
Ġreticulation s
Ġmyel omatous
Ġdiscern able
Ġbranch es
Ġsimul ates
Ġcy berknife
Ġoccasion ally
Ġdisplay s
Ġdegener ate
Ġinstrum entation
Ġoverd istention
peri hilar
Ġreconstr uction
Ġrecumb ent
Ġhemiarth roplasty
Ġinade qu
Ġchalle n
Ġsigm oid
Ġheterotop ic
. )
d ged
g rity
i oca
n cy
p tive
v as
Ġa way
al though
Ġp as
Ġp ulmon
Ġc r
Ġs ag
Ġs pacer
or ally
as tia
er ies
Ġm ac
Ġm ember
Ġw alled
Ġan ast
Ġan alyzed
Ġt achy
Ġcon vers
Ġle g
Ġre curring
mon ia
Ġch arge
it tal
ph er
Ġcons titu
res sing
Ġopac iti
Ġpro ve
Ġpro tr
Ġate lec
Ġat lectasis
Ġmild y
Ġas cends
ges tion
Ġg yne
Ġdis par
Ġper ia
larg ed
Ġsub sternal
ec tion
ru pted
Ġpresent ing
Ġidentif ies
Ġsp ot
iz able
Ġremo del
Ġsupp le
Ġscar ing
Ġi p
Ġextensive ly
Ġco ex
dic ular
st able
olog ical
com astia
Ġpredomin ate
Ġreplac ing
Ġreview ing
Ġcoron aries
Ġbronchi olar
Ġatten uated
Ġartif icial
Ġorigin ating
Ġrespon ded
Ġstron ger
Ġelement ary
Ġextra vas
Ġfunction al
Ġfunction ing
Ġrequ iring
Ġmed ication
Ġpara vertebral
Ġvirt ue
Ġexact ly
Ġfl agged
Ġconne ction
Ġtendin osis
wh ere
Ġmeasure ment
Ġpneumatocele s
Ġassum ing
Ġsupra diaphragmatic
Ġdiscl ose
visual ized
Ġinte grity
Ġconform s
Ġdegener ation
Ġsection al
Ġmimic s
Ġchem otherapy
Ġeros ive
Ġachi eve
Ġstar ting
Ġsill ou
Ġreoc currence
ull ary
Ġpregn ancy
Ġshil houette
Ġmanag ement
Ġpate ncy
Ġenh ance
ogast rectomy
Ġchole lithiasis
Ġsag ittal
Ġanast om
Ġconvers ation
Ġdispar ity
Ġremodel ing
0 0
a res
g i
g astric
l ayed
m e
n g
s uc
v ised
Ġa a
on s
re l
Ġc op
Ġs arcoma
or n
Ġb ent
Ġt ral
Ġre int
Ġre vised
Ġpneumo bil
Ġun resolved
Ġun suc
be ctomy
Ġcons ult
Ġde v
Ġpos tero
if ying
Ġpre pectoral
cess ful
ay ing
Ġal iment
Ġdis order
Ġper pen
ric al
Ġinf use
no d
Ġsp e
pan cy
Ġass isting
Ġpost procedure
Ġpar tic
Ġte st
Ġbronch opulmonary
Ġresidual s
Ġesophag ogastrectomy
ran ial
Ġnon rotated
Ġpect orally
Ġpresum e
Ġtw el
Ġind u
Ġtra verse
Ġnipple s
Ġoc currence
Ġevent s
Ġnond e
Ġnond ilated
Ġdocument ing
Ġcephal ized
Ġdiscre pancy
Ġvari able
Ġpel vic
Ġcorrel ative
Ġrecogn izable
Ġaffect s
Ġpleuro pulmonary
Ġrequ isition
Ġcran ioca
Ġdissemin ation
Ġstra in
Ġdownward s
Ġoper ation
Ġimport ance
Ġinvestig ate
Ġmodal ities
Ġpur sued
Ġ(___ ,
Ġassum ed
Ġcre ating
Ġkidne ys
Ġred undant
Ġmatch es
Ġeq ual
Ġpill s
Ġconce al
Ġrh eum
Ġlea ving
Ġmot tled
Ġbic on
Ġseiz ure
Ġnotic ed
Ġconstr uct
Ġchallen ging
Ġgyne comastia
Ġperia ortic
Ġpneumobil ia
Ġunsuc cessful
Ġaliment ary
Ġperpen dicular
f th
l isthesis
m ark
th ick
Ġa id
ar toma
te x
le ction
Ġs pi
Ġs qu
en larged
Ġno on
er rant
ac y
il a
Ġf o
Ġf ailed
Ġcon cav
Ġd ynamic
ro l
ou ch
Ġlo ad
it on
Ġ___ '
im aging
Ġpro fusion
Ġon es
Ġab undant
Ġab errant
ten sive
ow led
Ġpre existed
Ġover riding
Ġca pacity
Ġrem ission
Ġwh e
Ġend ed
Ġsli gh
Ġpa ir
Ġidentif ication
ab er
Ġac kn
Ġar rest
Ġcor rected
Ġcor tex
inf erior
pos sible
Ġborder ing
Ġcol l
Ġrel ations
Ġobs erv
cen cies
Ġfi xed
Ġinv asion
Ġgran ular
Ġperic ardiac
Ġcompl ic
Ġmal alignment
Ġrecei ving
Ġtre at
Ġvague ly
Ġcuff ed
pneum on
Ġpleu ritic
Ġevent rated
Ġgra v
Ġradiod ensities
Ġgraft s
Ġr ise
Ġoverla ps
Ġunderg o
Ġble ed
con gestion
Ġpatholog ically
Ġreturn s
Ġpen um
Ġsufficient ly
Ġdiscon ne
Ġexpan ding
Ġdiscontinu ities
Ġmagn ification
Ġconceiv able
Ġplan ned
Ġact ual
Ġadj oining
Ġbeg un
Ġpur poses
Ġprost atic
Ġ(___ )
Ġlen ticular
calc ification
bi ventricular
Ġsimple st
hem othorax
Ġenc as
Ġthym ic
operic ardium
Ġhemidiaph gram
Ġmes h
Ġresem ble
Ġstraighten ing
uber ant
Ġmod est
Ġham artoma
Ġdescri ption
previous ly
Ġlabe led
Ġsupple mented
Ġtral i
Ġspe ak
Ġtwel fth
Ġindu ced
Ġnonde pendent
Ġbicon cave
thick ening
Ġackn owled
e resis
h ip
t te
v ement
Ġp or
Ġs aber
or ily
ti ble
Ġm s
Ġb it
di agn
om ediastinal
Ġan teromedial
Ġt al
Ġt ren
Ġf re
Ġd on
Ġple ure
Ġre n
Ġcardi op
Ġch ila
Ġst ran
Ġpneumo th
os te
be it
Ġcom e
Ġde hydration
at oid
Ġex trinsic
Ġex uberant
Ġapp e
are r
Ġcle arer
ver teb
Ġclear s
Ġover distended
tr ans
Ġal beit
Ġdi ffusion
Ġsub ject
Ġmid trachea
Ġhem opericardium
ll ate
Ġsh or
Ġsign ify
Ġass ure
Ġpost treatment
Ġ3 6
Ġunder s
Ġemph asis
Ġconf ines
Ġconf idence
Ġso unds
Ġqu ick
Ġhi p
Ġfurther more
Ġtechn i
de pendent
ident al
Ġnon calcified
Ġmal positioning
Ġhigh light
Ġabs ol
Ġbibasal ar
Ġgranulom ata
Ġman ip
Ġoc cur
Ġscle ro
Ġkyph oscoliosis
Ġcollaps ing
Ġsatisfact orily
Ġredu ces
Ġatt ribute
Ġcontinuous ly
Ġexpos ures
Ġstern oman
des m
rid ement
Ġ-- ?
Ġdiscontinu ation
Ġintrac ranial
Ġturn s
Ġcontribut ory
Ġdec ided
Ġurgent ly
Ġbroncho alveolar
Ġste llate
Ġmask ed
Ġimping es
Ġintral o
Ġangi ogram
Ġdeb ridement
Ġprof ound
Ġiss ues
Ġansw er
Ġemphas ized
Ġsyn desm
Ġpiercing s
Ġconglomer ate
Ġreint ubated
Ġrheum atoid
Ġspi ral
Ġrelations hip
Ġacknowled ged
Ġpleure x
Ġstran ding
a ke
b ling
c ine
e red
g ger
i ph
o ke
p ut
t og
v ulus
th is
le nt
Ġs l
Ġs pher
or rect
Ġo lig
Ġl am
Ġno min
Ġno thing
Ġin test
di ti
ul ate
Ġt arg
Ġf us
Ġf ormal
Ġf li
Ġd d
Ġv ac
ou th
ent s
em ic
it ing
it ous
Ġst a
Ġst ump
ang er
Ġun ch
Ġse lective
Ġpro ce
Ġas cribed
Ġcont rol
ati tis
Ġinter ruption
Ġlower most
Ġu pt
Ġu tility
Ġover laying
Ġover night
ach ed
Ġal tog
Ġli ft
Ġdi ast
Ġmid way
Ġhem iab
Ġinterval s
Ġ2 8
Ġres p
Ġrec order
ren ced
aren ce
Ġsp ines
lu c
Ġconcern s
Ġcor tic
el d
Ġver ge
Ġunder inflation
Ġfol ding
Ġpo ly
am ediastinal
Ġdo pp
Ġany where
ward s
athy roid
teri a
Ġaccompan ies
Ġpresum ptive
Ġind ole
oun tered
Ġspec ial
ici ans
Ġem an
Ġdevi ating
Ġconfirm ing
Ġreac tions
Ġform er
Ġstri p
Ġdimin ish
aer ation
Ġke pt
Ġsurroun ds
Ġequivocal ly
aryn ge
Ġposterolateral ly
Ġinterpre t
Ġdep th
Ġcough ing
Ġcoales cing
peric ardial
Ġme ans
itation al
Ġexpan der
Ġprodu ced
Ġfac ing
resol ving
inter ventional
Ġassum es
Ġrefe renced
Ġide ally
ins er
Ġtake off
thorac otomy
Ġlapar otomy
Ġmuscle s
Ġenc ountered
Ġpancre atitis
Ġget ting
Ġchem o
Ġeq ually
Ġprof ile
Ġresem bling
Ġproportion al
ili ar
Ġcheck ed
Ġvaric es
Ġappli ances
Ġcable s
Ġvol vulus
af ter
Ġcorrob orated
Ġcomplaint s
Ġstrict ure
Ġpas sive
Ġtachy cardia
Ġatelec at
Ġip f
Ġcranioca udal
Ġconcav ity
Ġgrav itational
Ġtal c
Ġappe arence
Ġabsol ute
Ġsternoman ub
iph oid
Ġspher ical
Ġolig emia
Ġlam ine
Ġnomin al
Ġtarg et
Ġaltog ether
Ġhemiab domen
Ġindole nt
h ette
i v
o pacity
p tible
s tent
s light
u ru
Ġ ild
Ġp aying
Ġp uru
Ġc cu
te ric
te ctomies
Ġs tero
Ġs icu
or atory
Ġn ame
Ġo m
en ces
Ġe luc
ri min
Ġb ow
un changed
di ent
om aly
Ġan omaly
Ġf ood
ic it
ne ctomy
ct or
ct asis
ter s
ang ing
os ternal
ce ptible
res h
Ġat test
at ric
Ġex trac
Ġab ility
Ġmo der
Ġinter n
Ġfor ms
Ġg ap
Ġdis position
gm ented
Ġhem opneumothorax
ron odular
clud ing
ative ly
Ġcl oth
omy el
vic le
Ġinfec tive
ist inal
Ġretro peritoneal
Ġretro listhesis
ard s
Ġpromin ant
Ġk a
Ġk ub
Ġbronch opleural
Ġelev ate
Ġcor d
Ġcost osternal
Ġstand point
Ġro le
cla vicle
Ġ4 0
ĠĠ ĠĠ
Ġins ide
Ġco oper
tim ate
Ġarch es
Ġtrans mit
Ġperf orated
Ġnon contrast
Ġhyp od
Ġfib ronodular
we red
Ġx iphoid
ext ubation
Ġfrank ly
Ġav id
Ġmas tectomies
Ġinc orrect
Ġgranulom atosis
Ġpath ogen
Ġdepen d
Ġman ometer
lung s
Ġcho ice
Ġorigin ates
Ġgra de
Ġgra dient
Ġtor sion
Ġembol ic
Ġstabil ized
Ġvari ations
ocardi tis
Ġtracheob ronch
Ġvir us
Ġprodu ces
Ġchamber s
Ġtransient ly
Ġeffac ing
Ġmi x
Ġassum e
Ġswallow ing
Ġpocket s
Ġcondu it
Ġinsuff icient
align ed
Ġneutropen ia
Ġthromb osis
Ġconse quent
Ġdeb ris
Ġiss ue
Ġexp ressed
ili ac
Ġantero posterior
Ġfla il
Ġau gmented
Ġgir dles
ush ing
Ġdiaph ysis
Ġfix ations
Ġconstitu te
Ġprotr ud
Ġcoex istent
Ġextravas ation
Ġfre quently
Ġtechni ques
Ġsyndesm ophy
Ġfus iform
Ġfli pped
Ġcortic ated
Ġeman ating
arynge al
Ġsternomanub rial
Ġpuru lent
Ġeluc id
d eg
d emarc
f or
k in
l ind
o esophageal
u cted
Ġ >
in ar
Ġp p
Ġthe right
Ġc ic
ar terial
Ġs le
is tered
ti vity
Ġl ab
Ġm outh
Ġb un
ral uminal
um a
gh orn
id ual
Ġcon ed
Ġcon cave
Ġd uration
Ġd ental
ra uma
Ġre imaging
em b
it ate
Ġor ph
Ġbe am
im pro
Ġde layed
et ry
Ġas y
Ġed ges
ogra ms
se e
ue monia
Ġend ocarditis
ect ly
Ġstruct ural
Ġappro ved
Ġretro grade
qu ing
ab domen
Ġintra operative
Ġpat ch
inf rahilar
Ġsupport s
pos i
Ġnotification s
Ġpacemaker s
Ġadv is
Ġout lines
Ġ5 5
Ġdifferen tiated
Ġco vers
Ġext raluminal
Ġval ue
Ġperf usion
Ġperf ectly
Ġel se
int ubation
Ġcommun ic
the li
Ġalign s
du ced
etermin ed
surg ery
Ġpla quing
Ġbi atrial
Ġbul lectomy
Ġdemonst rable
Ġce phalic
Ġapproach es
Ġcavit ations
Ġobstru cted
Ġr po
Ġru gger
Ġaneurysm atic
Ġduoden al
dis h
ot rauma
Ġsple nectomy
Ġcri teria
Ġcoal ition
Ġmillim eter
Ġbubble s
Ġbar otrauma
Ġdepos it
Ġ# ___
Ġhep at
Ġsten ted
Ġconclusive ly
Ġeffac ed
su per
Ġcres cent
Ġcy lind
Ġund etermined
Ġproble ms
Ġinte res
Ġinte rest
Ġfluctu ations
Ġtext ure
Ġreadj ustment
develop ment
Ġpn a
Ġpredis pose
Ġeros ion
Ġstraighten ed
Ġdegra ded
Ġdegra des
Ġti ll
Ġstrand s
Ġsurprising ly
Ġpreclud es
Ġelimin ated
hemorrh age
Ġsept um
Ġinver sus
Ġosteoly tic
Ġdislo dged
Ġinflu en
Ġdev ise
nod ular
pneumon ectomy
Ġresemble s
Ġpor cine
Ġsta ghorn
Ġupt ake
Ġresp ond
Ġstero id
omyel itis
Ġka posi
Ġcooper ate
demarc ated
Ġorph aned
Ġcylind rical
a is
b ted
b owel
d ate
f ic
f ace
i pi
i tes
o venous
o alveolar
o theli
p in
t ric
w ors
Ġ \
re lla
Ġp fi
Ġthe upper
ti ocytosis
en omen
en ker
er s
Ġin timal
Ġin trinsic
Ġm ental
ac cum
Ġb al
Ġb ac
Ġw a
om f
um onary
Ġt om
Ġh ear
Ġh ide
Ġf u
Ġf it
Ġf lor
Ġf used
Ġpneum atosis
Ġwi ring
Ġd ata
Ġv om
Ġv ast
ou bted
Ġre evaluation
Ġto ol
Ġlo os
ch ase
Ġun com
Ġun co
be t
Ġcom ing
Ġpro te
Ġsil hou
oc ys
der ma
ver y
ati ves
ten ded
Ġpre op
Ġpre vi
Ġpre vertebral
Ġover dis
Ġdis pro
Ġ___. ___
Ġlim b
Ġbut t
aph renic
per sed
Ġthor ough
Ġthor aces
ibas ilar
no te
Ġplac es
si ze
Ġinters persed
Ġidentif ying
Ġcar ry
Ġcarin atum
ex pan
Ġpromin ences
ab olic
Ġpac king
Ġprov ides
Ġaspiration s
Ġresol ves
Ġelev ating
Ġloc ally
Ġcav o
xim ately
Ġdisc rimin
Ġsti m
Ġqu o
Ġz enker
Ġfil l
Ġhern ias
Ġdeform ed
Ġco lectomy
Ġquadrant s
Ġmet abolic
Ġindic ations
Ġnote s
Ġaccom pl
Ġmin eralization
Ġmin imum
Ġph enomen
Ġconfluent ing
Ġmal function
Ġlymphad en
Ġfail s
Ġtra vel
Ġgo t
Ġsit us
Ġes timate
Ġdevi ates
Ġredemon strate
Ġshar per
mptom atic
Ġadequ acy
ogen ous
Ġhypo tension
Ġdifferent ly
Ġjuxt aphrenic
Ġfe vers
Ġcall ous
Ġpus h
Ġhyperlu cencies
Ġfragm entation
ling ular
sel ves
Ġvari ety
Ġaccumulation s
Ġscre ening
Ġobliqu ed
Ġmorph ological
bas ilar
Ġnaso intestinal
Ġspread ing
Ġimpac t
Ġmed istinal
Ġsmo ker
Ġradio opaque
Ġsiz es
Ġtur ning
Ġradiolucen cies
Ġbreath ing
Ġpur chase
Ġta per
Ġpan co
Ġsimul ate
Ġbronchiol oalveolar
Ġresor bed
Ġthem selves
Ġadmin istered
Ġund oubted
omedi ally
Ġconform ing
Ġans wered
Ġpn uemonia
Ġhemidiaph ram
bronch ograms
Ġmes otheli
Ġjud ging
Ġsuperolateral ly
sub tle
Ġachi eved
Ġansw ering
Ġopacif ies
Ġgir dle
Ġinst inct
hemorrh agic
Ġpalp able
Ġbr ushing
Ġadhesion s
Ġimmunosupp ression
Ġumb rella
Ġchond roid
Ġdeterior ation
Ġprom pt
Ġanastom osis
Ġpartic les
Ġdisconne cted
verteb roplasty
Ġmanip ulation
Ġsclero derma
Ġdd x
Ġdiminish ing
Ġbow ing
Ġpp d
Ġcic atric
Ġasy mptomatic
Ġadvis able
Ġinteres ting
ipi ent
Ġflor id
Ġloos ening
Ġoverdis tension
Ġdispro portion
Ġpanco ast
Ġundoubted ly
Ġmesotheli oma
2 5
b ut
b ility
d ates
d uctive
d ilated
e vent
g u
h t
h ans
i eld
l ic
o led
p r
p us
s eries
t ostomy
t use
u ght
Ġ ~
in osis
in duced
al ation
Ġc ll
le n
Ġs al
Ġo mitted
as arc
Ġl anger
Ġis coiled
Ġb ol
un ion
ul i
ul sion
Ġan emia
Ġan omal
Ġan asarc
Ġt ack
Ġh o
Ġf ortu
Ġf ecal
ion ella
Ġd ub
Ġthere after
Ġre ver
Ġre ducing
Ġre evaluate
ol itis
Ġst ates
Ġst ations
Ġor if
ang i
Ġun identified
res sive
Ġcomp ares
Ġpro ductive
et al
Ġsil ou
Ġex er
Ġconsolid ate
Ġcont ributed
ud ate
Ġinter ventricular
Ġfor d
Ġal ler
Ġg ain
Ġdis k
Ġdis rupted
ad ing
Ġwh ole
Ġsub strate
Ġmid ly
Ġmid night
Ġmid clavicle
Ġag re
Ġend pl
Ġob tuse
Ġplac ing
Ġpers is
Ġrec over
Ġsign ifying
all oping
Ġappro val
Ġdef ine
Ġcalc ulus
Ġretro spec
Ġsp ong
Ġsp ans
Ġsc rat
Ġsc alloping
Ġpar alyzed
Ġremo ving
Ġac tivity
Ġatri a
Ġ3 3
Ġver ify
Ġi i
Ġthick er
Ġpo oled
Ġdisc omf
am ous
am iliar
Ġsubse gment
Ġdo ctor
Ġout ward
Ġout put
Ġ5 2
Ġfil ls
load ed
Ġtrans ition
Ġtrans cutaneous
Ġtrans hepatic
olog ically
Ġnon union
Ġcompression s
Ġmin im
Ġph eresis
Ġ6 0
Ġdist ribute
Ġhyperex tended
Ġunf av
Ġpron e
Ġrefer red
let on
Ġshadow ing
Ġy ield
Ġvag us
Ġlum ens
Ġes c
Ġinc ons
Ġinc ipient
Ġphys icians
Ġdepen ds
Ġredemon strates
Ġske leton
xt ure
Ġorigin ally
Ġcholecys tostomy
ord in
Ġacrom ial
Ġconvex ed
Ġcorresponding ly
Ġstimulator s
Ġmorph ologic
Ġdepic t
Ġcann ulation
Ġpenet rating
Ġanatom ically
Ġglob ally
Ġhis tiocytosis
cal iber
mild ly
Ġmi xture
Ġimmun e
Ġintermedi ate
Ġsoon er
Ġund ulating
Ġexpect oration
Ġcre ates
Ġpt bd
appro ach
Ġbreak s
Ġconse quently
Ġjud ged
Ġpeak ing
Ġinh alation
Ġadi pose
Ġblur red
Ġinadequ ately
Ġleg ionella
Ġopaciti y
Ġsillou ette
gi ven
Ġwhe e
Ġchila i
Ġquick ly
Ġintest ines
Ġcloth ing
Ġmillimeter s
super ior
Ġvom iting
Ġuncom mon
ocys t
Ġcicatric ial
event ration
Ġlanger hans
Ġbol us
Ġanasarc a
Ġtack s
Ġfortu itous
Ġaller g
Ġendpl ates
Ġretrospec tive
Ġscrat ch
Ġdiscomf ort
- -
a min
b ral
b ilateral
c c
c or
c ity
e rence
f re
f ied
f ety
h ib
i etal
j ective
k ed
k yph
l astic
l ctasis
p ting
p red
p art
u ri
u tive
v ol
Ġp umonary
ti tion
en ding
Ġl isted
Ġin dependent
Ġe lective
Ġm l
Ġm arrow
Ġm atter
us tr
il ation
Ġw aned
ul ous
ul ted
Ġt able
Ġt old
an ced
Ġh es
Ġf un
ic ir
Ġcon ver
Ġd ro
Ġd em
ro ax
ra ph
Ġre new
it ated
Ġun coiled
Ġse es
ce ll
Ġbe long
Ġ___ /
Ġcomp osite
Ġde lay
cu tive
et s
Ġsil ic
Ġex udate
Ġapp er
der ing
Ġra re
Ġmo di
ten ing
ten ce
ograph ically
Ġg a
Ġper ceptible
gm ata
Ġob es
Ġsh unting
ss ub
Ġres ist
Ġsign fic
ur face
Ġinfec ted
pi g
cardi omediastinal
Ġass ump
qu ency
Ġcan di
Ġac inar
Ġmark s
Ġintra m
Ġintra med
Ġpat ulous
Ġcor pus
Ġ3 5
Ġver ified
Ġmedi as
Ġsome one
Ġperi o
Ġsupp lement
pos sib
Ġpersist ant
Ġconf erence
Ġso le
Ġsti gmata
Ġins ult
Ġins pected
Ġstreak ing
Ġcomb ine
Ġlymph ovenous
de len
teri zed
teri zation
st age
Ġnon cardiac
Ġnon obstructive
Ġsem icir
cur v
Ġnear by
Ġpresum ing
itone um
Ġne ural
Ġax ial
Ġill ness
Ġill ustr
ap es
Ġge ographically
Ġspec k
Ġgas less
rh osis
Ġmargin ating
Ġthy rom
Ġleftward s
Ġfocus ed
Ġsee ing
ribu tes
rom atosis
Ġgenerator s
Ġaltern atives
Ġdiscrete ly
Ġr anging
Ġnarrow s
ca ps
Ġfiducial s
Ġhr ct
Ġdimin utive
Ġble bectomy
Ġjuxt amediastinal
Ġcir rhosis
Ġfe ll
bo dy
Ġcarcin oid
Ġcoinc ide
Ġlymphang itis
Ġsecre t
Ġcoales ced
Ġisland s
Ġsa fety
Ġbar rel
Ġimpac tions
Ġradio fre
Ġhand ful
Ġhyperd ensities
Ġdiscontinu ous
Ġdiscord ant
Ġparalle ls
Ġrespect s
Ġbb s
Ġtran ssub
Ġinterf aces
Ġinten tion
Ġpan lobular
su g
hyd ro
Ġwax ed
calc ific
thorac ocentesis
ram e
Ġfluctu ated
Ġmycob ac
Ġbur s
Ġmanub rial
appro ximately
Ġdisplay ing
Ġthym oma
Ġsen ile
Ġleuk emic
Ġdemarc ation
Ġred und
Ġpn u
Ġthromb us
Ġindi v
Ġconse cutive
sub clavian
Ġcount s
Ġproduct s
Ġconce aled
Ġvaric ella
Ġarg ues
Ġau gment
Ġinst ability
Ġaspergill osis
form ation
Ġcr ack
Ġconsult ation
mark ed
Ġsqu amous
Ġobserv ations
diagn os
Ġtren delen
Ġcardiop ul
Ġpneumoth roax
Ġunders urface
Ġintralo bar
inser ted
Ġom r
Ġtransmit ting
Ġbun dles
Ġcommunic ate
wors ening
bet ter
expan d
Ġstim ulation
Ġphenomen on
gu ided
pr omin
Ġspong e
Ġwhee zing
Ġallerg ic
pred omin
Ġrenew ed
Ġsignfic ant
Ġassump tion
Ġintramed ullary
Ġsemicir cular
Ġthyrom egaly
Ġradiofre quency
Ġtranssub clavian
. "
a e
b urg
b ibasilar
c k
c entric
e lect
g kin
i er
l ty
m ur
n ament
o unded
p rior
p ase
p led
s tim
t ral
t omy
t uber
u ps
y th
z a
Ġ __
Ġp ec
Ġthe ore
ar ach
Ġs ort
Ġs end
or i
or ra
or able
Ġn et
Ġin g
Ġin comp
Ġm k
Ġm ur
ac ath
Ġb uck
us hed
il ing
Ġw at
ul ator
Ġh od
Ġf asc
Ġcon cent
ne ck
Ġd ail
Ġv o
Ġv ide
Ġle aning
Ġthere by
Ġpleural ly
Ġre appearance
ol ization
em othorax
Ġor nament
ph ysi
Ġun re
Ġun united
Ġun stable
est ration
pac ities
Ġcons tric
Ġcons ulted
___ .
Ġate lctasis
at ab
Ġen han
Ġas ym
Ġas cri
Ġex clusive
Ġex hib
oc entric
oc rit
og ens
Ġpos teromedial
Ġmo vement
Ġfr on
ati te
Ġradi otherapy
se ous
se cting
Ġlateral ization
Ġpre feren
Ġal le
Ġg ent
Ġdis appearance
Ġdis secting
Ġper cei
Ġrem ove
ag ain
Ġ___. .
Ġhem orra
Ġend oscop
Ġhemi thy
Ġ2 6
Ġ2 7
Ġ2 9
tic ulation
si es
Ġpa p
Ġpa ired
Ġport acath
Ġdef lection
cardi al
Ġdecreas es
Ġpar ticul
Ġpar ietal
tain s
Ġpromin ance
Ġreg ular
Ġcan ted
Ġexam ine
Ġintra abdominal
Ġbronch ocentric
Ġhyper trans
Ġmedi us
Ġgro unds
ment al
pos ing
Ġbasal ly
Ġbl ank
Ġpo ore
mo an
Ġcompres sing
Ġgi ves
Ġ4 2
Ġ4 3
am eral
Ġsurgical ly
isting uish
Ġtrans mitted
teri um
erv es
Ġsw ans
Ġinv oke
Ġinvol ution
Ġpul m
Ġdist ributes
Ġind istinguish
Ġdevelopment s
Ġdevelopment al
Ġup loaded
ap atite
Ġrefer s
av id
Ġav m
roid ectomy
Ġexpl oratory
Ġhydro xy
Ġsubdiaphragmatic ally
Ġpath ogens
Ġ( #
Ġbul ges
Ġdextro cardia
Ġdextro curv
Ġread out
Ġeffort s
cul ous
Ġplethor ic
Ġlord osis
Ġcontin ually
Ġr ind
Ġuncertain ty
medi an
Ġhypo inflation
Ġhr s
Ġbiop sies
pro b
Ġvalv uloplasty
Ġten ted
Ġintroduc ing
Ġradiolog ical
Ġul cer
Ġlymphang i
Ġaneurysmal ly
Ġtun nel
tra pping
Ġsideport s
Ġmed ullary
Ġbronchopneum onic
Ġparas ternal
Ġdiscern ed
Ġcomple ted
Ġoper ating
Ġpseud ocyst
Ġinten se
Ġfl are
Ġfl ushed
Ġdec ide
Ġdec ision
Ġintervention s
Ġhol low
Ġcomplex ity
Ġcompens ation
Ġcou pled
Ġund ulation
Ġneuro stim
Ġinstr uction
Ġprac tition
Ġred o
bronch i
bronch oscopy
fib rotic
jejun al
Ġinfra diaphragmatic
Ġjud ge
Ġpredis posing
Ġcannul ate
Ġhemat ocrit
Ġaspergill us
Ġther mal
Ġrevers al
Ġrevers es
Ġmis alignment
Ġinadequ ate
ouch ing
Ġcoll pase
Ġcomplic ating
Ġencas ed
Ġsl iding
Ġunch aged
athyroid ism
Ġchemo emb
Ġatelecat sis
Ġlamine ctomies
slight ly
Ġtracheobronch oplasty
Ġprotrud ing
Ġsyndesmophy tes
Ġhepat omegaly
Ġinfluen za
Ġprote inosis
Ġaccompl ished
Ġtaper ing
Ġprompt ly
Ġunfav orable
Ġchilai diti
Ġhes itate
Ġfun dic
Ġapper ance
Ġspeck led
Ġfell ow
Ġsecret ary
Ġmycobac terium
Ġredund ancy
Ġpnu emothorax
Ġindiv idual
Ġaugment ation
diagnos tic
Ġtrendelen burg
predomin ant
elect ro
tuber culous
Ġtheore tically
Ġmur mur
Ġhod gkin
Ġdail y
atab ase
Ġascri be
Ġexclusive ly
Ġpercei ved
Ġhemithy roidectomy
Ġpoore r
Ġindistinguish able
Ġhydroxy apatite
Ġdextrocurv ature
Ġneurostim ulator
Ġinstruction s
Ġpractition er
Ġchemoemb olization
* *
4 0
b us
c osis
c oid
d f
d r
d own
d ose
e ph
f ol
f lex
h r
i an
j d
l li
n s
r or
s ter
y lo
z en
Ġ iliac
th es
Ġa ut
on al
on ogram
in der
in ated
in dic
al lower
Ġc ig
Ġc ub
Ġc ited
ar ter
le sion
Ġs ate
Ġs ear
Ġs onogram
or a
ti le
Ġn ative
ed ded
Ġl u
Ġl ul
Ġis ch
Ġno cardia
Ġm ra
Ġb old
il lo
Ġw ent
om as
om ing
Ġt ort
Ġt ribut
Ġri j
Ġcon cluded
ly mph
Ġd atabase
Ġd jd
Ġv as
Ġv ns
Ġle d
Ġthere to
ro s
ro stomy
Ġre inserted
Ġch arach
ct s
em pyema
Ġst art
Ġst amp
os al
Ġse ats
est aff
res o
Ġatelect ais
at ypical
Ġex c
Ġex l
Ġex pi
Ġex peri
og r
Ġpos teri
op el
vi al
Ġpre tracheal
Ġpre procedure
li es
Ġlobe ctomies
ges tive
Ġstud ent
Ġal ve
Ġg j
Ġg one
Ġg rid
Ġdis tant
ther apy
ut um
Ġwe gen
ag gressive
ag raph
Ġenlarg ment
min ant
tif orm
Ġos h
ron eph
Ġcath e
Ġsh ock
Ġsh allower
Ġres piration
Ġha pp
Ġcl ass
Ġct pa
vic es
pi ric
Ġsp oon
Ġsp illo
Ġsp utum
cardi omegaly
Ġclin cal
lu x
Ġpar ameter
ex tensive
ex amin
Ġremo de
Ġac df
Ġte s
Ġte ther
Ġintra pleural
Ġbronch io
stan d
Ġhyper par
Ġsubstan ces
Ġunder side
Ġeng or
Ġscar red
Ġpres ternal
Ġdra w
Ġsurg eries
Ġbl oss
cen d
Ġdes erves
Ġconf oun
Ġ5 8
Ġlay ered
Ġback wards
Ġesophag itis
Ġsomewh ere
Ġlymph omatous
Ġful minant
Ġtrans fi
de vices
Ġindic ator
Ġtim ing
Ġnon diagnostic
Ġnon aggressive
Ġthorac oscopy
Ġph oned
over lying
Ġind ent
Ġfail ing
Ġmulti channel
Ġunf amiliar
Ġconvincing ly
def orm
Ġge om
Ġabs cence
dra in
let s
Ġop d
Ġmargin ates
Ġoste ob
Ġoste omyelitis
Ġfat ty
ici ally
Ġexpl icit
Ġabdomin opel
Ġwed ged
Ġhyd roneph
Ġem piric
trac e
Ġfusion s
Ġconfirm atory
Ġread y
Ġemb edded
Ġdextrosc oliotic
Ġground glass
Ġinfilt rating
Ġcorrespon ded
ind eterminant
sh adow
Ġchain s
Ġatt ached
Ġnarrow er
Ġunderg oing
ob li
Ġcir cul
Ġdisloc ations
lum bar
Ġosteop or
ot umor
chond romatosis
flow ing
ling ula
Ġstabil izing
Ġpel ves
assess ment
Ġtemp oral
Ġcann ulating
Ġseem ing
Ġsumm ary
Ġbro ught
Ġhous estaff
Ġmagn itud
Ġoper ated
Ġclos ures
Ġdifferenti ating
Ġflo tation
Ġfl ush
inflamm ation
Ġosteo chondromatosis
Ġste ep
Ġta pping
Ġcharacteristic s
Ġinges tion
Ġ(___ ).
Ġhemodynamic s
Ġobliter ate
Ġlen tiform
Ġquantif ication
Ġhypox emia
Ġabrupt ly
Ġmus cul
Ġadd ressed
Ġthym us
Ġthym ectomy
Ġcaps ulated
Ġmamm ogram
Ġmatch ing
Ġguid ance
Ġinh omogeneous
Ġstar ted
Ġsill houette
Ġoverd ose
Ġpregn ant
Ġarg u
Ġarg ue
Ġopacif ying
Ġpreclud ing
Ġhemat ogenous
Ġpalp ation
Ġimmunosupp ressed
Ġadi pos
Ġosteoly sis
Ġspacer s
Ġsligh ly
Ġpenum othorax
Ġpenum onia
calcification s
Ġspeak s
Ġshor ter
Ġstrip es
Ġabsolute ly
Ġunco iling
Ġinteresting ly
Ġagre ed
Ġrecover able
Ġminim ize
Ġesc apes
kyph oplasty
uri ous
Ġsilic one
Ġresist ance
Ġsole ly
Ġvide o
Ġenhan cement
Ġpreferen tially
Ġendoscop e
Ġpap illary
Ġparticul ary
Ġblank et
moan ry
electro de
lli te
ster notomy
Ġcig are
Ġcub itus
Ġsate llite
Ġtort ous
Ġexpi red
Ġwegen er
Ġspillo ver
Ġremode led
Ġhyperpar athyroidism
Ġbloss oming
Ġconfoun ding
Ġtransfi x
Ġosteob lastic
Ġabdominopel vic
Ġmagnitud e
+ /
? )
a ired
b ri
b ow
b one
c n
d istention
e ll
f ication
g or
h owever
l og
l ined
l inear
m arg
m ediastinum
m osis
m esis
p or
p at
r as
r um
s ity
s ue
t able
u g
u x
u cl
u lectomy
z rd
Ġ +/
th ecal
on ucl
in ding
Ġth ro
Ġc oc
Ġc ris
Ġc urious
ar der
le cted
Ġs am
is es
ti tis
Ġl up
er ied
es pecially
Ġin active
Ġe ve
Ġe ase
Ġm ut
Ġm isplaced
ri ac
ac tion
ac ardiac
un ar
un der
us cular
Ġw ing
Ġw ard
ul ties
Ġan k
Ġan gular
Ġan eur
Ġan tral
Ġt ag
Ġt ace
ate mesis
Ġh im
Ġh omogen
id ation
Ġv eter
ou red
Ġre development
mon th
Ġch ild
em ed
Ġst one
Ġst ones
ter stitial
Ġor o
ch f
os terior
Ġun rec
ear s
pac t
ce ption
Ġcom pact
Ġcons isted
res ection
Ġcomp elling
Ġopac ific
Ġopac ites
Ġde emed
at ly
at tem
Ġen comp
Ġas pi
Ġex terior
Ġbas o
Ġmo reso
ud ed
Ġradi al
Ġradi onucl
Ġu zrd
Ġvi gor
Ġca ud
Ġper istent
Ġper hilar
Ġper itoneum
ad j
ure teral
ag inous
Ġsub cu
cl in
Ġimp ressive
Ġcongestion s
Ġhem atemesis
Ġos tomy
tic ula
Ġref lux
Ġrec ed
Ġpa per
ren al
lev ation
Ġsp ares
Ġwor th
Ġwor king
so ft
lu cent
Ġreg ressing
Ġmark et
Ġnas al
Ġintra thecal
Ġar ticulation
Ġelev ates
Ġcor pectomy
Ġ3 1
Ġfluid opneumothorax
Ġrecom m
Ġunder line
Ġgro ove
Ġassess able
Ġperi diaphragmatic
Ġperi hepatic
Ġloc ate
Ġacc idental
Ġfollow ups
Ġtrache oesophageal
Ġangle d
Ġdevelop s
Ġtortuous ity
Ġbl adder
Ġro ux
impos ed
Ġgre w
mo thorax
Ġ4 1
Ġdes cend
Ġdiffic ulties
Ġqu eried
ĠĠ ĠĠĠ
Ġsecond s
Ġful ler
Ġtrans thoracic
Ġtrans formation
Ġperform ing
bar rel
Ġnon enlarged
Ġpass age
Ġsemi erect
Ġdisten ding
Ġshift s
Ġhist oplas
Ġel bow
Ġpresum ption
Ġreplac es
Ġling ulectomy
Ġinfer omedial
ler ated
pl asia
Ġax is
oun ds
resp on
Ġscan ned
ap ular
Ġabs or
Ġcharacteri zing
Ġop tion
Ġmargin ation
Ġser oma
Ġser pig
Ġdiagn ose
Ġben d
Ġlum inal
Ġmas king
Ġextrem ities
Ġbi electrode
ple ase
Ġoc cluding
Ġaxilla e
Ġretrac tile
Ġexternal ly
Ġevent ually
Ġann ual
Ġpl us
Ġpl ating
Ġpl astic
sy m
Ġembol ized
Ġfar r
Ġtri ang
penet ration
penet rated
Ġrest s
Ġjuxt acardiac
Ġfe bri
con t
Ġperm e
Ġextra pulmonary
Ġextra ordin
Ġretic ulated
Ġscapula e
Ġplug s
Ġcircum flex
Ġlook ed
Ġdish is
Ġexplan ations
Ġinfarction s
Ġdet ached
peric ardi
.___ .
Ġme th
Ġlev o
Ġsuff ers
fe rence
Ġexpan ds
Ġsequ estration
Ġfac il
Ġcover age
Ġbecom ing
Ġacce lerated
Ġinten sive
Ġjejun ostomy
Ġris ing
Ġimportant ly
Ġprefer red
Ġcartil aginous
Ġpur sue
Ġfluor o
Ġent ra
Ġbifurc ations
Ġer ror
Ġcut off
Ġswallow ed
Ġimping ement
Ġultim ate
Ġbur st
Ġdiver ticula
Ġinferolateral ly
Ġleuk emia
sup rahilar
Ġparac entesis
Ġthromb osed
Ġpredis poses
tom as
Ġter rit
with in
Ġcompan y
Ġbot tle
mass es
Ġever y
Ġbr ache
Ġmeasurement s
Ġanastom otic
Ġpostero inferior
Ġobserv es
Ġencas ing
Ġmodest ly
Ġren dered
oste al
Ġhighlight s
Ġhighlight ing
Ġdopp ler
Ġpresumptive ly
Ġexpander s
deg ree
Ġsle eve
impro ved
Ġwa ist
Ġtom ography
Ġsilhou tte
Ġtravel s
Ġgot ten
Ġpush ing
Ġsal ine
Ġsilou hette
part um
Ġmodi fied
Ġcandi date
Ġmedias tium
possib ly
promin ent
Ġ__ ___
ori ented
Ġconcent rated
physi ologic
prob ably
Ġsear ch
Ġexperi en
Ġalve olitis
Ġcathe terization
Ġparameter s
Ġtether ing
Ġengor gment
Ġgeom etric
Ġexplicit ly
Ġhydroneph rosis
Ġcircul ating
Ġcigare tte
marg inated
pat chy
Ġ+/ -
Ġcris is
Ġlup us
Ġchild hood
Ġencomp ass
Ġradionucl ide
Ġvigor ous
Ġhistoplas mosis
Ġserpig inous
Ġfebri le
Ġextraordin arily
Ġterrit ory
3 2
a iton
b re
b id
c ated
c ology
c illary
e v
e ff
e li
e tence
e levation
f ir
g ans
h ge
i w
i x
i us
i tent
m p
m its
m iss
n es
o cephalic
o lecys
p ulsion
r ud
r ist
s tion
s paces
t aken
v ated
w er
x pansion
Ġ &
Ġa ce
in a
in ternal
in cluding
re p
Ġth umb
Ġth irds
Ġth resh
al se
Ġp ouch
Ġc d
Ġc ast
Ġc ere
Ġc ases
ar l
ar m
ar s
ar se
le ration
le man
Ġs pite
ti e
Ġl and
es thes
Ġe fusion
Ġe bus
Ġm am
ri form
ac rom
un fol
us ing
Ġw omen
Ġw ounds
Ġw rist
Ġan cillary
Ġan esthes
um oral
Ġt ap
Ġt ng
an i
an terior
gh ted
Ġh ia
Ġh op
Ġh ome
Ġf x
Ġf an
Ġf aces
Ġf ole
Ġf alse
mal ign
Ġcon c
Ġcon tem
ing s
Ġd a
Ġd ose
Ġd ump
Ġthere of
ro g
ra indic
ou ra
Ġre appeared
Ġcardi pulmonary
Ġleft sided
Ġlo t
it ating
Ġst op
Ġor gans
ch i
ch air
ch olecys
os seous
Ġun inter
astin al
Ġse eding
Ġse lected
___ ,
im aged
Ġcomp uted
Ġde al
Ġpro t
Ġpro long
at uration
Ġen s
Ġen vi
Ġen caps
Ġas d
Ġex istence
oc ol
Ġcont raindic
op osterior
Ġab pa
Ġmo ving
if erative
if ies
ten ed
Ġinter rupted
Ġinter rog
Ġpre dates
Ġover shadow
Ġdis ro
Ġdis miss
Ġper is
Ġper cent
ad enopathy
Ġdi vision
Ġwe ak
Ġsub m
Ġconges ion
cl ined
Ġag gra
out side
Ġimp lying
Ġimp lies
aph y
ll ular
per s
Ġj unct
Ġair trapping
Ġair spaces
no vial
clud e
diaphragm s
Ġref el
Ġrec rud
Ġsign al
oph aryngeal
Ġstom a
Ġaort o
ur bed
Ġcalc if
Ġcalc uli
Ġretro tracheal
Ġretro pulsion
Ġsp ring
Ġsp oke
cardi ophrenic
so id
Ġsc aff
Ġass es
Ġpar athyroid
ex ternal
Ġsim ulated
Ġsur round
Ġac id
Ġpac e
Ġte h
Ġdise ases
Ġfree ly
Ġintra tracheal
Ġintra gastric
Ġar c
Ġdiff ering
el chair
men d
Ġfluid s
inf ar
Ġunder taken
Ġperi osteal
Ġsupp osed
org an
Ġhil l
Ġrel oc
Ġcontinu ity
Ġovert ly
Ġapproxim ates
Ġapproxim ating
Ġapproxim atively
Ġsuperimpos ing
Ġcorre ction
Ġ4 4
Ġdes ire
Ġdes aturation
Ġconf using
Ġcur l
Ġless ened
lo yed
Ġpacer s
Ġcrow n
Ġpigtail s
Ġmultifocal ity
ticular ly
Ġtrans it
Ġtrans position
Ġtrans mits
dic ial
Ġnon acute
Ġnon resolving
Ġnon hemorrhagic
Ġsem is
Ġsw e
Ġmin us
Ġhard ly
Ġshi el
comp ression
Ġinv ading
Ġinvol uted
Ġfib rill
Ġinfer omedially
Ġindistinct ly
ator ily
pl ing
Ġne u
Ġenti red
Ġ7 5
Ġgast rectomy
Ġpag ing
Ġpag et
Ġser ve
Ġexpl oration
Ġrightward s
ques tion
Ġem pt
Ġpros pective
Ġoff set
Ġdifferential s
Ġsy novial
Ġinj ection
Ġorigin ate
Ġorigin ated
Ġfund opl
Ġcontr ary
Ġsuprac ardiac
sh eath
Ġhema tomas
Ġdisplacement s
Ġdeline ating
Ġr ate
Ġpl asty
Ġinsertion s
Ġhypo xic
Ġhypo volemia
ob i
oscop ically
Ġmor bid
Ġam eli
con s
Ġaccum ulate
mul tiple
Ġtransp edic
emergent ly
Ġpedicle s
Ġregard s
Ġthin ning
Ġimplant ation
inc idental
Ġrequi rem
Ġpage able
assess ed
.___ ,
infiltr ates
Ġme aning
Ġsa ve
Ġclar ity
Ġechocardi ographic
Ġreticul o
Ġdys plasia
Ġorgan ization
Ġpara aortic
Ġhomogeneous ly
Ġpack s
Ġlig ation
Ġepig lot
Ġfac et
Ġdepos ited
Ġasth matic
Ġellip soid
Ġacce leration
Ġhep atoce
Ġpseud otumor
Ġjejun al
Ġcluster s
Ġfem ur
par tial
par ticularly
Ġeas y
Ġeas ier
Ġbif id
Ġreflection s
Ġcompens atorily
Ġ(___ ),
Ġfung us
Ġobliter ans
Ġcres t
Ġnephro ureteral
Ġmat ched
Ġosteoarth ritic
Ġcre ated
Ġneuro log
Ġenc oura
Ġsurve y
Ġmenis coid
Ġinstr ucted
dg ement
Ġnine th
Ġsuction ing
Ġoccasion s
Ġtear s
Ġtranslu cent
develop ed
Ġtoler ated
Ġhair pin
Ġmamm ilation
Ġrect al
Ġperif ocal
Ġbreak age
Ġassym etry
Ġmicro calcifications
Ġjustif ication
Ġcomprom ising
Ġmes enteric
Ġrecon s
Ġti ght
Ġdistrac tion
Ġinh aled
Ġreoc curred
Ġprevent ing
Ġappli ed
Ġtendon itis
Ġaspergill oma
Ġsept a
Ġitem s
Ġpne u
Ġpne mothorax
Ġexcessive ly
Ġsudden ly
Ġdislo dgement
Ġinflu ence
Ġcenter ing
Ġconnection s
Ġsillou hette
Ġsqu are
Ġfo al
Ġfo resh
Ġload ing
Ġwhe elchair
Ġsligh lty
Ġcomplic ates
Ġspeak ing
Ġtren d
Ġren der
Ġintralo bular
Ġformal ly
Ġproce ed
Ġdiast asis
Ġdiast olic
Ġpoly angi
Ġlamine ctomy
Ġname ly
Ġattest s
Ġmoder atly
Ġhypod ense
Ġelucid ate
Ġsteroid s
accum ulated
Ġbal anced
Ġfu dicial
Ġprevi os
Ġdiscrimin ate
Ġdisproportion ate
Ġanomal ous
Ġdub ious
Ġincons istent
Ġobes e
Ġintram ural
Ġillustr ated
Ġcrack les
Ġbuck shot
Ġornament ation
Ġconstric tive
Ġfron t
Ġhemorra hge
bronchi ectasis
Ġtribut aries
ros thesis
Ġcharach terized
Ġclass ic
examin ed
Ġadipos ity
Ġtransfix ing
Ġthro at
Ġsam pling
Ġaneur sym
Ġunrec ogn
cont usion
Ġperme ability
Ġentra pped
Ġbrache ocephalic
unfol ded
Ġhia tial
Ġhop es
Ġfole y
Ġfalse ly
malign ancy
cholecys tectomy
Ġprolong ed
Ġenvi ron
Ġencaps ulated
Ġaggra vated
Ġjunct ure
Ġfibrill ation
Ġfundopl ication
Ġameli oration
Ġhepatoce llular
Ġforesh or
Ġpolyangi itis
, ?
1 7
3 0
a men
b s
b ul
b ly
b ase
b order
b ile
b acterial
c all
c ame
e on
e te
e ce
f r
f ill
f rame
g ragm
g am
h en
h ema
h ist
h ere
i pper
j ust
l ar
l ph
l me
l idation
m y
m or
n a
n i
p al
p et
r s
s or
u clear
u ished
u rative
w o
y l
Ġ um
th ac
Ġa vi
Ġa ler
on as
re x
re positioning
re hen
Ġp es
Ġp are
Ġp op
Ġp ure
Ġp ins
ar ian
le b
le ak
is eg
or ac
or so
ti li
ti ty
Ġn j
Ġn iss
Ġn uclear
en erative
Ġl s
Ġl ist
Ġl ysis
Ġl po
Ġin cre
Ġe ft
Ġm all
Ġm and
ri el
Ġb ring
Ġb anding
Ġb iseg
us ting
Ġw ron
Ġw oman
di aph
di lection
om ach
om onas
um ed
um ors
Ġt l
Ġt rial
Ġt ouching
Ġt umors
an e
Ġh ar
Ġh ence
Ġh ope
Ġh cc
Ġf ast
Ġf ain
Ġf rame
ic ema
Ġri g
Ġcon ern
Ġright sided
Ġd w
Ġd er
Ġd up
Ġd rop
Ġd ressing
ro ke
Ġple ru
Ġre w
Ġre cur
Ġre tains
Ġch art
ol ation
ol ds
ct ation
em as
Ġlo dged
ax illary
ax illa
Ġst ress
Ġst roke
Ġor opharyngeal
ang es
ang ement
ch ing
ch ron
os a
os ke
Ġun chn
Ġun change
ce eding
Ġcom m
Ġcom mented
Ġbe came
Ġcons titution
Ġ___ "
Ġ___ ),
Ġcomp rehen
Ġopac i
Ġde lete
Ġde cending
cu al
Ġpro l
Ġatelect as
at in
Ġas k
Ġas cer
Ġconsolid aiton
oc ative
Ġtu b
og onal
Ġpos ter
Ġon to
op rosthesis
Ġbas ically
Ġbas ilic
Ġra y
Ġra ti
Ġpneumonia e
Ġmo bile
Ġev ocative
ati al
Ġradi ogr
Ġinter body
Ġu pp
Ġu ps
Ġu tili
creas e
Ġlateral ity
Ġpre dilection
Ġbilateral ity
li ghted
Ġim bed
tip lic
Ġfor amen
Ġal ters
Ġca di
Ġdis organ
Ġdi ag
ure d
Ġwe b
Ġwh y
Ġsub s
Ġsub jective
Ġmid level
Ġinf rac
tif act
Ġcompar ative
Ġag ree
Ġimp er
Ġimp air
Ġimp ending
Ġend oprosthesis
Ġ___, ,
lac e
ron ically
Ġrep ro
Ġj p
gn s
Ġob jective
Ġsug g
Ġha mm
Ġad mitted
Ġappro x
omy omatosis
Ġdef lated
Ġretro peritoneum
Ġretro cardial
Ġsp are
Ġsp layed
Ġsp arse
Ġsc ant
Ġpost pyloric
Ġpost thoracotomy
Ġpost partum
gest ing
ree xpansion
Ġbo arder
qu arter
Ġmul tiplic
Ġpac u
ys tic
Ġatri obi
Ġar r
Ġar ise
Ġar rh
Ġwors ens
Ġlin ing
Ġhyper tensive
Ġver ses
men tectomy
ps ed
Ġrecom med
Ġunder stand
Ġgro in
Ġsupp ression
Ġsupp urative
Ġnow here
ail s
Ġacc ident
Ġcli pping
Ġcol d
Ġcol itis
Ġrel ay
Ġtrache oplasty
Ġbasal ar
Ġro ute
cen ces
mo th
Ġ4 6
Ġcompati bility
Ġconf ounded
Ġresid ue
Ġente rostomy
Ġinfiltr ated
plac ement
to od
Ġins tal
Ġins terstitial
Ġwiden s
Ġdo t
Ġdisplac e
Ġve tebral
Ġve iw
Ġout lined
lo be
lo bectomy
Ġ5 0
Ġ5 7
Ġ5 00
pse ud
Ġnodular ities
Ġz ipper
Ġfil ament
up ine
Ġco un
Ġafter wards
Ġsup ras
Ġsecond arily
Ġmet s
Ġtim ed
Ġtime frame
st omach
Ġaccompan y
Ġmin nes
sus pected
Ġneck lace
Ġinvol ute
Ġmedial ization
Ġtw ice
we ek
Ġmulti lobular
Ġexag er
view s
Ġhigh lighted
ris k
Ġ8 0
Ġ8 4
Ġconfiguration s
Ġcommun ity
Ġtra m
Ġtra be
Ġbowel s
Ġhead ed
Ġop tic
Ġop ened
Ġav ulsion
Ġben ding
Ġazyg oesophageal
Ġdict ate
Ġcorrespond ence
Ġinc ision
Ġeff u
Ġeff aces
iab ility
term ost
Ġfore arm
Ġpath cy
Ġbi v
Ġbi polar
ple uro
Ġinser t
Ġir ri
Ġconspic ious
Ġartif icially
Ġevent ual
Ġorigin s
ry late
Ġapproach ed
ord otic
Ġcoar ctation
Ġcolon oscopy
Ġmate riel
Ġdetect or
Ġshunt s
sh ell
port able
loc ation
Ġr cc
Ġpl ural
medi al
Ġhypo chond
Ġdu o
pro gres
Ġvar iability
other wise
Ġpy ogenic
Ġmuc osal
dis location
Ġten ds
ot a
cav itary
Ġcall s
Ġrepair s
Ġcp a
oplas ties
art omas
Ġsepar ating
app ed
app arent
esophag ectomy
Ġelect ronically
Ġplu eral
Ġwet ness
Ġinform ative
Ġcircum ference
Ġpel lets
Ġmorph ologically
Ġaff or
Ġsecre tion
Ġov arian
Ġme et
Ġme thy
Ġme ets
Ġdiagnos able
Ġprec ip
veal ing
Ġclar ifying
traum a
Ġattem pting
Ġradio pacities
Ġdisting uished
Ġbrid ge
Ġorgan ism
Ġdistinguish able
Ġepi hilar
Ġstriking ly
Ġorth ogonal
Ġneg lig
Ġsay s
Ġgeneral ize
Ġsiz ing
Ġairless ness
Ġfibro calcific
Ġdomin ating
Ġcaroti ds
Ġec centric
Ġpseud omonas
Ġur ge
Ġur ged
Ġphysi ological
Ġclos ed
Ġou termost
Ġsten otic
Ġadj usting
Ġinten sity
rop ath
Ġosteo chondroma
Ġsubc orac
Ġpseudo arth
opath ies
Ġ/ /
gra ph
Ġleak age
Ġste ps
hy per
Ġmicronodular ity
Ġaspir ate
par tially
par amediastinal
Ġfluor oscopically
Ġreaccum ulate
Ġevacu ate
Ġsupra aortic
Ġkne es
Ġpericardi otomy
Ġbrachy therapy
Ġduct al
Ġlen ds
Ġsometim e
Ġoptim um
Ġcre ate
Ġcre ation
Ġlapar oscopy
Ġiden tity
Ġsubtotal ly
Ġprac tice
Ġmechan ism
Ġbra id
Ġbeli eved
Ġgu ide
Ġcrescen teric
pel vic
he rent
Ġput ting
Ġcomprom ises
Ġinadvertent ly
cri ption
Ġpi ece
Ġvisib ly
bl unting
Ġtil ting
Ġpredis position
Ġstep off
Ġexp ense
Ġti b
Ġcement oplasty
Ġmyoc ardium
Ġinstrum ents
Ġla min
trache ostomy
Ġfla p
Ġfla me
Ġlea ve
Ġpreclud e
Ġelimin ate
Ġhemat ology
Ġreconstr uctive
Ġever sion
Ġmaximal ly
Ġseiz ures
Ġham artomas
Ġspontaneous ly
Ġconglomer ation
Ġpne monia
Ġumb il
Ġdeterior ated
Ġcorrob or
Ġfix ating
Ġprotr usion
Ġaa a
Ġdisorder s
Ġequal ization
Ġconceal s
Ġcoll ar
Ġdisconne ction
diagn osed
Ġcardiop ulmon
Ġchila diti
Ġunders tood
Ġprofound ly
Ġvac ated
Ġproce eds
Ġatelecat asis
Ġmoder ated
Ġincorrect ly
Ġsyndesmophy te
Ġelucid ated
deg enerative
Ġlab oratory
impro vement
Ġpatch es
accum ulating
Ġbal ance
Ġfu ther
Ġbutt on
Ġzenker s
Ġlymphaden op
Ġlymphaden opathies
Ġsmoker s
uli ar
Ġanomal ies
Ġho ok
Ġrever ted
Ġrever sible
Ġexer tion
Ġretrospective ly
Ġdro oping
Ġrare ly
Ġperio ds
Ġintention al
sug gestive
Ġcardiopul moanry
yth m
Ġpec uliar
Ġincomp etence
Ġwat ching
Ġfasc ia
Ġvo icema
Ġunre vealing
Ġasym etric
Ġexhib it
Ġgent leman
Ġhypertrans lucent
Ġaut o
ora di
Ġstamp ed
Ġexl uded
Ġindent ing
obli que
Ġosteopor osis
Ġseeming ly
Ġmuscul oske
Ġargu ing
Ġmut li
Ġbaso apical
Ġcaud ally
pericardi otomy
Ġthresh old
Ġmam moth
Ġanesthes ia
Ġconc ord
Ġprot ocol
Ġdisro bed
Ġweak ness
Ġrefel ct
Ġrecrud es
Ġsemis upine
Ġminus cule
Ġentired ly
Ġempt ying
Ġtranspedic ular
Ġepiglot titis
Ġunrecogn ized
Ġenviron mental
border line
fr act
hist ory
lme thac
Ġniss en
Ġmand atory
Ġbiseg mentectomy
Ġwron g
Ġfain ter
Ġdup licated
Ġpleru al
Ġcomprehen sive
Ġascer tained
Ġutili zing
Ġimbed ded
Ġhamm er
Ġmultiplic ity
Ġatriobi ventricular
Ġminnes ota
pleuro desis
Ġhypochond riac
Ġmethy lmethac
Ġneglig ible
Ġsubcorac oid
Ġpseudoarth rosis
Ġvoicema il
Ġmusculoske letal
Ġmethylmethac rylate
. /
/ ___
1 3
? ?
a be
b on
b ig
c ation
c ortic
c ial
c entu
c over
c lip
c ope
d ual
d ating
e u
e en
e ver
f our
f ree
f rom
f inding
g o
g ate
g ement
g shell
h n
h as
i e
i ro
j p
k s
l f
l ad
m ediastin
m et
m ay
m icu
n ary
n iotic
o x
o ly
o ax
o ir
o unt
o pacities
p ore
p ression
r n
r t
r in
r ise
s er
s arcoid
s icu
t iss
t orso
u tes
v o
v ar
v essel
z ones
Ġ ]
Ġ ic
Ġ **
th at
Ġa or
Ġa im
Ġa ction
in ion
in crease
Ġth re
Ġp jp
Ġc ul
Ġc ow
Ġc entesis
ar p
ar ment
ar cer
Ġs id
Ġs ch
Ġs bo
Ġs ought
Ġs tead
or oid
or row
or pore
ti h
en ia
as th
as al
as ed
as ix
Ġl un
Ġl ax
Ġis n
Ġno se
er t
Ġin terior
Ġin ward
Ġin ert
Ġe j
Ġm ar
Ġm egaly
ri x
ri eval
ac co
Ġb ib
Ġb uckle
Ġb inder
Ġb ears
un less
il unar
Ġw tih
di ffuse
di gns
om ed
om etry
Ġan te
Ġt ro
Ġt and
Ġt apped
an ticipated
gh b
ate lect
Ġh old
Ġh ug
Ġh umoral
Ġf ro
Ġri gh
Ġcon ven
ing er
ne t
ne uro
Ġwi t
Ġd h
Ġd x
Ġd ri
Ġd anger
Ġd ht
Ġv a
Ġv es
Ġv ocal
Ġv ad
Ġle t
ro se
ro ach
ro cal
Ġple x
Ġre en
Ġre inflation
Ġre expand
Ġre ception
mon ary
Ġcardi ology
ft s
Ġch ylo
Ġch oroid
Ġto e
it ting
Ġst re
Ġst asis
Ġst ay
Ġst ring
Ġst ating
Ġpneumo con
ang itic
ph as
ph ic
ph ag
ph ragm
ph arynx
os ing
Ġun in
Ġun dist
Ġun sure
Ġun dra
Ġun sh
Ġun displaced
Ġun tre
Ġun respon
Ġun diagnosed
Ġun anticipated
be red
est ard
pac ification
ve ci
Ġcom es
Ġcons ent
Ġcons isten
Ġcons lidation
im b
im port
Ġcomp ounded
Ġde ci
Ġde tract
cu itous
Ġpro p
Ġpro trac
Ġlow re
Ġate let
Ġsi houet
at z
at on
at ley
Ġas c
hou r
Ġed me
Ġex ostosis
oc oc
ia d
Ġcont oured
ain e
ver age
ver sus
Ġbas il
Ġbas iliar
ess ion
Ġfr ac
Ġradi graph
ten ance
iti y
Ġinter current
cre te
Ġu ter
Ġu per
se quent
Ġlateral ized
Ġlateral izing
vi ated
Ġpre pon
Ġpre ceeding
Ġpre dating
ine ated
li ed
li ance
Ġover lo
Ġfor ce
Ġal ter
Ġca d
Ġg er
Ġg arment
Ġdis ce
Ġdis use
Ġdis pal
Ġper im
Ġdi g
Ġap n
ag ul
Ġsub sc
Ġsub clavicular
Ġsub caps
Ġsub acrom
Ġmid point
min utes
Ġinf oradi
tif ied
rem ia
Ġcompar ably
Ġunrem ak
Ġhem ost
Ġend oscopy
Ġrep aired
Ġj oining
Ġj iro
Ġcath ter
Ġline a
Ġres to
Ġres erv
si x
Ġref orm
Ġpers isten
Ġpa ges
Ġcl ou
Ġcl ock
Ġcl imb
Ġfin d
Ġfin digns
Ġsign ed
Ġsign ifies
Ġdef icient
Ġsp atial
Ġendo leak
Ġpost biopsy
Ġcar i
Ġcar t
Ġclin icians
lu cency
Ġbo x
Ġbo unded
Ġpar ad
Ġpar agraph
iz er
ex piratory
Ġsuper position
Ġcan ula
Ġk ind
Ġte ch
Ġprob ability
Ġintra bronchial
la be
Ġprov iding
Ġcor ds
Ġ3 4
Ġ3 8
men tioned
Ġwas hou
Ġrecommen ed
Ġet c
Ġunder ling
Ġset up
and rant
Ġperi lesion
org ement
Ġloc ul
Ġloc ating
Ġpres sed
Ġinternal ly
Ġi ght
Ġevalu able
Ġcol lateral
Ġtrache omegaly
Ġsurg eon
Ġbl o
Ġsuperimpos e
Ġdisc itis
Ġ4 7
Ġdes cent
Ġadv ise
mm ing
Ġqu andrant
Ġtechn ician
Ġ5 3
Ġcrow ds
Ġcombination s
Ġoverload ed
Ġco ordin
tim ates
Ġback board
Ġlymph ovascular
Ġful fill
Ġrot atory
Ġtrans vers
Ġtrans cription
Ġdiscus sing
Ġval ues
Ġdob off
pic uous
Ġfiss ue
Ġnon active
Ġnon characteristic
Ġnon united
Ġnon infectious
Ġnon tuberculous
com e
Ġtoday s
Ġsem ilunar
Ġ6 3
Ġ6 6
Ġ. .
Ġpresum able
ful ly
Ġmain tenance
Ġling ering
we ll
Ġind ented
Ġind ents
Ġcaus ative
ator s
pl atz
Ġmal placed
erex posed
Ġunf used
pirat or
Ġhigh est
Ġill icit
Ġapic o
Ġtra ject
Ġ7 4
Ġrefer ral
Ġ9 0
Ġgo al
Ġop inion
Ġy ou
Ġy estard
Ġav ail
Ġgener ous
Ġdefin es
Ġdefin tie
demon strate
Ġlum b
Ġmas qu
Ġlocal izer
Ġinc arcer
Ġem p
Ġeff fusion
Ġbi hilar
Ġman eu
Ġman ometry
Ġquestion ably
Ġarteri os
Ġsulc al
Ġsy m
pneum onic
Ġdextro positioning
Ġfund al
Ġkyph oplasties
Ġremote ly
Ġwar ts
sh ape
Ġaltern ate
Ġparam ediastinum
Ġpl aying
Ġsubp ulmonary
Ġrecurrent ly
Ġfew er
Ġru q
Ġstri ated
Ġhypo tensive
ob ed
Ġiniti ating
Ġrespon sive
pro ven
Ġfar ther
Ġvar ies
Ġtract s
Ġcir cuitous
Ġam l
Ġam ple
Ġam ylo
Ġam niotic
Ġam platz
Ġpy opneumothorax
con fir
ot rex
Ġwindow s
Ġwindow ing
bo emb
mul tifocal
Ġstern i
Ġstimul ating
cent ral
Ġcosto chond
Ġmanifest s
-___ .
pre table
cin osis
Ġregard less
Ġthin ner
Ġinterpre ting
Ġret rieval
Ġscre en
Ġtotal ity
Ġradiolog ically
Ġmorph ologies
Ġdep loyed
Ġnei ghb
Ġseptic emia
Ġbil obed
Ġvs d
Ġmig rating
Ġhalf way
Ġoffic ial
Ġnaso jejunal
Ġcell s
Ġsuff ering
Ġsa w
Ġpunct ure
Ġdistinct ness
Ġtemp ted
Ġsmo ked
Ġhor ner
Ġbenign ity
Ġdys phag
istic ally
Ġepi pharynx
Ġhand s
rug ger
Ġobtain able
Ġdrug s
Ġvirt ual
Ġcv a
Ġur gency
Ġ___% .
ged ly
Ġbat wing
Ġconne cting
tre am
cys tic
Ġdepression s
Ġlongitud in
Ġste mming
Ġskinf olds
Ġcap able
Ġofficer s
Ġpan creas
Ġcontact ing
Ġeg gshell
Ġaden oma
year s
Ġdirection s
Ġquanti ties
Ġmat uration
Ġmat rix
Ġmean dering
ilic us
Ġund erexposed
Ġoptim ize
Ġbroad ly
hem o
Ġneuro surgery
Ġadd ress
Ġ30 0
Ġenc ases
Ġenc roach
cus sed
Ġlobulation s
Ġtranslu cencies
Ġcaps ular
Ġthrom boemb
Ġinadver tant
Ġrect um
Ġsection s
Ġunderes timates
Ġbile af
Ġopportun ity
bronch itis
pa h
Ġput s
Ġmorg ani
Ġtransplant ation
Ġpi riform
Ġtil t
sub sequent
Ġsurpris ed
Ġpermit ting
Ġestablish ing
Ġexp lo
Ġexp ression
Ġdiverticul itis
Ġure ter
Ġfist ul
Ġemphas ize
Ġemphas izing
del ineated
Ġrh ythm
Ġstat istically
Ġelimin ation
Ġsyn cope
form ed
Ġmot or
minimal ly
Ġbic ameral
Ġther m
Ġrevers ing
Ġlabe l
Ġumb ilicus
Ġinver sion
Ġchond ral
Ġchond rocal
Ġmis labe
Ġblur s
Ġblur ry
Ġpulmon ology
Ġmac ro
Ġtachy pnea
Ġopaciti tes
Ġatelec asis
Ġcoex ist
Ġextravas ated
Ġcop y
nod ule
Ġpartic le
mark s
pneumon itis
oste omyelitis
Ġshor tening
Ġshor tened
Ġoccur s
Ġintest ine
Ġproce eding
inser tion
stent ing
Ġextrac tion
Ġextrac orpore
Ġhypod ensity
Ġhypod ensities
Ġinsufficient ly
Ġprotrud es
pin atus
Ġtom orrow
Ġdisproportion ately
Ġdub hoff
Ġii i
Ġincons picuous
cor re
vol ving
Ġconver ted
Ġbelong s
Ġga u
Ġobes ity
Ġintram uscular
Ġperio dic
Ġsupplement al
sug gesting
Ġcardiopul m
yth mia
Ġwat ched
Ġfasc ial
Ġvo ice
Ġexhib its
Ġalle viated
Ġ(# ___
Ġlymphangi ographic
Ġisch emia
Ġisch emic
lymph adenopathy
Ġstart s
Ġposteri olateral
Ġtes ting
Ġbronchio alveolar
Ġdraw n
deform ity
por aneous
Ġcoc aine
Ġank yl
Ġhomogen ous
Ġveter bral
attem pt
Ġaspi rating
adj usted
clin ical
Ġreced e
Ġabsor ption
Ġdishis cences
Ġmeth otrex
Ġfacil itate
Ġevery where
Ġexperien ced
Ġencompass ed
Ġcere bral
Ġland marks
Ġuninter pretable
Ġens uring
Ġinterrog ation
pers istent
Ġscaff old
infar ction
Ġshiel ded
Ġneu ropath
Ġprospective ly
Ġrequirem ent
Ġneurolog y
Ġforeshor tening
hema toma
lph one
mor l
Ġrig id
chron d
Ġunchn aged
Ġprol iferative
Ġups tream
Ġinfrac lavicular
Ġarrh ythmia
Ġsupras pinatus
Ġumbil ical
Ġhook s
Ġmutli ple
Ġconcord ant
cortic ated
finding s
mediastin oscopy
tiss ue
Ġ** *
Ġsch morl
Ġlax ity
Ġtand em
atelect atic
Ġhug ging
Ġfro zen
Ġchylo thorax
Ġpneumocon i
Ġundist urbed
Ġundra ined
Ġunsh arp
Ġuntre ated
import ant
Ġdeci pher
Ġprotrac ted
Ġatelet asis
Ġedme a
Ġprepon der
Ġsubsc apular
Ġsubcaps ular
Ġsubacrom ial
Ġinforadi ology
Ġjiro veci
Ġresto red
Ġreserv oir
Ġclock wise
Ġperilesion al
Ġyestard ay
Ġincarcer ation
Ġamylo id
Ġdysphag ia
Ġthromboemb olic
Ġbileaf let
Ġchondrocal cinosis
Ġextracorpore al
Ġmethotrex ate
Ġneuropath ic
" .
% )
3 4
3 5
6 0
a ed
a ps
a pse
b al
b ra
b lo
b ulated
b acco
c r
c ar
c li
c ould
c ost
c ond
c ervical
c orn
d o
d ation
d ens
d ocum
e tic
e ase
e am
e ving
e volving
f a
f ly
f ted
f ici
f lets
g as
g ast
g ged
h i
h ic
h omogeneous
i ent
i vc
i let
i rable
i dity
j ury
j ected
l d
l ove
l oping
m ate
m ic
m ature
m el
m orph
n on
n as
n ding
n ur
n ominate
o ar
o res
o val
o ded
o dy
o dic
o aneurysm
o bectomy
o jejunal
o pacification
p ed
p es
p ent
p res
p resent
p ad
p lated
p athy
p ouching
q e
t ortu
t umor
t ailed
u ble
u tic
v ats
v anced
w a
w ed
w as
y n
y ling
y seal
z es
z ius
z oar
Ġ )
Ġ *
Ġ =
Ġ ion
Ġa ges
Ġa jacent
Ġa rot
Ġa verage
Ġa wa
on se
on ally
on itis
on cology
in ce
in arily
in jury
in nominate
re f
re view
Ġth igh
al so
Ġp ens
Ġc s
Ġc os
Ġc ance
Ġc ard
Ġc ecal
ar te
ar an
ar ison
ar ded
ar agraph
te sis
te remia
le st
Ġs g
Ġs n
Ġs ph
Ġs aph
is en
is ation
is ible
or ial
ti an
ti ges
ti la
Ġn a
Ġn c
Ġn id
Ġn ails
ed ed
Ġo th
Ġo ve
Ġo min
Ġo ment
Ġo ap
Ġo wer
en ic
en ous
as ilar
Ġl ch
Ġl at
Ġl aryn
Ġl aryngeal
Ġl asix
er ation
er ading
er cosis
Ġin ch
Ġin patient
Ġin eff
Ġin apparent
Ġe f
Ġe th
Ġe ffus
Ġe qu
Ġm n
Ġm u
Ġm om
Ġm ach
Ġm ag
Ġm ail
ac cess
ac quired
ac inar
Ġb m
Ġb out
Ġb ron
Ġb ial
Ġb ice
un c
Ġw ant
Ġw ise
Ġw rit
Ġw inding
Ġw ane
di a
di t
di rected
di tis
om ic
om ary
om onia
Ġan f
tion ing
um onia
Ġt spine
Ġt pa
ate arl
Ġh h
Ġh ump
Ġh off
Ġare seen
id ng
Ġf en
Ġf ish
Ġf amiliar
Ġf inger
ic s
ic ameral
Ġcon us
Ġcon currence
ne ar
Ġpneum ectomy
ffus ed
Ġd ing
Ġd ates
Ġd oph
Ġd ress
Ġd bs
Ġv eg
Ġwith e
Ġwith ou
ro unded
ro tation
ra x
ra ms
ou ette
Ġre ass
Ġre dist
Ġre dis
Ġre taining
Ġre aeration
Ġre bre
Ġcardi phrenic
ent ly
Ġch y
Ġch ol
Ġch ance
Ġch la
Ġch ill
ol ding
ol isthesis
Ġto es
Ġto ok
Ġto bacco
Ġto ilet
ct able
ct ory
thor a
Ġlo gged
ax imal
it able
it ally
Ġst atic
Ġst ayed
Ġst aphy
Ġpneumo retro
ter clock
ter omedially
ter fly
Ġor ally
Ġor ogr
edi as
pp y
ph aryngeal
os ter
os itis
Ġun icameral
ear te
Ġse lect
ce t
Ġbe an
Ġbe gan
Ġbe ha
Ġbe zoar
Ġcons tip
Ġcons tra
Ġcons olation
___ %)
im age
im pression
res ia
res cence
res idual
Ġcomp u
Ġcomp ris
Ġcomp liance
Ġde l
Ġde cl
cu t
cu ff
cu red
cu py
Ġsu ited
Ġsu itable
Ġpro g
Ġpro la
Ġpro of
et ing
et ations
Ġate ctasis
Ġatelect a
Ġatelect sis
Ġsi houette
Ġcardiom e
Ġcardiom ed
Ġcardiom edias
Ġat resia
ew all
at ten
Ġen for
Ġas cen
Ġed eam
Ġex tr
Ġex ogenous
Ġapp oint
Ġapp osition
Ġapp osed
Ġapp lic
oc iation
oc cupy
Ġpos iton
ver sible
op y
Ġab n
Ġab use
Ġmo le
Ġmo ves
Ġmo bility
ati o
ati es
ati ble
ud ad
Ġradi ogra
Ġsmal lest
Ġcardiac mediastinal
Ġinter titial
se gmental
se cond
Ġpre v
Ġpre ven
Ġpre procedural
Ġpre described
Ġbilateral y
Ġappear ant
Ġover cir
Ġover penetration
Ġover penetrated
tr ate
tr ub
tr ack
ark ably
Ġal th
Ġca me
Ġca ught
Ġg ated
Ġg own
Ġdis sected
Ġper cardial
ad ed
ad ded
ut ing
Ġli pos
Ġli ek
Ġdi ath
Ġdi eresis
Ġdi abe
Ġdi ease
Ġdi ffused
ib ility
oul sy
Ġenlarg es
Ġsub sided
Ġsub hilar
Ġsub stance
Ġsub type
Ġsub pectoral
Ġsub diaph
Ġmid hem
Ġmid chest
Ġmid abdomen
ini i
Ġcompar ision
ir or
Ġag ed
Ġ___. ,
Ġlim ite
Ġimp ly
Ġimp osition
Ġimp art
aph ysis
Ġhem omediastinum
Ġend arte
Ġos ses
Ġos tia
ost asis
per formed
ich el
Ġrep ly
Ġrep os
Ġrep rs
Ġj o
Ġsin k
ru ent
tic ystic
no ary
Ġsh ared
Ġres ent
Ġres ting
Ġres erve
Ġres pirator
Ġref ect
Ġpers pective
Ġcl am
Ġfin ings
Ġad renal
Ġad dit
omy cin
omy cosis
Ġaort al
Ġfract uring
Ġsp ect
Ġsp inous
Ġsp ora
cardi othoracic
Ġsc ore
Ġsc ores
Ġpost ural
Ġcar mel
Ġcar tila
Ġcar inii
Ġclin ic
Ġhy er
Ġbo und
Ġvascul itic
Ġven ogram
Ġthan k
qu am
ex piration
Ġsuper sed
Ġsuper added
Ġvis it
ab out
Ġmul tifact
Ġmul ticystic
Ġte e
Ġte var
Ġatri us
ring othoracic
Ġnas opharynx
Ġar t
Ġar mo
Ġar cing
Ġar isen
Ġlin q
Ġlin x
Ġbronch omalacia
Ġhyper aerated
Ġhyper dynam
Ġenlargement s
el s
Ġ3 9
gen eous
Ġmedi um
Ġmedi ast
Ġcost ro
Ġcost oph
Ġcost opleural
Ġabd ucted
Ġperi h
Ġeng age
Ġacc ord
Ġdr s
Ġtrache o
Ġcontinu ation
Ġpossib l
Ġdra ped
Ġemph ys
Ġapproxim atley
Ġnotif y
Ġbl ast
Ġbl oc
Ġro to
Ġro pe
Ġro unds
Ġpo e
cen tesis
Ġinfil ter
Ġdes erve
Ġdes irable
Ġdes quam
mm a
Ġassoc i
Ġqu arter
Ġextent s
Ġcro hn
Ġconstant ly
Ġins ure
Ġins pect
Ġdo ing
Ġdo zen
Ġve hic
Ġout pouching
lo op
lo bulated
reak y
Ġfi les
Ġengorgement s
Ġ5 4
Ġ5 6
Ġ5 9
Ġevaluation s
Ġz oster
Ġco agul
Ġesophag o
Ġesophag oscopy
Ġrot oscoliosis
Ġtrans vascular
Ġmet a
Ġmet aphysis
Ġval idity
pic c
pic ardial
pic ious
Ġsus tained
Ġperf used
oli th
Ġallow ed
Ġaccom mo
st atus
st reaky
Ġaccompan iment
pt ures
tero geneous
Ġconflu ate
Ġsw it
Ġsw ir
sus picious
Ġph eum
Ġph leb
Ġ6 5
Ġ6 8
Ġ6 00
Ġlong term
comp ared
Ġinv isible
Ġdil at
Ġpredomin ates
Ġreplac e
Ġpul moanry
Ġtw isted
Ġmain tain
Ġmain tains
Ġfib rin
Ġinfer oposterior
Ġcompl ain
Ġind is
int ra
Ġexce pting
pl astic
Ġne ur
Ġmal acia
Ġmal formation
Ġx rt
crib ing
Ġhyperex tension
Ġmulti loc
Ġconvin ced
Ġ8 3
Ġup date
Ġpron ou
Ġill defined
Ġapic omedial
Ġapic oposterior
Ġtra pe
Ġ7 34
Ġgas es
Ġgas seous
Ġspecific ity
Ġgastro pa
Ġwithdraw l
Ġhemorrh ages
Ġop c
Ġop ening
Ġop tions
Ġop city
sc ale
Ġoste opathy
Ġoste ot
Ġoste osclerosis
Ġrecei pt
Ġy our
Ġtre ating
Ġazyg us
Ġdefin ing
Ġdict ates
Ġdirect ory
Ġhyd rated
Ġem py
Ġem esis
Ġdistribution s
Ġsut ural
position al
Ġphys ci
Ġdevi ate
Ġ( ~
Ġdepen dant
Ġoc clusive
Ġconve y
Ġparat rach
Ġsy ringothoracic
Ġirre versible
Ġinj ected
rom ise
Ġdextro con
Ġcontr acted
Ġcontr action
Ġcollaps es
Ġconspicuous ly
Ġsat uration
Ġfir m
Ġgra vity
Ġgra fted
Ġredu ce
Ġball point
Ġaneurys ms
Ġsk ull
Ġobstru ct
Ġdetect ably
Ġform ing
Ġlord odic
Ġcontin ual
Ġmak er
loc oc
Ġr anges
Ġpl ump
Ġpl asm
Ġsubp aragraph
Ġstri pping
Ġhypo expanded
Ġhypo ventilated
ob asal
Ġiniti ation
Ġiniti ated
Ġimpression s
Ġnecess ity
Ġrespon ding
pro s
pro ject
Ġvar us
Ġvar iably
Ġcoarse ly
Ġble omycin
Ġduoden ojejunal
Ġam put
Ġam big
Ġflex ible
Ġpy el
Ġ13 0
ot ope
bo th
Ġcall back
Ġcp r
Ġextra vascular
Ġextra pericardial
Ġke ys
mul ti
Ġcare gi
Ġcoars er
Ġmanifest ing
mid dle
sp aring
Ġpedic ular
Ġevol ved
Ġplug ged
Ġintrodu ctory
Ġneoplas ia
Ġinfiltration s
Ġspic ulation
Ġchannel s
Ġscre ened
inc ter
urgent ly
Ġorder s
Ġdep ressing
Ġcoinc idental
obstr uction
obstr ucted
Ġaff ection
Ġbil obectomy
Ġbil atearl
Ġcoales ce
Ġlip oid
Ġhospital s
oper itoneum
Ġmistaken ly
Ġdetermin ate
Ġhal o
Ġaccur acy
Ġdiagnos ing
Ġlev osc
Ġoffic es
Ġdepic tion
Ġpleuro centesis
Ġwid est
Ġpe a
Ġpe ep
Ġpunct uated
Ġcann ulated
Ġdors ally
Ġventricul ostomy
Ġventricul opleural
Ġtempor arily
Ġrecor ding
Ġdys morph
Ġapicolateral ly
Ġradio opacity
Ġexacerb ating
Ġexacerb ations
Ġseem ed
Ġorgan oax
Ġepi pericardial
Ġexpan d
Ġnumber s
Ġcran iad
Ġdiss ociation
Ġpara thoracic
Ġbro ch
consolid ations
Ġdestruction s
dynam ically
Ġker ly
Ġhow ver
Ġbig gest
Ġqual ified
Ġcomple mented
Ġligament um
Ġreal ized
Ġ? ?
Ġbes ide
Ġquan tit
Ġoss ified
Ġanterolateral ly
Ġphysi ologically
Ġhuge ly
tu bes
cal led
Ġflo ppy
Ġvisc ous
Ġconne ct
Ġconne ctive
Ġconne ctor
Ġsubc ostal
Ġrisk s
Ġparamedi al
Ġdysfunction al
Ġmi e
Ġperit onitis
Ġcap illary
Ġossification s
Ġpan acinar
Ġoperative ly
su pp
Ġresor ptive
Ġsupra basal
Ġer rant
Ġer cp
Ġer oded
Ġfeature less
Ġduct us
Ġlen ding
Ġquantif ied
Ġmr cp
Ġquanti tation
Ġinstitution s
Ġoptim ization
Ġfluct uation
Ġcre ase
Ġspondyl itis
Ġspondyl olisthesis
Ġcrypt ococ
Ġsac rum
Ġmechan ics
Ġcolumn s
Ġlymphatic s
Ġreli ef
Ġreli eved
Ġreli eving
Ġgu ess
Ġdegener ated
ocy tic
ocy top
Ġdisruption s
Ġdiver sion
Ġimmunocomp romise
--___ ,
Ġmamm ography
Ġknow ing
post surgical
Ġnotice ably
Ġassym teric
Ġmicro atelectasis
Ġlacer ations
Ġfossa e
Ġrecess es
Ġexcre tion
Ġparac ardial
Ġthromb ocytop
wi re
Ġdeb il
Ġjud gment
Ġdam aged
Ġdesign ation
Ġdesign ated
Ġmicronod ulation
Ġbronchosp astic
colla psed
Ġexp ress
Ġdegra dation
vole mic
Ġti tle
Ġhoneycom b
Ġtrun cated
Ġinstrum ent
Ġoxygen ation
Ġinh ib
Ġantero listhesis
Ġvaric oid
Ġemphas izes
Ġcong ruent
Ġlea flets
Ġprevent s
Ġappli ance
Ġinst ance
Ġtendon s
Ġpin ched
Ġweight s
titu ted
Ġinappropriate ly
Ġmod earte
Ġshil ouette
Ġdescri bes
Ġinver ted
Ġvol un
Ġrow s
Ġmis aligned
Ġstrict ly
Ġsigmoid al
Ġpulmon ar
Ġpulmon ologist
Ġcr us
Ġmember s
Ġspot s
00 0
Ġbent all
Ġpostero basal
Ġtest s
Ġcranioca udad
Ġconceal ing
Ġperpendicular ly
mark er
Ġfo ot
Ġdynamic s
Ġren dering
Ġpneumoth rax
verteb ra
Ġ36 0
Ġmanip ulated
Ġdecided ly
Ġextrac ted
Ġextrac ardiac
Ġcloth es
Ġtracheobronch omalacia
Ġelucid ation
Ġbun dle
Ġerosion s
Ġinfluen ced
Ġbac teremia
Ġunco operative
Ġprevi oulsy
Ġ___.___ ,
Ġbutt ons
Ġthorough ly
Ġdiscrimin ating
Ġaccompl ish
Ġtravel ing
Ġho ars
angi ocarcinoma
Ġexer t
Ġagre ement
Ġpersis te
Ġpersis itent
Ġinhalation al
Ġelective ly
Ġconver ging
Ġdro pping
Ġga uge
Ġcandi dates
Ġintention ally
Ġburs a
Ġburs al
Ġburs itis
promin ence
Ġconstric tion
Ġalle gedly
Ġgent ly
Ġhemorra ge
Ġ43 5
Ġulcer ation
Ġlymphangi omyomatosis
bronchi olitis
Ġmurmur s
Ġaut om
Ġlu fts
Ġexc ised
Ġexc rescence
Ġhapp y
Ġhapp ened
stand ard
Ġindent ations
deform ities
drain age
Ġempiric ally
obli qu
Ġosteopor otic
Ġmuscul ature
Ġargu ably
fication s
Ġcoc ci
Ġank le
Ġtag s
Ġhomogen eity
Ġveter bra
Ġopacific tion
Ġopacific aties
attem pted
adj ustment
Ġsubcu tan
Ġrecomm mend
Ġabsor bed
Ġdishis cence
Ġmeth od
Ġexperien cing
Ġencompass ing
ev idence
Ġcontem poraneous
Ġcontem plated
Ġstop s
Ġcontraindic ated
Ġovershadow ed
Ġdismiss ed
Ġsubm aximal
Ġasses ment
Ġsupposed ly
Ġswe ep
Ġswe ats
Ġmorbid ly
Ġmeaning ful
Ġtight ly
Ġpneu omonia
Ġprevios ly
Ġprevios uly
my dia
Ġavi um
Ġaler ted
Ġpop corn
Ġhope fully
Ġconern ing
Ġder angement
Ġrew iring
Ġcomm and
Ġrati o
Ġdisorgan ization
Ġdiag onally
Ġimper ceptible
Ġobjective ly
Ġarr ange
Ġinstal lation
pseud oaneurysm
Ġfilament ous
Ġcoun terclock
Ġexager rated
Ġtrabe cular
Ġirri tation
progres sion
Ġaffor ded
Ġprecip itated
Ġlamin ar
Ġcorrobor ating
Ġcardiopulmon ar
Ġrecrudes cent
fract ures
centu ated
cover ing
four th
go iter
met allic
Ġsid ewall
asth ma
neuro surgery
Ġdri ve
Ġves tiges
Ġplex opathy
Ġreception ist
Ġstre t
Ġunrespon sive
Ġconsisten cy
Ġdetract s
Ġprop ensity
Ġsihouet ting
Ġradigraph s
Ġdisce ctomy
Ġdispal ced
Ġperim eter
Ġdig ital
Ġunremak able
Ġhemost ats
six th
Ġparad ox
Ġwashou t
Ġblo ody
Ġcoordin ator
Ġtraject ory
Ġavail ability
Ġmasqu erading
Ġmaneu ver
Ġarterios um
Ġcostochond ritis
Ġneighb oring
Ġlongitudin ally
hemo dynamically
Ġexplo re
Ġtherm ometer
Ġmislabe led
Ġankyl osing
Ġtandem heart
Ġpneumoconi osis
Ġpreponder ance
blo od
cli ps
fici ations
nas ogastric
pres umed
wed ge
Ġsph incter
Ġsaph enous
Ġnid us
Ġomin ous
Ġoment um
Ġoap city
Ġlaryn g
Ġineff ective
Ġmach ine
Ġbial teral
Ġbice ps
Ġwrit ten
Ġdoph off
Ġveg etations
Ġreass uring
Ġredis trub
Ġrebre ather
Ġchol angiocarcinoma
Ġchla mydia
Ġchill s
Ġstaphy lococ
Ġpneumoretro peritoneum
Ġorogr astric
Ġconstip ation
Ġconstra int
atten uation
Ġappoint ment
Ġapplic able
occupy ing
Ġpreven ted
Ġovercir c
track ing
Ġlipos arcoma
Ġliek ly
Ġdiath esis
Ġdiabe tic
Ġmidhem i
Ġendarte rectomy
Ġosses ous
Ġreprs ent
Ġspora dic
Ġcartila ges
Ġbound aries
Ġmultifact orial
Ġarmo red
Ġhyperdynam ic
Ġaccord ance
Ġdesquam ative
Ġvehic le
Ġcoagul opathy
Ġmultiloc ular
Ġtrape zius
Ġgastropa resis
Ġosteot omies
Ġempy emas
Ġphysci an
Ġdextrocon cave
Ġcaregi ver
Ġdysmorph ic
Ġorganoax ial
Ġhoars eness
Ġlufts ichel
Ġcounterclock wise
' d
, "
- ,
. '
. ).
1 9
5 0
; ___
> ___%)
? .
? ).
a h
a us
a ion
a ve
a vin
b r
b in
b ble
b and
b ering
b ors
b dominal
b ale
c g
c ase
c ore
c ula
c ations
c row
c arinal
c ological
d a
d t
d or
d il
d ural
d et
d ue
d ec
d ilation
e o
e al
e ities
e pi
e ek
e teric
f l
f an
f ron
f ist
f lu
f iss
f urc
f used
f dg
g ro
g mon
g st
g leno
g atory
g orgement
g love
h al
h ce
h et
h ost
h bo
h art
i i
i th
i est
i all
i ence
i xed
i ef
i omyomatosis
j ection
k i
k y
k le
k ly
l t
l te
l ast
l ain
l ates
l ication
l ating
l led
l dy
l ordotic
l itting
l come
m r
m er
m ri
m ing
m ain
m ere
m uc
m omediastinum
m ester
n p
n in
n ar
n us
n ded
n one
n ipple
n ace
o v
o di
o pp
o tracheal
o ap
o lectomy
o vol
o ius
p oc
p la
p iss
p orted
p ulmonic
p arency
p cp
q ual
r un
r asc
r ut
r ll
r ates
r po
r gam
r fa
s a
s w
s ol
s ted
s ur
s mo
s ome
s uch
s rated
s ince
t ration
t one
t age
t ab
t iny
t ology
t ty
t ling
t vr
t olic
t achy
t wo
u er
u be
u able
u per
u rable
v a
v p
v s
v ular
v ia
v ical
v asive
w all
w ater
x e
y e
y t
y mal
y ten
Ġ ral
Ġ id
Ġ ung
Ġ ib
Ġ ident
Ġ ronchial
th en
th us
th arg
th ree
Ġa y
Ġa z
Ġa ti
Ġa mal
Ġa though
Ġa rotic
Ġa left
Ġa ip
Ġa usc
on set
in o
in um
in ing
in ition
in ical
in to
in tern
in vasive
re gular
re ticular
re current
re trac
re verse
re placement
re ased
Ġth ic
Ġth ry
al p
al be
Ġp f
Ġp un
Ġp il
Ġp edi
Ġp arent
Ġp olar
Ġp tosis
Ġthe left
Ġthe lungs
Ġc j
Ġc ed
Ġc ra
Ġc lac
Ġc ect
Ġc ass
Ġc rib
Ġc up
ar r
ar re
ar al
ar tion
ar ia
ar ters
ar ticulation
ar tifact
te e
te ly
te cted
te am
te lectasis
te tte
te ctable
le ast
le eting
le mma
le gmon
le iomyomatosis
Ġs m
Ġs s
Ġs un
Ġs ic
Ġs pac
Ġs tic
Ġs piration
Ġs lower
Ġs ling
Ġs ni
is is
is ent
is ilar
is ure
is otope
or ces
or dered
ti ing
ti ary
ti ch
ti tive
Ġn d
Ġn at
Ġn ut
Ġn no
Ġn eeding
Ġn icu
Ġn creased
Ġo t
Ġo derate
Ġo mental
en a
en tial
en ded
en tero
en han
en tie
en tified
en gorgement
as k
as ted
Ġl d
Ġl ac
Ġl ag
Ġl isting
Ġl uc
Ġl sc
Ġl isten
Ġl left
Ġl unar
Ġis not
Ġis mid
er on
er ate
er red
er ving
er ging
es d
es ema
Ġin tent
Ġin line
Ġin tim
Ġin tras
Ġin clin
Ġin clined
Ġin herent
Ġe le
Ġe at
Ġe min
Ġe ating
Ġe com
Ġe lec
Ġe physema
Ġe ye
Ġm ent
Ġm ph
Ġm og
Ġm olar
Ġm pro
ri ed
ri er
ri ent
ac o
ac ral
ac ities
ac ement
ac com
ac tions
ac tivation
Ġb a
Ġb us
Ġb ear
Ġb ad
Ġb iz
Ġb ump
Ġb right
Ġb ais
Ġb cg
Ġb ordered
un ky
us ible
il us
il um
il ia
il ib
il iary
il ators
il ovol
Ġw ears
Ġw ks
di al
di ac
di ation
di ment
di oid
di cual
di mer
ul are
ul ting
ul ates
om ly
om ities
om onary
om mend
om mere
Ġan teromedially
Ġan uer
tion ale
um othorax
Ġt v
Ġt as
Ġt ang
Ġt ine
Ġt ong
Ġt vr
Ġt ouch
Ġt apes
Ġt sicu
an y
an cies
ate ment
Ġh te
Ġh ost
Ġh owe
Ġh ub
Ġh int
Ġh ind
Ġh inder
Ġh arder
Ġare ation
id cated
Ġf t
Ġf resh
Ġf ading
Ġf na
Ġf leeting
Ġf isure
ic es
ic ult
ic ious
ic ty
ic olectomy
Ġri gth
Ġri ht
Ġcon cur
Ġcon vol
Ġcon clude
Ġcon crete
ing ently
ne o
ne ts
Ġpneum thorax
Ġd ance
Ġd ove
Ġd welling
Ġd umb
Ġd uly
Ġd ull
Ġd omed
Ġv c
Ġv ess
Ġv ital
Ġle f
Ġle nd
Ġle tharg
Ġwith ing
Ġthere is
ro ved
ro pneumothorax
ro lateral
ro yed
ro desis
ro iliac
ro phic
ra ion
ra dic
ra bly
ural ly
Ġlung fi
ou g
ou rable
Ġre op
Ġre tain
Ġre ab
Ġre inf
Ġre oriented
Ġre clined
Ġre developed
Ġre examined
Ġcardi over
Ġcardi ca
Ġcardi ologist
ent ing
Ġch es
Ġch st
Ġch urg
Ġch rac
Ġch orn
Ġch ori
Ġch ief
Ġch unky
ol a
ol ly
ol lection
ol ordotic
ol diation
Ġto w
Ġto x
Ġto le
ct al
em ergency
em tric
em phas
em bered
Ġlo cu
ax is
it c
it ined
it ations
it atively
Ġst albe
ast ating
Ġpneumo per
Ġpneumo hydro
Ġpneumo pathy
ter ing
ter val
ch on
ch er
ch otomy
ph ritis
ph ram
os n
os ities
os acral
Ġun m
Ġun n
Ġun its
Ġun cla
Ġun ited
Ġun ans
Ġun spec
Ġun chan
Ġun healed
Ġse lf
Ġse qual
be picardial
est amp
Ġnormal ity
ce pt
ce lain
Ġbe ll
Ġcons od
Ġcons erv
Ġcons tit
Ġcons itent
Ġcons isent
___ ).
im ilar
res ses
Ġcomp ly
Ġcomp ound
Ġopac it
Ġopac ify
ous ly
Ġde ple
Ġde clined
Ġsu pper
Ġsu ps
Ġsu bepicardial
Ġpro x
ema king
Ġlow e
Ġlow ered
Ġate le
Ġate ral
Ġatelect at
Ġsi ad
Ġat y
Ġat tes
Ġat rophic
at d
at n
at ri
at ted
at oin
Ġmil ldy
Ġen able
Ġen ema
Ġen velop
Ġen su
Ġen sued
Ġas ple
Ġas ked
Ġed ma
Ġed ena
Ġex em
Ġex ited
Ġex ophy
olid ation
Ġconsolid atin
oc iated
oc curred
oc ostal
oc ranial
og ged
Ġpos te
Ġpos ed
Ġpos tion
Ġpos ss
Ġpos text
ular ly
are a
ia m
ia ml
Ġcont ingently
Ġon t
Ġon y
Ġon cology
Ġon cological
op rol
Ġbas ic
Ġbas ial
Ġra m
Ġra tionale
Ġab lated
Ġheart s
Ġmo del
Ġev ar
Ġev entu
if ocal
ati zed
ud ar
ud ge
Ġradi ated
Ġradi cal
ten d
ten tially
iti mate
asc oliosis
ograph s
Ġinter se
Ġinter loc
Ġinter ference
Ġlower ing
Ġu rose
se gment
se ptal
Ġvolum inous
Ġmoderate cardiomegaly
vi ral
Ġpre cur
Ġpre dated
Ġpre valent
Ġpre intubation
Ġpre mature
Ġpre tty
Ġappear nace
li ar
li ation
li able
Ġim min
Ġim mo
Ġim complete
Ġim rpo
Ġover al
Ġover wh
Ġover time
Ġover yling
Ġover crow
ach able
ach ment
tr ates
tr ason
tr ascoliosis
Ġvi able
Ġvi olation
Ġlobe ectomy
Ġprocess ing
normal ity
ark ing
tip s
Ġfor ced
ay r
ay s
ges ted
Ġvascular ization
Ġca pped
Ġabnormal ies
Ġg ib
Ġg ag
Ġg ist
Ġg ath
Ġg old
Ġg rand
Ġg lad
Ġdis uc
Ġper in
Ġper domin
Ġper ception
ke ing
ad d
ad en
Ġposition ning
Ġposition ned
Ġli gh
Ġdi c
Ġdi v
Ġdi al
Ġdi et
Ġdi ure
Ġdi mun
Ġdi lemma
Ġdi chotomy
Ġap ro
Ġap lastic
ib ronchial
Ġwe lcome
Ġrem arkably
Ġrem embered
ag ly
ag ular
larg ement
Ġwh om
Ġwh ic
Ġwh olly
ant ly
Ġsub cl
Ġsub complete
Ġsub side
Ġsub cm
Ġsub lobar
Ġsub apical
Ġsub dural
Ġsub lte
Ġmid sternal
Ġint ub
Ġnot with
val vular
min us
Ġinf o
Ġinf la
Ġinf used
Ġinf rasc
ec es
cl ing
rem arkable
rem oval
ini g
ini zation
Ġcompar atively
ir t
ir y
ir regular
Ġ___. )
Ġlim a
Ġbut terfly
out patient
Ġimp r
Ġimp res
Ġimp erative
Ġimp lement
Ġimp ressing
Ġimp aired
Ġimp ession
Ġimp lied
Ġimp eded
aph oid
Ġhem icolectomy
Ġend oscopic
Ġ___, .
lac eration
Ġimpro per
ll ation
per sis
per haps
Ġwhich ever
Ġj an
Ġj ob
Ġj oin
ect atic
Ġcath ether
Ġsli g
Ġslight y
Ġair bronchograms
chy mal
gn ani
Ġob vi
Ġbibas ial
Ġbibas liar
no ted
clud es
Ġsh ot
Ġsh run
Ġsh irt
Ġpresent ations
ss ed
ss ion
Ġres ource
Ġbibasilar ly
termin ate
Ġtermin at
si te
si ella
Ġha v
Ġha ust
Ġref lec
Ġref lex
Ġrec eding
Ġrec overed
Ġrec ency
Ġrec tified
Ġpa use
pri m
pri t
Ġintersti t
Ġfin ds
Ġfin idng
Ġsign ature
Ġct u
lev oscoliosis
Ġtr v
Ġtr y
Ġtr aces
Ġtr ying
Ġcal ficiations
Ġdef lect
Ġdef omities
Ġaort ocaval
ur ance
ur ned
Ġexclud able
ist y
ist inum
Ġretro ca
Ġretro cardia
Ġretro cr
Ġretro pharyngeal
Ġsp asm
Ġsp litting
Ġendo esophageal
pan ied
one phritis
Ġsc rut
Ġsc alp
Ġsc aphoid
Ġass isted
Ġass urance
age ous
Ġpost ulated
Ġpost cholecystectomy
Ġsuggest in
Ġclin c
lu p
Ġvascul ture
Ġpar s
Ġpar achy
Ġpar ane
Ġpar itally
qu ential
ex istent
ex clude
Ġsim lar
Ġpicc s
Ġsuper o
Ġsuper vis
Ġsuper omedial
Ġvis cer
Ġsimilar ity
Ġnod u
Ġreg row
Ġreg ained
Ġreg ress
ab d
ab normality
Ġmul ifocal
Ġac s
Ġac tiv
Ġac ount
Ġpac emaking
Ġk leb
Ġk ilovol
Ġk ommere
Ġte re
Ġte aring
Ġte lphone
Ġexten tion
Ġapical pneumothorax
ys m
ys ician
Ġintra procedural
Ġintra thorac
Ġintra pericardial
Ġintra bdominal
Ġar te
Ġar ri
Ġar ison
Ġar ticular
Ġar ge
Ġar ray
Ġar ises
Ġar yten
la e
Ġdiff ers
Ġprov es
Ġprov ing
Ġbronch od
stan tially
Ġhyper in
Ġhyper vascular
Ġhyper aeration
Ġhyper kyph
Ġhyper volemic
Ġcor ner
Ġappropriate ness
el ine
el ming
Ġvisual izing
Ġ3 2
Ġ3 7
Ġ3 40
Ġver ification
men ded
men sur
Ġear ring
Ġrecom end
Ġrecom ended
Ġrecommen ding
ication s
Ġsubstan tive
ven ess
Ġmedi o
Ġmedi obasal
Ġunder way
Ġunder standing
Ġunder lined
Ġbet we
Ġimprov ment
Ġset s
Ġset tled
and omly
Ġassess es
Ġabd uction
Ġperi thoracic
Ġperi operative
Ġperi esophageal
Ġperi articular
Ġperi pros
Ġsupp uration
Ġsupp ose
Ġsupp lied
ens ation
Ġeng orem
Ġeng larged
Ġscar city
Ġloc ates
Ġloc ulus
Ġpres cribed
Ġdr y
Ġfol lic
Ġi od
Ġi increased
Ġrelev ance
ior rh
rec ommend
Ġeval ution
Ġevalu ates
Ġang els
Ġscarring s
Ġstand s
Ġcol ore
Ġcol lim
Ġcol apse
Ġstandard s
Ġrel atives
Ġgrossly clear
Ġhe at
Ġhe ating
Ġhe avin
Ġtrache itis
Ġtrache otomy
Ġcontinu um
Ġabdomen al
Ġsugges tes
Ġpossib ily
Ġdra g
Ġdra wing
Ġemph esema
Ġnodule w
Ġloss es
Ġemphysema tic
Ġapproxim ated
Ġbl and
Ġthick ens
Ġdisc s
Ġdisc ount
Ġcours ed
Ġdete cet
Ġgre en
mo le
mo ary
Ġcompres s
Ġcompres ses
Ġ4 9
Ġtele sc
Ġtele lphone
Ġdes his
Ġdes cribing
Ġadv ising
Ġmultiple bilateral
Ġconf usion
Ġconf ound
Ġobscu raion
Ġdens est
Ġsti r
Ġsti dy
Ġqu arters
Ġhi ps
Ġesoph ageous
to id
Ġij l
Ġfur there
Ġins titial
Ġins ters
Ġins tituted
Ġins piss
led ge
Ġfi dicual
Ġcomb i
Ġadvan ces
Ġaer odi
up on
Ġremoval s
Ġaddition aly
ack ets
Ġhern iorrh
Ġpig tailed
Ġess ence
Ġlay ing
Ġhernia e
Ġdeform ation
Ġco in
Ġco de
Ġco herent
Ġco bble
tim ized
Ġback up
Ġappreci ation
Ġesophag opleural
Ġlymph o
Ġlymph no
Ġlymph oprol
ho f
Ġfeeding s
Ġtrans cribed
Ġtrans section
Ġtrans port
de creased
cle rotic
Ġval uable
ill ar
Ġassessment s
Ġsus pen
od esis
Ġtim estamp
Ġtim eline
Ġtime ly
st one
st rating
st ability
st omies
Ġfiss ur
Ġnon surgical
Ġnon cav
Ġnon visualized
Ġnon bacterial
Ġnon obstructed
Ġnon standard
com ing
com bin
pect us
Ġpect um
Ġcla vical
Ġhyp e
Ġhyp oph
Ġhyp ovascular
Ġold est
Ġmin mal
Ġmin eral
oscle rotic
Ġdisten d
Ġdisten stion
Ġph ases
Ġph sy
Ġph legmon
Ġ6 1
Ġshi ley
Ġdeg een
Ġreflects ing
comp arison
comp atible
Ġel icit
Ġpasses into
Ġdil ute
Ġgranul ation
Ġpredomin an
Ġpredomin ated
Ġheterogen eities
Ġperic ystic
Ġpul s
Ġpul onary
Ġpul noary
Ġpul moary
Ġtw entie
Ġling s
Ġling ual
Ġfib roid
Ġfib roma
Ġfib ers
Ġhel d
Ġhelp ed
Ġdist urbed
Ġinferior most
Ġind entified
Ġexce ed
Ġrepe titive
Ġmal aligned
Ġmal aria
Ġded idcated
Ġx rays
erex panded
Ġheal th
Ġax ially
Ġax iall
Ġmulti chamber
Ġmulti vessel
Ġlimit ted
Ġgen esis
rat rial
rat ory
def inition
Ġ8 32
Ġup to
Ġup grade
Ġup coming
ula e
ula ized
io leiomyomatosis
ose ptal
Ġ11 4
ap ing
ap ital
Ġapic olordotic
Ġstu di
tern a
Ġtra ined
Ġspec ies
Ġspec ially
Ġ7 1
Ġ7 2
Ġgas tic
Ġspecific s
Ġgast ritis
Ġgastro esophagectomy
Ġgastro entero
Ġ9 40
Ġ9 30
Ġ9 35
agn ed
Ġmalign ancies
Ġobli gate
Ġobli gatory
sc opy
Ġoste al
Ġtre atement
Ġav n
Ġser um
Ġser ous
Ġser ving
Ġser pent
Ġser ositis
Ġben ds
Ġvena e
Ġ12 0
Ġgener ated
zyg os
Ġdoes n
demon strating
Ġbronchiect ases
Ġes rd
Ġdirect ing
Ġinc res
Ġinc aps
Ġinc onse
Ġdecomp ress
Ġdecomp ressive
Ġem erging
trac er
Ġmeas urable
Ġbeneath e
Ġtraum atized
Ġending s
Ġpath ogn
Ġsee en
Ġpattern s
ha ve
ha ir
ha zy
Ġsitu ations
Ġsuggestion g
Ġpla usible
Ġbi te
Ġbi pical
Ġbi asilar
Ġ( "
Ġ( ?
Ġ( >___%)
Ġman aged
Ġoc ular
Ġoc clude
Ġoc ollection
Ġquestion ned
Ġarteri ovenous
Ġweek end
Ġyesterday s
Ġoff line
Ġinser ting
Ġatten ded
Ġbul l
Ġir on
Ġir rit
Ġsy mp
Ġconspic ous
Ġwire like
pneum omediastinum
Ġcho ose
Ġinj ured
Ġsens ation
Ġpleu ritis
Ġdex trascoliosis
Ġevent ation
Ġcholecys titis
Ġread vanced
Ġsymptom matic
Ġhemo diaphragm
Ġcaliber s
Ġtuber cle
Ġtuber osities
Ġtransverse ly
Ġsys tolic
Ġsuprac la
Ġsuprac ervical
Ġsupraclavicular ly
Ġaccount able
Ġpleura e
Ġwar t
Ġcephal id
Ġcephal isation
Ġcross ed
Ġbypass ing
sh ould
sh oulder
sh rapnel
Ġ- ___
pe utic
Ġhema to
Ġaltern ating
Ġdiscre et
Ġsuspicion s
ors es
Ġr t
Ġr ated
Ġr andomly
Ġpl ans
Ġtor n
Ġatt ack
Ġek os
Ġru ptures
Ġru diment
Ġstri dor
Ġhypo venti
Ġhypo trophic
Ġhypo chrond
ob bhoff
ob ronchial
Ġcardio diaphragmatic
Ġgaseous ly
Ġfiduc ious
Ġfiduc iary
Ġfav oured
fil tration
Ġdimin eralized
pro jection
Ġpotential y
Ġtri ed
Ġtri gger
Ġtri vial
Ġtri furc
Ġtri mester
Ġmor gnani
lim ited
Ġrest ri
Ġble nd
Ġble nding
Ġepic ardium
Ġpri o
Ġpull monary
Ġam out
Ġflex es
Ġflex ures
ribut ing
Ġmuc osa
dis coid
Ġten odesis
Ġthera peutic
Ġarth rosis
Ġarth ritic
Ġarth rodesis
bo und
bo chdalek
Ġcall ing
duc ible
Ġimpl ications
Ġsecu res
vis ible
Ġke y
Ġsepar ates
Ġstimul ate
Ġretrosternal ly
Ġcosto chrond
Ġcxr s
Ġelect rical
-___ -
-___ ),
mid line
pre tation
Ġevol ve
Ġwet read
Ġsty le
Ġlater l
Ġinform s
Ġstabil izes
right ward
Ġintrodu ce
Ġfilter s
Ġthin ned
Ġneoplas ms
Ġlumen al
.. .
Ġpel ural
Ġret ration
Ġul na
Ġul nar
Ġul trason
Ġlack s
Ġaff ective
Ġlymphang ioleiomyomatosis
Ġbil ater
Ġbil basilar
Ġcoales ces
Ġyear ly
assess ing
Ġdetermin es
Ġdetermin ations
Ġsuccess ion
Ġslow ed
appear s
Ġdest royed
Ġus b
Ġdiagnos tically
Ġtric ameral
Ġtric kle
Ġperipher ies
Ġnaso esophageal
Ġrule s
Ġdepic ting
10 0
Ġsuff ice
Ġsuff ered
Ġprec ision
Ġpleuro scopy
Ġpe pper
Ġpe umonia
Ġbar ometer
Ġtemp late
Ġune ven
Ġlob us
Ġ20 0
Ġ20 1
Ġmed ically
Ġmed astinal
Ġdors olateral
Ġshe ll
Ġcyst gast
end otracheal
Ġventricul omegaly
Ġcystic ercosis
Ġpercutaneous ly
Ġden isty
Ġreticulon udar
Ġtent atively
Ġradio isotope
Ġradio tracer
iod ol
Ġmen tion
Ġbrid ged
Ġscapular is
Ġnum bering
Ġepi phrenic
Ġfavor able
Ġexpan sive
Ġbro chi
Ġassist ance
Ġhyperd istention
Ġmyel ocytic
Ġprodu ction
Ġunilateral ly
Ġdiscern ing
ject ing
Ġqual ities
Ġqual itatively
Ġfac ial
Ġligament ous
effusion s
Ġcontig uity
Ġfibro aden
Ġmagn ifying
Ġintrac ell
Ġile oce
Ġvariant s
Ġrepres nt
Ġdepartment s
Ġacce pted
Ġplan ning
Ġsheet s
Ġtran section
inter vention
inter pretation
Ġterm ian
Ġur inary
Ġcontribut or
Ġavoid ing
cir cular
Ġinterf ac
Ġipsilateral ly
Ġadj ust
Ġflo ating
Ġfl ushing
function ing
Ġconne cts
Ġcollect s
Ġsublu x
Ġsequen tially
Ġcervic omediastinal
ortun istic
Ġbulk ier
Ġsubc apital
Ġperson ally
Ġbullet s
Ġprefer able
gra ft
gra ms
Ġleak s
Ġleak ing
Ġtrack ed
Ġmandi bular
Ġpur ported
Ġste ak
Ġcontralateral ly
hy p
hy mal
Ġstate ment
Ġappend ectomy
Ġeas iest
Ġbegin s
Ġent ailed
Ġpan nus
Ġcongen stion
Ġacqu iring
Ġperibronchi ectatic
Ġverb al
Ġbenef its
Ġacquisition s
Ġeg a
Ġeg d
Ġcommin ute
Ġsupra renal
Ġ" ___
Ġcy tology
Ġcy cling
Ġrefe lect
Ġpericardi ophrenic
Ġide a
Ġservic es
Ġloose ly
Ġdiscl osed
ins piratory
Ġmalposition ned
Ġstrad dle
Ġnephro lithiasis
Ġnephro stomies
Ġmat uring
Ġund o
Ġcre atin
Ġproble matic
ocon centric
Ġinte ratrial
Ġtransfusion s
Ġneuro fib
Ġlevocon cave
Ġpt ld
Ġsac roiliac
Ġmenis cal
Ġeosinoph ilia
Ġmetal ic
omp ensation
Ġhemidi ag
Ġhemidi ap
Ġhemidi phragm
Ġprac tical
Ġbra f
ress ant
Ġgu ided
Ġgu aran
Ġadm ixed
Ġoverlay s
Ġord inarily
ata ion
Ġintersiti tal
Ġsen sible
Ġsen gst
Ġleuk ostasis
Ġknow ledge
post obstructive
Ġventral ly
Ġjustif ies
Ġhemidiaph gragm
Ġhemidiaph rgam
bronch ovascular
he terogeneous
Ġisol ation
Ġchem ical
Ġrul ing
Ġcircumferen tially
volum es
Ġconstell ations
Ġinfra hepatic
Ġsurp rise
col on
sub carinal
Ġlate ra
Ġprof use
Ġpeak s
Ġter tiary
Ġpermit ted
with out
Ġcount our
Ġdegra ding
Ġdiverticul i
Ġdiverticul osis
charac terized
Ġinstrum ented
Ġassymetric ally
Ġoverex pansion
Ġantero basal
Ġantero inferior
Ġsill hou
Ġpill ar
Ġreoc curring
Ġnotch ing
ull ar
Ġfla ir
Ġopacif iation
Ġopacif cation
Ġelimin ates
Ġelimin ating
po or
po tentially
techn ical
Ġadhes ive
Ġsuperf icially
Ġsyn ostosis
Ġsyn pneumonic
form ing
Ġsept ae
Ġmot tling
Ġpalp itations
med ical
Ġbr ackets
Ġoverly ies
Ġdiaph gram
Ġdiaph yseal
Ġdiaph grams
Ġflank s
Ġconglomer ates
Ġpne momediastinum
Ġrecumb ency
Ġmanag er
Ġimmunosupp ressant
Ġnotic ing
Ġenh ances
bil at
Ġconstr uction
Ġdeterior ates
Ġclot s
Ġclot ting
Ġreconstruction s
Ġpulmon ale
Ġpulmon ayr
Ġcr ural
Ġleg itimate
Ġconstitu ted
Ġconstitu tes
Ġopaciti e
Ġfunctional ity
Ġassuming ly
Ġreint ubation
Ġdev oid
Ġdev astating
Ġpartic urally
Ġoperation al
Ġrheum atic
Ġconstruct s
acy toma
Ġconcav ities
Ġload ed
Ġpair s
Ġcoll ab
Ġpor celain
oste oly
trans lucent
Ġtechni qe
Ġsclero sing
Ġsclero therapy
Ġsyndesm osis
Ġsl udge
Ġunch anging
Ġunch agned
Ġupt urned
Ġdiast ole
Ġresp resent
Ġpoly cystic
Ġspecial ized
Ġinterpret ability
Ġpassive ly
iv ary
Ġom olateral
Ġbow s
ĠĠĠĠ ĠĠĠĠ
Ġtracheobronch itis
kin ked
Ġcommunic ating
Ġ#___ .
nodular ity
wors ened
Ġbac ground
Ġbac teria
Ġfit ting
Ġvast ly
bet ween
Ġsilhou tette
Ġprevi oius
Ġbutt ress
Ġcarry ing
expan ding
Ġdiscrimin ation
Ġstim ulated
Ġphenomen a
Ġmalfunction ing
Ġmanipulation s
ht ough
Ġsal t
Ġsal ivary
Ġsilou ette
Ġexer ts
Ġdisk itis
Ġpersis ent
Ġpersis ient
Ġ33 0
Ġsubsegment s
Ġunfav ourable
Ġchilai ditis
Ġfortuitous ly
-- ?
cor onary
cor respon
vol ved
Ġindependent ly
Ġconver sion
Ġdro pped
Ġdem om
Ġdem ented
Ġbelong ing
Ġsilic osis
Ġmodi fication
Ġga ve
Ġresist ant
pig tail
Ġmedias tian
Ġsupplement ing
Ġsupplement ary
possib ility
Ġillustr ate
Ġillustr ates
hydro pneumothorax
Ġ__ ___.
Ġbuck y
Ġornament s
Ġunre liable
Ġunre achable
Ġasym teric
Ġasym emtric
Ġregular ly
Ġhypertrans lucency
Ġhypertrans parency
Ġ43 8
Ġpulm nary
prob able
Ġlymphangi ogram
Ġdecision s
hr ct
Ġtribut ary
lymph angitic
Ġvas ogenic
Ġvas cual
Ġexl cu
Ġposteri oly
Ġspoon s
examin ation
Ġtes ted
Ġbronchio lectasis
Ġindicator s
Ġslighly t
Ġtortous ity
Ġtransfix es
cn aged
cn hymal
por cine
ug al
under penetration
Ġaspi artion
Ġreced ed
Ġrecomm nded
Ġ41 4
Ġtriang le
pericardi tis
bre ast
eff ect
Ġace tab
rep lete
rep orted
Ġefusion s
acrom ioclavicular
Ġtap ing
Ġfx s
Ġda hbo
Ġuninter rupted
Ġdismiss al
Ġperis ternal
Ġsubm uscular
Ġaorto iliac
Ġcalcif ed
Ġcalcif cations
Ġscaff olding
Ġarc s
Ġreloc ate
Ġreloc ation
Ġreloc ated
Ġshiel ding
Ġneu ropathy
Ġ75 1
Ġ75 8
Ġpaget oid
cons ider
Ġrequirem ents
Ġencoura ge
Ġencoura ging
Ġencoura gement
Ġrecons idered
Ġrecons titution
Ġtight ness
Ġrender s
contusion s
Ġforeshor tened
bul lectomy
gragm atic
sor ption
Ġavi dity
Ġpare chymal
Ġpare cnhymal
Ġpop ulation
Ġpure ly
Ġincre ment
Ġtl c
Ġhar bors
Ġder mal
Ġrew arding
Ġopaci ites
Ġatelectas i
Ġtub ulation
Ġrati os
Ġradiogr ph
Ġradiogr pah
Ġupp per
Ġcadi opulmonary
Ġcadi omegaly
Ġdisorgan ized
Ġweb site
Ġimpair ment
Ġrepro duced
Ġsugg sted
Ġapprox iam
Ġrecommed ed
Ġunderstand ably
Ġinstal led
Ġveiw s
pseud otumor
Ġcoun ters
Ġexager ated
Ġ84 5
Ġtrabe cula
Ġeffu ion
Ġeffu ison
Ġaffor ds
Ġprecip itating
hyper tension
hyper inflation
Ġbraid s
Ġtib ial
Ġlamin ated
Ġcorrobor ate
Ġlymphadenop thy
Ġlymphadenop ah
Ġexertion al
Ġrecrudes cence
fract ure
bon y
ser ous
sarcoid osis
Ġaor tich
Ġaor itc
Ġaim ing
Ġcul prit
Ġcow den
Ġcow dens
Ġstead ily
Ġmar fan
Ġbib ibasilar
Ġbib isilar
Ġtro phic
Ġtro uble
Ġreen ters
Ġreen tering
Ġunin volved
Ġasc itic
Ġbasil r
Ġbasil ary
Ġfrac ut
Ġfrac uture
Ġuter us
Ġuter ine
Ġoverlo ok
Ġoverlo oked
Ġforce ps
Ġger d
Ġger m
Ġgarment s
Ġreform atted
Ġpersisten ly
Ġclou ding
Ġclou ded
Ġbox es
Ġlocul ared
Ġcollateral s
Ġtransvers es
Ġtransvers ing
Ġ74 7
Ġlumb operitoneal
Ġlumb osacral
Ġemp loyed
Ġsym etric
Ġsym etry
confir m
confir med
Ġencroach ing
Ġfistul ogram
corre lation
corre late
Ġgau ged
Ġgau zes
Ġ(#___ )
Ġsubscapular is
60 1
car ina
cost ophrenic
docum ents
hi atal
nur se
tortu ous
Ġarot a
Ġcs f
Ġcance lled
Ġsn ap
Ġoth wer
Ġove res
Ġeth iodol
Ġeffus io
Ġequ ilib
Ġmom ent
Ġmag nets
Ġbout s
unc iton
Ġfen estration
Ġredist ribute
Ġchy lous
Ġbeha ving
Ġcompu ter
Ġcompris ing
Ġdecl are
Ġprog ess
Ġprola pse
Ġatelecta iss
Ġcardiome agly
Ġcardiomed istinal
Ġcardiomedias tial
Ġenfor ced
Ġextr uded
Ġabn orm
Ġradiogra h
Ġalth oug
Ġsubdiaph gragmatic
Ġjo ins
Ġclam ps
Ġaddit onal
Ġspect rum
Ġcostro phrenic
Ġcostoph enic
Ġemphys em
Ġbloc ker
Ġroto levoscoliosis
Ġrope y
Ġinfilter ates
Ġassoci atd
olith s
Ġaccommo dates
Ġswit ched
Ġswir ling
Ġpheum onia
Ġphleb oliths
Ġdilat ations
Ġcomplain ing
Ġindis crete
intra thoracic
Ġ83 1
Ġpronou ced
Ġopc ities
Ġparatrach al
Ġplasm acytoma
project s
Ġamput ation
Ġambig uous
Ġpyel onephritis
multi loculated
Ġlevosc oliotic
Ġquantit ate
supp ort
Ġcryptococ cal
Ġthrombocytop enia
Ġdebil itated
Ġinhib its
Ġvolun es
Ġautom atic
obliqu ed
Ġcocci dioid
Ġsubcutan e
Ġcommand s
Ġstret cher
Ġparadox ically
Ġstaphylococ cus
Ġconstraint s
Ġovercirc ulation
Ġmidhemi thorax
Ġsporadic ally
core valve
dil atation
dec ompensation
fron tal
fist ula
fiss ure
gleno id
muc ous
opp ortunistic
pla ques
sw an
Ġral es
Ġamal gam
Ġausc ult
retrac tion
Ġthic keing
Ġthry oid
Ġpun ched
Ġpedi atric
Ġparent s
Ġclac ified
Ġcass ette
Ġcrib riform
Ġstic ker
Ġsni ff
Ġnat ural
Ġnut rient
Ġlac ed
Ġlsc a
Ġintras pinal
Ġinclin ation
Ġemin ence
Ġmog ul
Ġmpro ved
accom panied
Ġbiz arre
Ġanuer ysm
Ġtong ue
Ġletharg y
Ġlungfi eld
Ġreop ening
Ġreab sorption
Ġreinf orces
Ġcardiover sion
Ġchorn ic
Ġchori ocarcinoma
emphas izing
Ġlocu ated
Ġpneumohydro thorax
Ġuncla mp
Ġunans wered
Ġunspec ified
Ġunchan ed
Ġsequal ae
Ġconsod liation
Ġconserv ative
Ġconstit uting
Ġdeple ted
Ġsups icious
Ġattes ting
Ġensu ing
Ġasple n
Ġexophy tic
Ġposss ible
Ġpostext ubation
Ġeventu ration
Ġinterse ct
Ġinterloc king
Ġurose psis
Ġprecur sor
Ġimmin ent
Ġimmo bility
Ġimcomplete ly
Ġoverwh elming
Ġovercrow ding
Ġgib bus
Ġgath ered
Ġgold en
Ġglad ly
Ġdisuc ssed
Ġperdomin antly
Ġdiure tic
Ġdimun ition
Ġintub ate
Ġnotwith standing
Ġinfla med
Ġinfrasc apular
persis tence
Ġshrun ken
Ġfinidng s
Ġretroca diac
Ġretrocr ural
Ġparachy mal
Ġparane oplastic
Ġsupervis or
Ġviscer a
Ġregrow th
Ġkleb siella
Ġkilovol tage
Ġkommere ll
Ġintrathorac ically
Ġaryten oid
Ġbronchod ilators
Ġhyperkyph osis
mensur ate
Ġbetwe een
Ġperipros thetic
Ġengorem ent
recommend ation
Ġcolore ctal
Ġcollim ated
Ġheavin ess
Ġdetecet d
Ġtelesc oping
Ġinspiss ated
Ġaerodi gestive
Ġherniorrh aphy
Ġcobble stone
Ġlymphoprol iferative
Ġsuspen ded
combin ation
Ġdegeen rative
Ġtwentie th
Ġaxiall ary
Ġgastroentero stomy
Ġserpent ine
Ġincaps ulated
Ġinconse quential
Ġpathogn omic
Ġsymp ath
Ġrudiment ary
Ġhypoventi latory
Ġhypochrond riac
Ġtrifurc ation
Ġcostochrond ral
Ġultrason ography
Ġcystgast rostomy
Ġintracell ulare
Ġileoce cal
Ġtermian tes
Ġneurofib romatosis
Ġguaran tee
Ġsengst aken
Ġhemidiaphrgam s
osteoly sis
correspon ding
Ġmediastian al
Ġacetab ular
Ġdahbo ff
Ġlymphadenopah ty
Ġequilib rating
Ġcoccidioid omycosis
" )
" ,
" ).
' ;
' ll
) ;
) ___
, '
, ___
, ___,
. -
. \
/ ___.
/ ___,
0 2
0 3
0 9
1 4
1 6
1 8
2 3
3 8
4 5
4 6
5 3
5 4
5 5
7 25
; ,
; ___,
= .
? ___
] .
_ .
a j
a un
a ul
a gh
a ural
a mon
a ent
a it
a pac
a ity
a der
a ver
a ort
a ities
a vi
a ise
a eral
a ial
a ited
a dic
a thoraces
a ware
a esophageal
a olumbar
a ord
a edic
a ht
a ulted
a qe
a plastic
a esd
a dial
a icty
b b
b c
b or
b en
b um
b ro
b at
b ia
b all
b ur
b tan
b ution
b ust
b ulation
b oid
b roplasty
b ital
b uted
b hof
b aord
c ti
c an
c ra
c it
c ast
c tic
c omen
c usion
c ulated
c ran
c itis
c arc
c pon
c oscopy
c art
c lectasis
c ale
c oplasma
c rest
c overtebral
c tible
c apular
c icult
c ociated
c oconcentric
d l
d ly
d ro
d ex
d ys
d ule
d up
d gment
d ense
d ge
d ging
d off
d onary
d atabase
d astinal
d obbhoff
e y
e tion
e ate
e mal
e ft
e res
e cu
e op
e ten
e ps
e quent
e equ
e pidural
e ons
e ressive
e pig
e iror
e picardial
f u
f y
f ed
f en
f ung
f em
f et
f at
f iti
f ragm
f ect
f sion
f inite
f renic
f ail
f eeding
f inal
f lat
f av
f iduc
f ive
f old
f icial
f ortunately
f usc
f ection
f inger
f aco
f unciton
g g
g r
g s
g y
g in
g ar
g un
g ion
g ne
g ous
g asis
g ated
g ant
g ue
g ates
g atic
g ran
g ge
g lobular
g yne
g gestion
g yn
g aus
h d
h or
h er
h ter
h ous
h anged
h ative
h ern
h age
h and
h ysema
h umer
h old
h omogen
h igh
h tly
h oneycom
h ila
h eld
h umoral
h ings
h lar
h cial
h angitic
h ilum
h cnaged
i j
i y
i ar
i en
i ac
i ate
i ff
i ft
i ilar
i oc
i ric
i ant
i ration
i ating
i ately
i oma
i ple
i olateral
i infiltrate
i ologist
i monia
i osal
i astinal
i diaphragms
i ditis
i ratory
j is
k l
k al
k ated
k ay
k dal
k ie
k any
l il
l ary
l ct
l ch
l ble
l ity
l ati
l act
l ded
l ative
l ist
l ater
l ider
l ator
l aring
l tly
l oss
l lent
l atively
l unar
l asix
l monary
l trate
l cusion
m ar
m es
m us
m em
m ax
m org
m ak
m ial
m ill
m uch
m eas
m arrow
m ergent
m egally
m ember
m pus
m osa
m rn
m pah
m iliary
m mended
m iric
n h
n u
n x
n ation
n est
n ediastinal
n ow
n not
n ard
n sive
n ages
n ically
n umerous
n derness
n sip
n onary
n uemonia
n largement
o y
o es
o ac
o ate
o ft
o ast
o ated
o derate
o ided
o acic
o vel
o ial
o athy
o iled
o ression
o chondral
o xic
o omegaly
o resis
o hydro
o agul
o erate
o zygos
p g
p ation
p ulmon
p ast
p ous
p ared
p ine
p ag
p eg
p tic
p ance
p ration
p ist
p age
p ath
p ens
p itus
p aring
p unct
p nd
p aged
p ull
p inous
p rical
p na
p cial
p fts
p timized
q aph
q ested
r f
r le
r ul
r tion
r ate
r ural
r ang
r se
r ine
r ue
r no
r si
r tro
r wise
r cardiac
r ring
r aces
r ately
r oring
r ater
r rent
r tem
r ning
r pe
r angular
r ximately
r pation
s d
s v
s on
s te
s ti
s il
s ly
s ent
s em
s ve
s oc
s if
s li
s cess
s ified
s rib
s ides
s pread
s tern
s itis
s ry
s hed
s king
s nt
s ource
s ensitive
s af
s aber
s kin
s ais
s ae
s bly
s loping
s cured
s imilar
s ays
s clerotic
t b
t l
t n
t t
t us
t ter
t ting
t pi
t tle
t ution
t atus
t ub
t ypical
t ace
t old
t avr
t phrenic
t uck
t argeted
t ng
t ogenous
t bral
t lty
t ave
t aco
u th
u ar
u ate
u ent
u it
u os
u ve
u age
u ide
u ys
u ating
u tious
u icated
u fact
u rating
u cting
u ym
u astinal
u volemic
u fl
u fsion
u qested
v d
v v
v re
v or
v an
v ly
v ation
v able
v ag
v ist
v age
v ts
v chi
v bly
v hd
w n
w s
w et
w ould
w ide
w sc
w ired
w arded
x n
x ity
x isting
x oma
x ious
x yph
x iphoid
y cl
y mph
y el
y pe
y cal
y chi
y dro
z tion
z ens
z zy
z iness
z ie
Ġ [
Ġ _
Ġ `
Ġ il
Ġ gh
Ġ ural
Ġ ulmonary
Ġ ia
Ġ ilateral
Ġ entric
Ġ ult
Ġ ides
Ġ ),
th in
th lete
th ood
th ym
th ope
th mus
Ġa h
Ġa o
Ġa ac
Ġa il
Ġa ro
Ġa are
Ġa li
Ġa ure
Ġa chy
Ġa unt
Ġa ymmetric
Ġa zy
Ġa ma
Ġa veolar
Ġa level
Ġa the
Ġa venous
Ġa tium
Ġa atelectasis
Ġa acute
Ġa of
Ġa mall
Ġa rit
Ġa rose
Ġa wire
Ġa htough
Ġa iration
Ġa kl
Ġa thlete
on ly
on egaly
on ction
on tracheal
on gest
on red
on ry
on clusive
on ts
on dering
on chi
on gested
on ball
in is
in ly
in et
in ted
in ement
in str
in dist
in st
in ness
in tig
in cluded
in erior
in dering
in lf
in ococ
in volving
in omycosis
in terminate
re ate
re ne
re ach
re gn
re tained
re ized
re tension
re atment
re positioned
re pe
re active
re activation
Ġth w
Ġth ar
Ġth ing
Ġth se
Ġth ugh
Ġth read
Ġth rid
Ġth oacic
al f
al s
al an
al ic
al im
al most
al arged
al idation
al isis
Ġp g
Ġp k
Ġp ti
Ġp ed
Ġp um
Ġp oc
Ġp ati
Ġp ine
Ġp ric
Ġp vc
Ġp so
Ġp lated
Ġp atic
Ġp ior
Ġp ub
Ġp urg
Ġp ancy
Ġp orted
Ġp ep
Ġp arency
Ġp pacity
Ġp arge
Ġp pm
Ġp pneumo
Ġp eck
Ġp hot
Ġp olic
Ġp achy
Ġp gi
Ġp bilateral
Ġp ouching
Ġp da
Ġp arking
Ġp ysician
Ġthe s
Ġthe et
Ġthe hilar
Ġthe lead
Ġthe lung
Ġthe junction
Ġthe cal
Ġthe interval
Ġthe appropriate
Ġthe previously
Ġthe superior
Ġthe endotracheal
Ġthe carina
Ġthe costophrenic
Ġthe swan
Ġc f
Ġc is
Ġc as
Ġc ne
Ġc our
Ġc oul
Ġc ric
Ġc val
Ġc vic
Ġc ove
Ġc side
Ġc icu
Ġc ute
Ġc cardiomediastinal
Ġc inder
Ġc ured
Ġc inical
Ġc nnot
ar a
ar i
ar ic
ar ly
ar ch
ar at
ar tial
ar ag
ar ative
ar acheal
ar ized
ar ring
ar teri
ar rh
ar ray
ar ious
ar iably
ar ish
ar ision
ar ietal
ar sity
ar inization
ar nx
te l
te in
te le
te en
te ing
te ne
te ra
te ch
te rical
te ered
te hr
te poraneous
te reized
le us
le id
le ted
le ison
le ep
le aned
le ased
le ptic
Ġs ed
Ġs ou
Ġs able
Ġs hou
Ġs oc
Ġs ine
Ġs ad
Ġs cl
Ġs oph
Ġs nal
Ġs ail
Ġs ond
Ġs ymm
Ġs teri
Ġs aint
Ġs amp
Ġs mild
Ġs outh
Ġs slight
Ġs mildly
Ġs erves
Ġs volumes
Ġs vts
Ġs zie
is o
is y
is ti
is ities
is land
is ties
is tioning
or o
or is
or us
or it
or thorax
or se
or ant
or ved
or min
or ative
or sion
or ably
or ig
or dic
or ies
or oscopy
or bi
or hood
or por
or oscopically
or lded
or thope
ti o
ti ed
ti om
ti ct
ti tif
ti ating
ti ail
ti oring
ti am
ti ray
ti uous
ti ors
ti ves
ti trypsin
ti veness
ti rpation
Ġn i
Ġn s
Ġn t
Ġn il
Ġn ct
Ġn ediastinal
Ġn ect
Ġn orm
Ġn to
Ġn erv
Ġn umeral
Ġn fil
Ġn tra
Ġn seen
Ġn teric
Ġn terstitial
Ġn sa
Ġn terval
Ġn fection
ed e
ed le
ed ged
Ġo ulmonary
Ġo thorax
Ġo cu
Ġo asis
Ġo op
Ġo tic
Ġo up
Ġo pt
Ġo curred
Ġo he
Ġo chron
Ġo acities
Ġo her
Ġo kay
Ġo tehr
en ent
en si
en sion
en cen
en ds
en cum
en ectomy
en dicular
en tivity
en rs
en largement
as ized
as ternal
as ases
as hed
as tium
Ġl l
Ġl ol
Ġl ang
Ġl ved
Ġl ass
Ġl oma
Ġl ame
Ġl ace
Ġl bo
Ġl ifted
Ġl nd
Ġl he
Ġl teral
Ġl ng
Ġl lungs
Ġl partial
Ġl fet
Ġl kie
Ġl ongest
Ġl ordic
Ġis is
Ġis un
Ġis no
Ġis rotated
Ġis enlarged
Ġis unchanged
Ġis stomach
Ġis cussed
Ġis otope
Ġis tatus
Ġis thmus
Ġno tion
Ġno at
Ġno consolidation
Ġno pneumonia
Ġno pne
Ġno previous
Ġno body
Ġno ptimized
Ġno soc
Ġno xious
Ġno titif
er x
er ne
er it
er its
er ha
er otic
er theless
er set
es p
es tive
es pec
es ident
es ma
es ternal
es cent
es iton
es enting
es cale
Ġin or
Ġin ear
Ġin ce
Ġin changed
Ġin der
Ġin if
Ġin tr
Ġin ding
Ġin cl
Ġin si
Ġin qu
Ġin ex
Ġin sis
Ġin vascular
Ġin imal
Ġin moderate
Ġin the
Ġin clusive
Ġin sip
Ġin stances
Ġin titial
Ġin ominate
Ġin trins
Ġin wards
Ġin gu
Ġin access
Ġin reased
Ġin graft
Ġin espec
Ġe o
Ġe in
Ġe en
Ġe an
Ġe pp
Ġe et
Ġe la
Ġe inf
Ġe ig
Ġe lo
Ġe eding
Ġe of
Ġe bs
Ġe hart
Ġe uvolemic
Ġm di
Ġm ro
Ġm ct
Ġm ast
Ġm ew
Ġm are
Ġm ort
Ġm ad
Ġm eg
Ġm ir
Ġm ature
Ġm ening
Ġm ys
Ġm ds
Ġm moderate
Ġm ile
Ġm old
Ġm pression
Ġm aded
Ġm poc
Ġm va
Ġm erit
ri di
ri ate
ri ct
ri able
ri ad
ri ds
ri pt
ri app
ri ef
ri omediastinal
ri lator
ri oial
ac s
ac le
ac ne
ac ol
ac centu
ac telectasis
Ġb an
Ġb ou
Ġb ud
Ġb se
Ġb ag
Ġb lac
Ġb ru
Ġb so
Ġb ab
Ġb sed
Ġb ill
Ġb ust
Ġb ween
Ġb ank
Ġb rac
Ġb row
Ġb copd
Ġb uri
Ġb np
Ġb sae
Ġb tl
Ġb uys
Ġb rief
un tion
un ing
un able
un ding
un taneous
un icated
un like
un ounced
un clear
un certain
un usual
un onia
un available
un osupp
un resolved
un iv
un kinked
un fortunately
us ly
us age
us sed
us sus
us pen
Ġof vascular
Ġof indeterminate
il ble
il iated
il ater
il lation
il idation
Ġw k
Ġw s
Ġw lung
Ġw ake
Ġw pr
Ġw wo
Ġw bc
Ġw thin
Ġw ondering
di um
di ff
di ol
di ct
di ce
di aly
di rac
di bular
di mension
di ties
di rection
di omegaly
ul s
ul im
ul at
ul ati
ul se
ul itis
ul operitoneal
ul omatous
ul omas
ul oplasties
ul thood
om g
om et
om ial
om pe
om ned
om uscular
om nary
om boid
om ozygos
Ġan i
Ġan t
Ġan ormal
Ġan ular
Ġan ten
Ġan aly
Ġan tic
Ġan ond
Ġan eed
Ġan tim
Ġan til
Ġan ode
Ġan opacity
Ġan indic
Ġan increase
Ġan aplastic
tion al
ral y
um es
um ing
um ent
um per
um atic
um entation
um operitoneum
um aral
Ġt f
Ġt p
Ġt in
Ġt ac
Ġt our
Ġt act
Ġt ard
Ġt ough
Ġt tern
Ġt lung
Ġt ors
Ġt mid
Ġt amp
Ġt ortun
Ġt rot
Ġt ons
Ġt again
Ġt cardiomegaly
Ġt umoral
Ġt var
Ġt dt
Ġt ki
Ġt tvr
Ġt jis
an ation
an at
an ut
an tic
an eur
an other
an terolateral
an asal
an titrypsin
gh off
gh ram
Ġand severe
Ġand left
Ġand has
ate re
ate ver
Ġh ung
Ġh ct
Ġh it
Ġh est
Ġh oc
Ġh ular
Ġh ay
Ġh eral
Ġh ides
Ġh ot
Ġh art
Ġh ital
Ġh iding
Ġh ronic
Ġh anging
Ġh that
Ġh orses
Ġh sd
Ġh tn
Ġh indering
Ġh ulim
Ġh omozygos
Ġh umaral
Ġare d
Ġare e
Ġare out
Ġare olar
Ġare clear
Ġare indeterminate
Ġare unchanged
Ġare extensive
Ġare collapsed
Ġare presumed
Ġare ola
Ġare noted
Ġare hyp
Ġare gion
Ġare latively
id ac
id ra
id aphragm
id ance
id line
id osis
id ually
id ua
id astinal
id ocranial
Ġf om
Ġf ati
Ġf ow
Ġf its
Ġf ss
Ġf ab
Ġf am
Ġf lec
Ġf use
Ġf cal
Ġf icu
Ġf fusion
Ġf ortunately
Ġf etal
Ġf nh
Ġf estive
Ġf riable
Ġf umes
mal positioned
ic a
ic ate
ic if
ic ities
ic ited
ic les
ic rob
Ġri be
Ġri ight
Ġri ghth
Ġri dging
ion s
ion eum
Ġcon e
Ġcon al
Ġcon os
Ġcon der
Ġcon cre
Ġcon ds
Ġcon ge
Ġcon cer
Ġcon verse
Ġcon ves
Ġcon ned
Ġcon cluding
Ġcon ni
Ġcon lf
Ġcon lcusion
Ġcon teporaneous
ff ler
Ġright s
Ġright convex
Ġright mediastinal
ne a
ne ous
ne cess
ne ction
ne oplastic
ne edle
neum othorax
Ġpneum at
Ġpneum ia
Ġpneum atic
Ġpneum omedi
Ġpneum omediastinal
Ġpneum omed
Ġpneum orthorax
Ġwi tan
Ġwi red
Ġwi ty
Ġwi tin
Ġwi ht
Ġwi ith
Ġwi rse
Ġwi uth
ly te
ly ng
Ġd l
Ġd s
Ġd z
Ġd in
Ġd ural
Ġd ent
Ġd ear
Ġd op
Ġd ur
Ġd gen
Ġd ues
Ġd end
Ġd osed
Ġd coiled
Ġd orso
Ġd vp
Ġd nlargement
Ġd ashed
Ġv d
Ġv q
Ġv it
Ġv ew
Ġv at
Ġv age
Ġv la
Ġv el
Ġv ps
Ġv ere
Ġv moderate
Ġv av
Ġv acu
Ġv ws
Ġle an
Ġle ural
Ġle stion
Ġwith a
Ġwith our
Ġwith the
Ġwith standing
Ġwith outh
Ġwith possib
Ġwith bibasilar
Ġwith da
Ġwith held
Ġthere in
ro th
ro ll
ro ur
ro esophageal
ro positioning
ro grade
ro thesis
ro gram
ro iditis
Ġeffusion m
Ġeffusion is
Ġeffusion ll
Ġeffusion no
Ġeffusion and
Ġeffusion has
ra ol
ra tr
ra ded
ra pleural
ra mid
ra iton
ra gam
ra filtration
ra gs
ardi zing
Ġple ual
Ġple aural
Ġlung is
Ġlung es
Ġlung moderate
Ġlung opacity
Ġlung cardiomegaly
ou es
ou ter
ou pleural
ou hette
ou rour
Ġre ion
Ġre ly
Ġre ol
Ġre ch
Ġre vious
Ġre per
Ġre ur
Ġre lying
Ġre la
Ġre vascular
Ġre read
Ġre draw
Ġre inflated
Ġre aerated
Ġre arding
Ġre nt
Ġre ive
Ġre establ
Ġre oss
Ġre visualization
Ġre developing
Ġre ev
Ġre xpansion
Ġre pers
Ġre jected
Ġre attempted
Ġre arr
Ġre cept
Ġre ducible
Ġre interpretation
Ġre kated
Ġre uqested
Ġre leased
mon or
mon ed
mon ally
mon ectomy
mon ium
Ġcardi c
Ġcardi og
Ġcardi ad
Ġcardi mediastinal
Ġcardi ologic
Ġcardi mediastinum
Ġcardi megally
Ġcardi onegaly
ent y
ent ral
ent ations
ation al
Ġleft and
Ġleft pleural
Ġleft ventric
Ġleft mid
Ġch k
Ġch ess
Ġch ss
Ġch ick
Ġch ages
Ġch ipp
Ġch arc
Ġch air
Ġch ip
Ġch ested
Ġch rn
Ġch eek
Ġch nages
Ġch rno
ary x
ol f
ol ded
ol ution
ol inear
ol dering
ol nary
ol iad
Ġto suspected
Ġto says
ct ated
ct atic
ct uating
thor x
ulmon ay
em e
em en
em ly
em it
em os
em ark
em oph
em nd
em cit
Ġlo er
Ġlo ve
Ġlo ated
Ġlo ass
Ġlo sing
Ġlo ses
Ġlo zen
Ġlo cual
Ġlo ffler
ax ce
ax ial
it ar
it or
it ve
it ates
it ment
it ution
it racheal
it ple
it rous
it ining
Ġst ad
Ġst aph
Ġst ren
Ġst ack
Ġst roma
Ġst alled
Ġst aging
Ġst bale
Ġst rang
ast atic
ast osis
ast ory
ast ases
Ġpneumo st
Ġpneumo cosis
Ġpneumo ina
Ġpneumo thora
Ġpneumothorax i
Ġpneumothorax x
ter tial
ter bral
Ġor ganz
Ġor ange
Ġor consolidation
Ġor significant
ang rene
edi al
edi te
edi ment
ch in
ch es
ch urg
ch rom
ch arge
ch aged
ch anging
ch anges
pp ear
pp age
pp osition
pp ying
pp ng
pp hal
pp roved
ph one
ph ase
ph eresis
ph yl
ph yseal
ph ysician
ph oresis
os h
os y
os ten
os qu
os up
os oliosis
os arcoma
os yn
os trates
Ġun ach
Ġun identif
Ġun tim
Ġun cle
Ġun read
Ġun like
Ġun ques
Ġun ca
Ġun inflated
Ġun des
Ġun aff
Ġun used
Ġun ventilated
Ġun seen
Ġun characteristic
Ġun resolving
Ġun diagnos
Ġun improved
Ġun question
Ġun cover
Ġun important
Ġun bal
Ġun suspicious
Ġun covering
Ġun cnaged
Ġun confirmed
Ġun accompanied
Ġun ben
Ġun covertebral
Ġun told
Ġun tied
Ġun encum
astin um
ear li
Ġpulmonary hypertension
ble b
ble xation
ble eding
Ġse at
Ġse atment
Ġse ek
Ġse lla
Ġse wing
Ġse gement
Ġse finite
Ġse vre
be l
be ll
est a
est ing
est ation
est ru
est omy
est rated
Ġnormal s
Ġnormal size
pac tion
ce tomas
ce pah
ve ly
ve ation
ve form
Ġcom at
Ġcom ens
Ġcom mm
Ġcom ma
Ġcom ap
Ġcom fir
Ġcom mensurate
Ġcom orbi
Ġbe ad
Ġbe ats
Ġbe eper
Ġbe cor
Ġbe verage
Ġbe aded
Ġbe lt
Ġbe aver
Ġcons pi
Ġcons tan
Ġcons ented
Ġcons ervation
Ġcons istence
Ġcons ulate
Ġcons ilation
Ġcons ulting
Ġcons oldiation
Ġcons tphrenic
Ġcons alidation
Ġcons ilidation
Ġcons oliad
Ġcons itution
___ ;
im s
im en
im ance
im ating
im pl
im etric
im itar
im paction
res ond
res ident
res piratory
res uscitation
res aed
res idua
Ġcomp at
Ġcomp osition
Ġcomp lement
Ġcomp osed
Ġcomp aired
Ġcomp etence
Ġcomp ete
Ġcomp from
Ġcomp ession
Ġcomp eressive
Ġcomp enent
Ġopac ir
Ġopac itis
Ġopac ties
Ġopac fic
Ġopac opacities
Ġopac aities
Ġopac icities
Ġchest s
Ġchest the
Ġde cre
Ġde pper
Ġde gn
Ġde orm
Ġde od
Ġde com
Ġde bhoff
Ġde xt
Ġde lin
Ġde clin
Ġde access
Ġde leted
cu e
cu ate
cu ature
cu bital
Ġsu e
Ġsu pi
Ġsu dy
Ġsu uro
Ġsu gested
Ġpro omin
Ġpro ab
Ġpro ces
Ġpro emin
Ġpro pose
Ġpro thesis
Ġpro gram
Ġpro hib
Ġpro ix
Ġpro cured
Ġpro unounced
Ġpro phyl
ema y
Ġlow lung
et ter
et ous
et oid
et sing
et ars
et oac
Ġate left
Ġate clectasis
Ġate lact
Ġate ctatic
Ġatelect l
Ġatelect sais
Ġsi r
Ġsi ill
Ġsi ggestion
asis e
Ġatelectasis s
Ġatelectasis are
Ġatelectasis and
Ġatelectasis com
Ġcardiom ge
Ġcardiom pulmonary
Ġcardiom nediastinal
Ġat n
Ġat s
Ġat ric
Ġat ru
Ġat tain
Ġat ortu
Ġat pical
Ġat ner
Ġat least
ew aht
Ġacu rately
at l
at y
at ral
at oma
at inal
at uring
at tered
at ases
at ry
at static
at rue
at neous
Ġacute pulmonary
Ġunchanged moderate
Ġunchanged the
Ġseen is
Ġmil k
Ġmil s
Ġmil li
Ġmil tifocal
Ġmil ld
Ġmild e
Ġmild f
Ġmild to
Ġmild ling
Ġmild pulmonary
Ġen zy
Ġen od
Ġen umer
Ġen chond
Ġen ostosis
Ġen physema
Ġen ng
Ġen thes
Ġen lar
Ġen eteric
Ġen chon
Ġen filtration
Ġen list
Ġen alarged
Ġen roll
Ġas o
Ġas eg
Ġas ss
Ġas si
Ġas so
Ġas dis
Ġas matic
Ġas retrocardiac
Ġas cend
Ġas well
Ġas cribing
Ġas pration
Ġas leep
Ġas cue
Ġsil ho
Ġsil hous
hou rs
Ġed q
Ġed ffusion
Ġed it
Ġed am
Ġed emas
Ġed eme
houet ting
Ġsilhouet t
Ġedema and
Ġedema edema
Ġedema has
Ġsilhouette is
Ġsilhouette are
Ġex cl
Ġex its
Ġex istent
Ġex lu
Ġex pecially
Ġex ption
Ġex acted
Ġex luc
Ġex terna
Ġex ecu
Ġex rtem
Ġex tene
Ġex tirpation
Ġex changing
Ġconsolid ating
Ġconsolid atation
Ġconsolid aton
Ġconsolid atio
Ġapp y
Ġapp ly
Ġapp lying
Ġapp eas
Ġapp ci
Ġapp lication
Ġapp rximately
Ġapp endicular
Ġapp emnd
oc i
oc ity
oc ated
oc ulated
oc ervical
oc clusive
oc avitary
oc cluded
oc rine
oc aric
oc leid
Ġtu ft
og ement
Ġlungs k
Ġpos ing
Ġpos iti
Ġpos tal
Ġpos si
Ġpos tive
Ġpos ible
Ġpos itivity
Ġpos erior
Ġpos tioning
Ġpos itined
Ġpos sbly
Ġpos istioning
der mal
der lying
der line
are ated
ia tive
ia iry
ia zygos
Ġtube are
Ġtube projects
Ġcont orted
Ġcont radi
Ġcont rolateral
Ġcont ourour
ain l
Ġon cern
Ġon ward
Ġon vin
Ġon the
Ġon odular
Ġon gestion
Ġcle a
Ġcle an
Ġcle ra
Ġcle idocranial
our gment
ver sion
ver ified
ver bal
Ġsize appropriate
Ġclear n
Ġclear no
Ġclear cut
op ic
op ort
op ex
op lete
op timized
op aqe
op nuemonia
op tiam
op riate
op ulmonay
Ġbas iilar
Ġbas emay
Ġra w
Ġra ys
Ġra ider
Ġpneumon a
Ġpneumon i
Ġpneumon thorax
Ġpneumon peritoneum
Ġpneumon othorax
ess er
ess ted
ess ment
ess light
Ġab g
Ġab ate
Ġab ated
Ġab od
Ġab ot
Ġab ound
Ġab lative
Ġab ovel
Ġmo w
Ġmo th
Ġmo ting
Ġmo de
Ġmo dic
Ġmo tility
Ġmo erate
Ġmo vable
Ġfr uit
Ġev lu
Ġev ide
Ġev idne
Ġev uated
Ġev idance
if ation
if iation
if eration
if ugal
if iy
ati ved
ati bility
ati osn
ati lity
ati vly
ud e
ud es
ud ative
Ġradi ate
Ġradi ative
Ġradi cle
Ġradi ogram
Ġradi gr
ten th
ten ding
ten ds
ten fied
ten sity
arg ing
iti ties
ort ment
ort avr
ogra tric
asc ial
asc ending
Ġradiograph in
Ġradiograph ed
Ġradiograph ical
Ġradiograph performed
Ġcardiac l
Ġcardiac size
Ġinter m
Ġinter t
Ġinter tial
Ġinter ru
Ġinter vc
Ġinter la
Ġinter rib
Ġinter vascular
Ġinter fissural
Ġinter polar
Ġinter phase
Ġlower s
Ġlower t
Ġlower case
Ġsmall l
Ġsmall right
cre w
Ġhas y
Ġhas sh
Ġu al
Ġu ri
Ġu be
Ġu changed
Ġu gi
Ġu within
Ġu rogram
Ġu derlying
creas ing
ow s
ow ing
Ġeviden se
Ġeviden ces
Ġeviden cing
se tive
se ven
se pt
se cured
olum inal
Ġstable ly
Ġcompared with
Ġcompared previous
Ġvolum ia
Ġlateral l
Ġlateral s
Ġlateral ize
Ġmoderate y
Ġmoderate sized
Ġmoderate left
vi or
vi ac
vi ular
vi ating
vi gates
vi vor
Ġpre ior
Ġpre view
Ġpre ious
Ġpre ca
Ġpre treatment
Ġpre par
Ġpre pped
Ġpre cluded
Ġpre thoracentesis
Ġpre date
Ġpre bronchoscopy
Ġpre vo
Ġpre xe
Ġpre ibronchial
Ġpre existent
Ġpre paring
Ġpre xisting
ine ce
ine oesophageal
Ġbilateral s
Ġbilateral nodular
Ġappear acne
li osis
li ob
Ġim action
Ġim terstitial
Ġim mate
Ġim mature
Ġim roved
Ġim cludes
Ġim oression
Ġim unosupp
Ġim pproved
Ġover aly
Ġover ling
Ġover he
Ġover lad
Ġover come
Ġprior ity
tr y
tr ue
tr onic
tr phrenic
Ġvi e
Ġvi ess
Ġvi ii
Ġopacity for
Ġopacity can
cess ed
Ġview ing
Ġlobe with
Ġupper lung
Ġupper lobe
Ġupper case
Ġhilar and
Ġprocess on
normal ities
Ġfor th
Ġfor age
Ġfor ces
Ġfor amin
Ġfor go
Ġfor warded
ay ically
ical l
Ġincreas m
Ġincreas ied
Ġincreas inly
Ġstudy l
resent ing
Ġal a
Ġal s
Ġal lot
Ġal vo
Ġal fa
Ġal htough
Ġal bum
Ġal kal
Ġal inement
Ġca ther
Ġca ptures
Ġca mpus
Ġca utious
Ġopacities may
Ġg b
Ġg aly
Ġg ating
Ġg ig
Ġg pa
Ġg orgement
Ġg love
Ġg yn
Ġg laring
Ġg rater
Ġg vhd
Ġg leaned
Ġg rids
Ġg olf
Ġg emcit
Ġg angrene
Ġg estation
Ġg liob
Ġdis ass
Ġdis am
Ġdis sip
Ġdis appears
Ġdis fav
Ġdis pens
Ġdis array
Ġdis ussed
Ġper ilar
Ġper si
Ġper ched
Ġper taining
Ġper tains
Ġper pet
Ġper tus
Ġper ineoesophageal
ke ly
ke ct
ad ning
ad vanced
ad van
Ġprevious lung
Ġprevious uly
aly tic
Ġposition g
Ġposition oing
ement al
ther ape
ut ches
Ġli ter
Ġli pid
Ġli ves
Ġli br
Ġli esslight
Ġdi p
Ġdi rec
Ġdi feren
Ġdi gestive
Ġdi cation
Ġdi phragm
Ġdi cussed
Ġdi agh
Ġdi zzy
Ġdi arrh
Ġap l
Ġap si
Ġap arent
Ġap ep
Ġap osterior
Ġap ears
Ġap cial
Ġap eces
Ġap ycal
Ġap neumothorax
ure r
ure ter
ure ctomy
ure teric
ib rosis
ib rilator
Ġtip le
Ġwe gn
Ġwe ber
Ġwe eek
Ġrem ember
Ġrem ais
Ġrem inder
Ġrem mend
Ġrem itting
Ġrem inis
ag al
ag ating
ag ulation
eg mental
ric le
Ġcardiomegaly perihilar
Ġcardiomegaly without
Ġwh ch
Ġwh io
Ġwh ispy
Ġwh atever
Ġlike l
Ġlike y
Ġenlarg ef
Ġlikely e
Ġlikely hood
Ġlikely ref
act ures
act ory
ant in
ant ar
Ġsub q
Ġsub ot
Ġsub ty
Ġsub mit
Ġsub solid
Ġsub set
Ġsub chronic
Ġsub man
Ġsub peri
Ġsub del
Ġsub arach
Ġsub pneumonic
Ġsub jected
Ġsub intern
Ġsub xyph
Ġsub tel
Ġsub actelectasis
Ġsub optiam
Ġsub tends
Ġmid thorax
Ġmid day
Ġmid st
Ġmid ling
Ġmid lines
Ġmid axillary
Ġmid zones
Ġint ake
Ġint univ
Ġint ussus
Ġnot mal
Ġnot fications
Ġnot bale
min ar
min or
min es
min ute
Ġnew er
Ġnew left
Ġnew focal
Ġnew ev
Ġnew discoid
Ġinf act
Ġinf ect
Ġinf olding
Ġinf etion
Ġinf ltrate
Ġinf olded
ue rex
ue monectomy
ec king
ec tions
ec tiveness
Ġconges iton
cl ot
cl ogged
rem ic
rem phas
ini ate
ini zed
Ġcompar sion
Ġcompar iso
Ġcomparison with
ir radiation
Ġbase z
Ġbase is
Ġbase likely
Ġag a
Ġag ing
Ġag ue
Ġag itation
Ġag gre
Ġag rees
Ġag ressive
Ġag ian
Ġag inst
Ġ___. ..
Ġlim ated
Ġlim ted
Ġlim ites
Ġbut clear
Ġunrem arkably
out put
Ġimp eding
Ġimp ress
Ġimp uri
Ġimp eo
Ġimp regn
Ġimp orved
Ġimp ede
Ġimp ulse
Ġimp ediment
aph eresis
Ġcongestion a
Ġcongestion is
Ġchange over
Ġchange the
Ġhem angi
Ġhem mor
Ġhem operitoneum
Ġhem idaphragm
Ġhem iazygos
Ġend d
Ġend point
Ġend emic
Ġend orses
Ġend ontracheal
Ġend orse
Ġend omet
Ġend ocervical
Ġend oluminal
Ġ___, ___,
Ġagain mild
ll o
ll ar
ll ated
Ġinterval e
Ġinterval removal
Ġos tium
ost py
ost omies
Ġincreased left
ification s
ron cial
ron dule
per ior
per cutaneous
per io
per hy
per me
per fused
per ibronchial
Ġthis side
Ġhemi arch
Ġhemi atoma
low up
Ġlarg escale
Ġrep osis
Ġrep aged
Ġrep rees
Ġrep lies
Ġrep iratory
Ġrep son
Ġrep arative
Ġrep orit
Ġrep esenting
Ġj j
Ġj ilar
Ġj ump
Ġj vp
Ġj agular
Ġj unciton
Ġj aun
Ġj eop
Ġj xn
Ġj onction
Ġj erset
Ġj untion
Ġj umper
Ġsin ze
Ġsin cen
Ġsin de
Ġsin uous
ect asia
Ġcath ere
Ġcath etars
tal ic
Ġsli gn
Ġsli pped
Ġsli gth
Ġsli ppage
Ġslight l
Ġslight lty
Ġthor ocentesis
Ġthor aolumbar
Ġair flow
Ġair distended
ru b
ru p
ru ed
ru pture
ru itment
Ġ2 12
chy lo
Ġother acute
Ġother iw
Ġob er
Ġob fusc
Ġob lider
Ġob secured
Ġenlarged goiter
Ġbibas iar
tic ity
no id
str uct
Ġsug ical
Ġsug ery
Ġsug rical
Ġsug segmental
Ġsug stantially
Ġsug esting
Ġsug essted
Ġsh are
Ġsh od
Ġsh ronic
Ġsh ife
Ġsh apped
Ġsh add
Ġsh aping
Ġsh oft
Ġsh attered
Ġpresent in
Ġremain inig
Ġres et
Ġres ort
Ġres idence
Ġres umed
Ġres uspen
Ġexa mon
termin ating
Ġlarge l
Ġlarge pneumothorax
Ġlarge ley
Ġtermin ats
Ġtermin imating
Ġdemon trates
Ġplac ment
Ġplac ques
ual tion
Ġwell s
Ġwell no
vc le
si ologic
si zing
si ologically
si ghted
si veness
si vist
Ġha ven
Ġha ma
Ġha emoph
Ġcm s
Ġcm t
Ġcm pared
Ġref ering
Ġref used
Ġref ute
Ġref lct
Ġref ions
Ġref kect
Ġminimal l
Ġminimal y
Ġsvc abd
Ġpers ent
Ġrec en
Ġrec curred
Ġrec ipient
Ġrec comen
Ġrec ruitment
Ġhemidiaphragm ic
Ġpa ving
Ġpa resis
Ġpa artial
ren ces
Ġport ab
Ġport ale
pri oate
Ġintersti um
Ġintersti tail
Ġintersti tia
Ġintersti atial
Ġcl ue
Ġcl ub
Ġcl ues
Ġcl ni
Ġcl ogged
Ġcl ongested
Ġfin er
Ġfin ished
Ġfin sing
Ġfin ish
Ġad n
Ġad ding
Ġad vic
Ġad ds
Ġad jac
Ġad verse
Ġad mit
Ġad den
Ġad ete
Ġad herent
Ġad aj
Ġad eequ
Ġad ulthood
Ġct as
Ġct pe
Ġct wo
Ġidentif ed
Ġproj ets
Ġidentified at
ration s
Ġtr ypsin
Ġtr umatic
Ġopacification is
all ion
not omies
Ġby pleural
Ġby possible
Ġappro pi
Ġappro ximal
Ġappro ving
Ġappro pir
Ġappro par
Ġappro prioate
ern tial
oph one
oph arynge
omy opathy
Ġcal f
Ġcal fic
Ġcal fications
Ġcal icif
Ġcal ifications
aren cies
Ġdef ibrill
Ġdef lected
Ġdef ni
Ġdef lating
Ġdef erred
Ġdef ormin
Ġdef ibrilator
tro sc
tro des
Ġrepresent d
Ġrepresent ation
Ġrepresent int
Ġrepresent atelectasis
Ġaort obi
Ġreflect t
ur d
ur x
ur ary
ur sion
Ġinfec iton
Ġinfec tiom
Ġcalc ied
Ġcalc inosis
Ġcalc fication
Ġcalc fications
Ġcalc ficiations
Ġaorta is
Ġfindings l
Ġrib bon
Ġrib compatible
Ġabnormalities in
Ġabnormalities free
pi e
pi mal
ist ak
ist rat
ist axis
ist ainl
Ġradiographs demonstrate
Ġhave bronchial
Ġhave improved
Ġpic k
Ġpic ardial
Ġpic king
Ġretro hilar
Ġretro ardiac
Ġretro carc
Ġretro xiphoid
Ġretro esternal
Ġsp el
Ġsp ill
Ġsp ok
Ġsp astic
Ġsp ending
Ġsp urious
Ġsp ina
Ġsp arsity
Ġsp ends
Ġsp axce
Ġendo tr
Ġendo tra
Ġendo vag
cardi ovascular
cardi omyopathy
Ġwor d
Ġwor ds
Ġwor ry
Ġwor rise
Ġwor ried
Ġwor rsi
ard ware
ard otomy
so in
Ġsc c
Ġsc intig
Ġsc imitar
Ġsc rub
Ġendotracheal ly
Ġass ymmetric
Ġass co
Ġass aulted
Ġass cociated
Ġass ortment
age l
Ġpost red
Ġpost urg
Ġpost surg
Ġpost diuresis
Ġpost thoracentesis
Ġpost infectious
Ġpost surgery
Ġpost pericardiotomy
Ġpost insertion
Ġpost radic
Ġpost reatment
Ġcar bon
Ġcar ried
Ġcar idac
Ġsuggest se
Ġsuggest uve
Ġclin icial
Ġclin nically
Ġclinical l
Ġmore l
Ġmore prominent
lu ar
lu es
lu ate
lu cencies
lu oroscopy
Ġbasilar hydro
Ġhy rd
Ġhy uper
Ġhy ropneumothorax
Ġbo vin
Ġbo chdal
Ġbo kdal
Ġbo erha
Ġbo derline
Ġcent ric
Ġvascul r
Ġvascul atory
Ġvascul atrue
Ġdecreas d
Ġven otomy
Ġven ocaval
Ġven oupleural
Ġpar tracheal
Ġpar rahilar
Ġpar oti
Ġpar ticip
Ġpar rot
Ġpar athyroidism
Ġpar ox
Ġpar aracheal
Ġpar anasal
Ġpar alytic
iz atoin
Ġthan on
Ġwere d
cern ing
Ġappears mildly
ex in
ex changed
ex am
ex pl
Ġpr inc
Ġpr omp
Ġpr poc
Ġpr jecting
Ġpr sent
Ġpr inted
Ġpr uning
Ġpromin et
Ġpromin atn
Ġsim ulation
Ġpicc o
Ġpicc is
Ġsom ewaht
Ġsuper hilar
Ġsuper infec
Ġsuper clavicular
Ġvis ited
Ġvis ulaized
Ġvis aul
Ġvis ilble
Ġnod le
Ġnod ul
Ġnod ue
Ġnod osa
Ġnod ullar
Ġnod lues
Ġreg ip
Ġreg istration
Ġreg istered
Ġreg arded
Ġreg imen
Ġsignific an
Ġsignific snt
Ġster um
Ġster nectomy
Ġster notomies
ide ally
ab ation
ab ine
ab lation
ab scess
Ġlead left
Ġremo ted
Ġremo ves
Ġremo vement
Ġremo va
Ġmul tis
Ġmul iple
Ġmul tpi
Ġmul itple
Ġsur ure
Ġsur vivor
Ġexam x
Ġexam with
Ġregion as
Ġac er
Ġac ities
Ġac ending
Ġac telectasis
Ġac onts
Ġpac ities
Ġpac itiy
Ġpac emark
Ġchron ology
Ġchron ologically
Ġchron city
Ġchron icall
Ġk s
Ġk iss
Ġk etoac
Ġte sion
Ġte rat
Ġte lectasis
Ġte rimin
Ġte lph
Ġte amon
Ġexten ive
Ġexten sor
Ġexten nsive
tle y
Ġdise as
Ġdise ae
Ġchronic itiy
Ġchronic icty
Ġprob es
Ġsevere ity
ys mal
ys et
Ġmark ening
Ġatri l
Ġatri buted
Ġatri uym
ring omyel
Ġnas ogast
Ġnas cet
Ġnas ogratric
Ġpersistent s
Ġpersistent lucencies
Ġintra atrial
Ġintra ventricular
Ġintra jugular
Ġintra vertebral
Ġintra hepatic
Ġintra articular
Ġintra thora
Ġintra pharyngeal
Ġintra perio
Ġar as
Ġar tial
Ġar rays
Ġar co
Ġar ticul
Ġar ina
Ġar present
Ġar bor
Ġar diomegaly
Ġar cuate
Ġpat ter
Ġpat ten
Ġpat inet
Ġvenous catheter
Ġparenchymal ly
Ġwors se
la par
la vage
la viular
Ġjunction al
Ġdiff ence
Ġdiff ere
Ġdiff cicult
Ġdiff erne
Ġdiff erntial
mph ysis
Ġlin er
Ġju g
Ġju ction
Ġju cn
Ġju cation
Ġju ices
Ġbronch uc
Ġbronch olith
Ġbronch oconcentric
Ġbronch coscopy
Ġbronch osten
Ġbronch opnuemonia
Ġresol uation
Ġhyper ventilation
Ġhyper flex
Ġhyper plasia
Ġhyper car
Ġhyper alim
Ġhyper perme
Ġelev ted
Ġelev ator
Ġcor n
Ġcor al
Ġcor rec
Ġcor tically
Ġcor ks
Ġcor rle
Ġcor resond
Ġappropriate position
el ar
el ing
el ayed
el astosis
Ġ3 15
Ġ3 25
Ġver u
Ġver se
Ġver tbral
Ġver terbral
ass isted
ass uming
Ġplacement of
ps ing
ps ation
ps ychi
Ġwas d
Ġwas hed
Ġwas hings
Ġrecom ment
Ġrecommen ced
Ġrecommen dition
Ġvisualized rib
Ġsubstan tia
Ġsubstan tiating
Ġif ner
Ġif nection
Ġsternotomy the
Ġaortic o
Ġaortic pulmonary
Ġtop ic
Ġtop ogram
ven tes
ven til
Ġmedi a
Ġmedi ated
Ġunder lines
Ġunder lining
Ġunder ventilation
Ġunder aeration
Ġunder pent
Ġunder yling
Ġunder lyng
Ġunder mines
Ġatrium s
Ġgro sly
Ġbet tter
Ġsome obliqu
Ġimprov d
Ġimprov med
Ġimprov emen
Ġset tin
Ġset tng
Ġimag ine
Ġexamin ing
Ġexamin aion
Ġsetting this
and oned
Ġassess sed
Ġfracture is
Ġcost phrenic
Ġabd uct
Ġabd normalities
Ġabd andoned
Ġcalcification is
Ġcalcification pers
Ġperi or
Ġperi port
Ġperi pyloric
Ġperi obronchial
Ġperi leison
Ġperi perhy
Ġsupp lying
Ġsupp lies
Ġventric l
Ġeng ore
Ġeng aging
Ġeng ogement
Ġeng ourgment
Ġengorg e
Ġscar riapp
Ġnow at
inu ated
inu tes
Ġloc ular
Ġloc ulating
Ġloc ked
Ġpres istent
Ġpres ist
Ġpres isting
Ġpres eas
Ġpres sing
Ġpres by
ail ty
ution s
pos nding
pos teromedially
Ġplace the
Ġacc centuated
Ġborder ine
Ġdr astic
Ġfol lup
Ġfol owing
Ġdiaphragm with
Ġfractures about
Ġi te
Ġi is
Ġi es
Ġi om
Ġi ph
Ġi ve
Ġi are
Ġi ze
Ġi hilar
Ġi atal
Ġi with
Ġi internal
Ġi improvement
Ġi terval
Ġi gg
Ġi acs
Ġi monor
Ġi tenfied
Ġit b
Ġit is
Ġit ould
Ġit chy
Ġit alic
Ġbetter s
rec iated
rec iably
Ġeval ualtion
Ġevalu ted
Ġevalu atation
Ġevalu atin
esoph aus
esoph agel
Ġmon o
Ġmon tioring
Ġhyperinf ilation
Ġhyperinf lates
Ġhyperinf lati
Ġhil ifugal
Ġang io
Ġang ulating
Ġang ulate
Ġscarring and
Ġscarring bilateral
Ġpersist ance
Ġpersist net
Ġprobably a
Ġprobably unchanged
Ġcav um
Ġcav ob
Ġcol i
Ġcol or
Ġcol ic
Ġcol ostomy
Ġcol ocol
Ġstandard ly
Ġrel ativly
Ġfollow p
Ġhe el
Ġhe llo
Ġtrache ostpy
ond ent
ond ade
Ġwall is
Ġapprec ited
Ġcalcified there
Ġexpanded without
Ġpreviously characterized
Ġdevelop mem
Ġcontour d
Ġovert y
Ġovert pulmonary
Ġimprovement s
Ġsugges te
Ġsugges ing
Ġsugges tio
Ġsugges itve
Ġdegen rative
ak i
ak ened
sib ility
Ġpossib y
Ġlit ttle
Ġobs uc
Ġobs ured
Ġobs erving
Ġdra ing
Ġdra ft
Ġdra pe
Ġunderlying mass
rib s
Ġemph hysema
Ġnodule ar
Ġsurg eons
Ġbasal ir
Ġdrain able
Ġapproxim ation
Ġapproxim atly
Ġapproxim iately
Ġnotif action
Ġposterior ally
Ġposterior most
Ġposterior inerior
Ġbl ade
Ġbl ind
Ġbl ock
Ġbl ulting
Ġdemonstrate e
Ġdemonstrate moderately
Ġro cal
Ġro under
Ġro bs
Ġro bust
Ġsuperimpos d
Ġsuperimpos es
Ġpo tion
Ġpo tis
Ġpo tt
Ġdistal most
Ġdisc cussed
Ġdisc arded
Ġsing e
Ġsing s
Ġsing el
Ġcorre lat
Ġcorre pon
Ġcorre posnding
Ġdete tected
Ġdete ctible
cen e
cen ded
Ġgre ather
Ġgre atere
mo thoraces
mo dal
mo onary
mo reso
Ġcompres ion
Ġgi ant
Ġ4 15
ker ley
Ġtele ophone
Ġteleph onic
Ġpacemaker lead
Ġdes ne
Ġdes ats
Ġdes ending
Ġdes cn
Ġdes erving
Ġdes cended
Ġcompati lble
Ġcompatible with
Ġdiffic ile
Ġgiven yt
Ġmultiple s
Ġconf erred
am tous
Ġarea of
Ġobscu rtion
Ġng tube
Ġso b
Ġso und
Ġso ie
Ġso dt
Ġresid ula
Ġente ri
Ġdens itiy
Ġdens isities
Ġdens emit
Ġassoc ited
Ġassoc oated
Ġassoc iative
Ġinto t
Ġsti tial
Ġside hold
Ġqu ant
Ġqu esiton
Ġhi ft
Ġesoph ogram
Ġesoph gaus
to e
to le
Ġdetected in
Ġtrac er
Ġtrac ing
Ġtrac ings
Ġcolla pose
Ġfur hter
ĠĠ Ċ
Ġins ular
Ġins pite
Ġins tig
Ġins itu
Ġins pir
Ġins pirator
Ġins tertial
Ġins inuated
Ġwiden es
Ġwiden ess
Ġwiden ening
Ġdo pacity
Ġdo ts
Ġdo doff
Ġdo vv
Ġdo zens
Ġdo ghoff
eed ed
eral izing
Ġresidual ly
vasc ulitis
Ġcur ly
Ġday l
Ġsuggesting s
Ġsuggesting bronchitis
Ġout standing
Ġout pneumonia
Ġout wards
Ġout size
Ġout come
Ġrecommend con
lo y
lo id
lo ying
lo ok
lo dged
lo articulation
lo fen
ewh at
Ġsuggestive of
Ġsever ities
Ġdemonstrates t
Ġdemonstrates moderately
Ġdemonstrates well
Ġapex may
Ġstreak ly
Ġstreak iness
dy alisis
Ġfi esta
Ġcomb o
Ġtubes are
Ġcombin tion
Ġcombin ing
Ġcombin aton
chn ymal
Ġtechn ology
Ġanterior s
Ġ5 1
Ġ5 20
Ġ5 32
Ġconsolidations seen
Ġpacer mak
Ġaer ate
Ġaer ic
Ġaer atation
usion al
dition ally
pse cted
Ġsubtle ly
ore lation
Ġz onse
Ġz onred
Ġdecrease ing
Ġcomplete resolution
unt ary
ack y
Ġhern ial
Ġhern iating
gres s
Ġpig eon
Ġmultifocal opacification
Ġly e
Ġly pm
Ġly mp
Ġly mpah
ial r
Ġess ed
Ġprogres ed
Ġprogres ses
Ġdeform ing
Ġdeform ations
Ġdeform iting
Ġdeform ites
Ġdeform itities
Ġoverload s
Ġlayering s
Ġmarked l
Ġco ast
Ġco ated
Ġco ded
Ġco ating
Ġco unting
Ġco ving
Ġco ventional
Ġco agulation
Ġco orelation
Ġproximal most
Ġsup ralateral
Ġsup leural
Ġsup rcardiac
Ġback ed
Ġback sc
Ġback round
Ġback gro
cy berknife
Ġappreci ating
Ġverteb rectomy
Ġarch s
Ġarch ing
Ġsec donary
Ġsomewhat increased
Ġlymph s
Ġlymph ography
Ġlymph ogram
Ġlymph edema
Ġlymph ocytic
Ġradiographic s
ho e
ho iff
Ġful id
Ġrot asted
Ġtrans lated
Ġtrans late
Ġtrans oral
Ġtrans diaphragmatic
Ġtrans pleural
Ġtrans aortic
Ġtrans duc
Ġtrans bronch
Ġtrans udate
Ġtrans formed
Ġtrans lates
Ġtrans lating
Ġtrans forming
Ġtrans dermal
Ġtrans udative
Ġtrans esophagel
Ġtrans gress
Ġsuggests f
de ep
de crease
de creasing
de viating
Ġmet aphy
Ġmet asases
Ġmet talic
Ġsubcutaneous ly
Ġdiscus esd
Ġaeration s
Ġval e
Ġval lec
Ġval uation
Ġval ley
Ġwhen ever
Ġindic es
Ġindic tive
Ġdob hof
Ġdob bhof
Ġdob hoiff
Ġloculated pneumothorax
ran eous
pic uity
pic uos
Ġsus ep
Ġsus po
Ġsus ceptible
Ġsus btan
Ġsus equent
Ġsus psected
teri ous
teri ze
od estru
Ġcourse ing
ident ally
fore ign
Ġparticular l
bar ras
st ation
st ated
st aff
st adning
Ġpart ci
Ġpart cular
Ġfiss ues
pt x
tero pelvic
Ġstent better
Ġnon vascular
Ġnon comp
Ġnon resolution
Ġnon recent
Ġnon respon
Ġnon cont
Ġnon prominent
Ġnon physiologic
Ġnon cavitary
Ġnon oblique
Ġnon atelectatic
Ġnon homogeneous
Ġnon smo
Ġnon invasive
Ġnon emergency
Ġnon visible
Ġnon functioning
Ġnon obliqued
Ġnon sensitive
Ġnon occluded
Ġnon verbal
Ġei th
pect omies
Ġthorac is
Ġthorac ente
Ġthorac ostomies
Ġpect oris
Ġpect raol
Ġcla ims
Ġcla vcle
Ġclavic ule
Ġclavic ula
Ġsem inal
Ġconflu ences
Ġsemi opaque
cur ve
Ġhyp ogen
Ġhyp oper
Ġhyp opharyngeal
Ġhyp retension
Ġmin iaml
Ġmin mial
Ġmin idra
Ġnear s
Ġmetast ats
Ġmetast astic
Ġmetast asized
Ġmetast atases
Ġather sc
Ġather omatous
Ġdisten sibility
Ġswan z
ma jor
Ġph aryngeal
Ġph eo
Ġph alan
Ġph aryx
Ġ6 7
Ġ6 12
Ġ6 11
Ġ6 15
Ġ6 20
Ġ6 30
Ġshi eld
Ġshift ly
uc ing
uc stion
Ġdeg erative
Ġlong ue
Ġlong stadning
comp ressed
comp arision
Ġinv ade
Ġinv oking
Ġinv aded
Ġinv ov
Ġinv ariably
Ġhist ology
Ġel icited
Ġlocation d
Ġlocation z
Ġdil ate
Ġdil ates
Ġdil itation
Ġdil uted
Ġdil ataion
Ġdil antin
Ġgranul ocy
Ġgranul amtous
Ġpredomin ent
Ġpredomin ce
Ġpredomin ently
over able
over all
over inflation
Ġconsider d
inct ness
Ġall ocated
Ġperic aps
Ġcorrelation s
Ġparticularly in
Ġmedial ized
Ġpul moan
Ġpul omary
Ġpul omonary
Ġpul lup
Ġtw in
Ġtw enty
Ġdiscover ing
Ġmain taining
Ġling ul
Ġling ers
Ġfib eron
Ġinfer o
Ġinfer ir
Ġinfer red
Ġinfer hilar
Ġinfer osu
Ġinfer iolateral
Ġcompl te
Ġcompl iment
we b
we ighted
Ġhel ical
Ġhel ps
Ġindist ince
Ġhelp ufl
Ġindistinct nes
Ġsinus oid
Ġdist inc
Ġdist ributing
Ġdist orsion
Ġinferior omedially
Ġind ex
Ġind etermin
Ġind cated
Ġind ucing
Ġcaus al
Ġexce ot
Ġexce eded
Ġexce llent
pl ant
pl ified
pl inary
Ġne vi
Ġne umothorax
Ġne ertheless
Ġne eeded
Ġperiph aryngeal
Ġperiph ey
Ġrepe tition
Ġmal acic
Ġmal let
Ġmal rotated
Ġmal rotation
Ġmal aise
Ġmal funciton
Ġmal pposition
Ġded icate
ger ic
Ġx plained
Ġx gi
Ġpreced e
Ġresult atn
Ġredistribution and
Ġhyperex tending
Ġheal s
Ġlymphad opathy
Ġlymphadenopathy which
Ġ10 0
Ġ10 15
Ġ10 40
Ġ10 13
Ġcervical thoracic
Ġmulti dis
Ġmulti phas
Ġmulti lobulated
Ġwides rpe
Ġunf ortun
Ġunf orlded
Ġprojec tive
Ġprojec tile
Ġprojec teing
oun ce
Ġlimit ataion
Ġexag gar
resp ondent
Ġconvin ce
def ine
def ibrill
def lection
Ġ8 2
Ġ8 7
Ġ8 8
Ġ8 25
Ġ8 14
Ġup load
Ġup gra
Ġup sizing
Ġconfig ured
ext gasis
ext rapleural
Ġimaging s
Ġpron ounce
Ġill define
Ġjust fied
io ic
io therapy
io diol
io cepah
Ġ11 3
Ġ11 32
Ġ11 30
Ġ11 35
Ġ11 19
Ġ11 54
Ġreview s
Ġrotation s
ap n
ap able
ap ex
ap ula
Ġlucen y
Ġlucen ies
Ġge j
Ġcharac tereized
Ġapic e
Ġapic obasal
Ġapic ocostal
Ġapic oseptal
Ġhyperinflation s
Ġstu ff
tem ber
Ġhealed l
tern um
Ġtra versus
Ġtra hce
Ġtra ditionally
Ġspec ified
Ġspec ify
Ġ7 0
Ġ7 7
Ġ7 00
Ġ7 32
qui te
Ġventi llation
Ġrefer rring
Ġabs urd
Ġabs cene
Ġcoron oid
Ġgastro tomy
Ġcharacteri ztion
Ġflat ter
Ġflat ting
Ġflat tered
dra ins
Ġwithdraw el
Ġplate let
Ġflatten end
pen ia
Ġ9 6
Ġ9 10
Ġ9 15
Ġ9 17
Ġ9 50
Ġ9 18
Ġ9 23
Ġ9 38
rect omies
Ġperib roncial
Ġbrach ice
Ġbrach iocepah
level s
the y
Ġmit rac
lign ant
lign ula
ber g
Ġgo itrous
Ġmarg ing
Ġop n
Ġop aicty
Ġop tiray
Ġreposition ned
Ġbia basilar
Ġbia prical
Ġspace opacity
Ġbrachiocephalic svc
Ġbronchi ovascular
sc oliotic
sc pine
sc ript
sc opic
sc apula
Ġoste ogen
Ġoste osclerotic
Ġoste osarcoma
Ġoste odestru
Ġoste penia
Ġy es
Ġy he
Ġpresumed o
Ġsuggested ed
Ġav ms
Ġav oided
Ġvag otomy
Ġthy roiditis
Ġser ver
Ġser ved
Ġser vers
Ġser osal
Ġser osa
Ġ12 25
Ġthyroid al
Ġthyroid ism
Ġgener all
Ġgener ating
Ġsuspected the
Ġazyg o
Ġdoes nt
du ed
du ct
du ce
Ġdefin te
Ġdefin ate
Ġdefin ted
Ġfields are
demon srated
Ġlum pectomies
Ġabdomin a
Ġrelate vely
Ġrightward ly
Ġcorrespond ent
Ġcorrespond ance
Ġbibasal ir
Ġmas ess
Ġmas se
Ġes en
Ġes ema
Ġes cluded
Ġes olution
Ġwed ing
Ġtreatment s
Ġlocal e
Ġleftward ly
Ġinc ised
Ġinc rimin
Ġinc ras
Ġinc apac
Ġinc onclusive
Ġinc orpor
Ġinc oplete
Ġinc apable
Ġdecomp ressing
Ġdecomp resses
Ġfocus es
Ġpneumoperitoneum under
Ġem barras
Ġextrem emly
Ġhydro pneum
Ġhydro sy
Ġhydro hemothorax
Ġhydro ureter
Ġeff su
Ġeff ectiveness
Ġeff ursion
Ġeff ucstion
ek g
Ġdocum ente
emin a
Ġoverli ed
Ġdecompens ating
Ġtraum as
Ġtraum ata
Ġbre ater
term ometer
Ġinlet s
Ġpath ophy
Ġpath ways
Ġatypical ly
Ġsitu at
Ġma ze
Ġma oderate
Ġincomplete l
Ġsuggestion s
Ġpla ural
Ġbi ateral
Ġbi ew
Ġbi ilateral
Ġbi pa
Ġbi valvular
isten ion
Ġ( ?)
Ġconfirm ations
ribu tible
Ġman ual
Ġman age
Ġman umb
Ġman ufact
ple thora
ple urectomy
ple urx
oid ation
Ġcuff s
Ġbreast an
Ġoc ver
Ġoc clus
Ġoc cludes
Ġquestion al
Ġquestion ing
specific ally
specific right
Ġarteri ogram
Ġarteri oport
Ġweek day
Ġdemin eralizing
Ġrather n
Ġoff icially
Ġinser ts
Ġinser table
Ġzones as
Ġgood past
Ġatten ation
Ġatten ution
Ġbul dge
Ġwhere in
Ġwhere by
Ġdemonst ated
Ġdemonst rably
Ġphysician on
Ġir radi
Ġir radiation
Ġir cular
Ġir mp
Ġparat acheal
Ġsy uper
Ġsy rup
Ġsy mphysis
Ġredemon station
pneum opericardium
Ġwhether the
Ġskeletal ly
Ġinj ections
Ġexternal ized
Ġcurv y
Ġcurv atures
Ġdobhoff s
rom as
Ġpleu arl
Ġdex ropositioning
Ġdextro position
Ġartifact ually
Ġalmost ly
Ġfund dup
Ġeti ologic
fluid s
fluid opneumothorax
Ġce pphal
Ġsegment ally
Ġwedge ing
Ġgleno umeral
Ġgleno humoral
Ġaccess s
Ġaccess ion
Ġaccess ibility
py ogenic
Ġcontr asted
Ġcontr actions
Ġmidlung s
Ġkyph o
Ġcontrast ing
Ġfaint back
Ġmedially and
Ġsat sif
Ġsat urating
fact ual
Ġsep ation
Ġsatis faco
mptom s
Ġmajor s
ophy tes
Ġemb arking
Ġcorresponds to
Ġhemo dialy
Ġhemo dyalisis
Ġnond obbhoff
Ġgra m
Ġgra ves
Ġcavit ate
Ġcavit aion
Ġball on
Ġband age
Ġband ages
Ġballoon s
Ġcolon ization
Ġdefibrillator s
Ġeventration s
Ġpast or
Ġsys tole
Ġsuprac lin
Ġdocument ated
clear ing
Ġdoub ling
Ġminu ted
Ġacrom ioc
Ġinflamm ed
Ġpleura desis
scar ing
scar rning
Ġ15 20
ile us
Ġfif ith
Ġfif teen
Ġinfilt ates
Ġwar rent
Ġcephal exin
Ġsk ip
Ġcross over
allow ing
Ġtips again
Ġconvex ities
Ġann ually
Ġann uls
Ġradiod ensi
Ġreac tiv
Ġreac tivity
Ġhaz es
Ġhaz ing
Ġhaz ziness
Ġhaz inness
Ġobstru cts
sh own
sh ift
Ġ- ?
Ġ- ___.
ventric uloperitoneal
Ġhypertroph ied
pe red
Ġaltern ance
Ġaltern ately
Ġform at
Ġdiscre pance
port s
ors clerotic
air s
air ways
Ġdeline ates
Ġcontin ous
Ġparam idline
Ġr j
Ġr x
Ġr ung
Ġr ther
Ġr ue
Ġr vc
Ġr ca
Ġr right
Ġr retrocardiac
Ġr main
Ġr sol
Ġr sv
Ġr asise
Ġpl ulmonary
Ġpl ase
Ġpl ication
Ġpl umonary
Ġpl ays
Ġpl rural
Ġpl ica
Ġpl antar
Ġpl uerex
Ġtor us
Ġtor acic
Ġtor uous
Ġoverla o
Ġoverla id
Ġoverla od
Ġoverla ppng
Ġlordotic ally
Ġchain ed
Ġatt ributes
Ġatt achment
Ġatt ributible
sy mptoms
medi um
medi ated
Ġstri ate
Ġdistension s
Ġhypo thesis
Ġhypo enhan
Ġhypo chon
ob tained
ob rial
ob ile
ob iliary
ob scured
Ġcardio ediastinal
Ġcardio thym
Ġcardio respiratory
Ġhole marker
oscop e
ca val
Ġnecess itated
Ġnecess itating
Ġrespon sve
Ġcer ivc
Ġbiop ros
Ġbiop rosthesis
Ġbiop rothesis
fil m
fil ter
Ġdimin shed
Ġdu w
Ġdu ra
Ġdu rable
usual ly
pro jected
pro cessed
Ġheav es
Ġheav yset
Ġstron gest
Ġtri es
Ġtri age
Ġtri alysis
Ġtri pped
Ġtri agular
Ġtri gge
Ġneo esophageal
Ġneo esophag
Ġneo fissure
lateral ly
Ġvar ice
Ġenter tic
Ġexception ally
aer ate
Ġdown cast
Ġdown sloping
Ġmor bi
Ġlast ly
lim iting
Ġinfar cted
Ġrest oration
Ġjuxt rahilar
Ġjuxt asternal
Ġvalv ulae
Ġvalv uloplasties
Ġcir cle
Ġepic arr
Ġpri ot
Ġpri ortavr
Ġretros ternum
Ġround e
Ġpull through
Ġprim e
Ġprim arly
Ġam id
Ġam ply
Ġam bulation
Ġam monium
Ġpoint in
lum es
Ġflex or
ribut ory
Ġfe et
Ġfe aturing
Ġfe eling
Ġjuxta fissural
Ġpleur isy
Ġpy lmonary
Ġpy orus
Ġpy ramid
Ġsurro gate
con tinu
con flu
con version
con cerning
dis position
dis placement
dis citis
dis charge
dis lodged
Ġten able
Ġten se
Ġten uous
Ġmanif estion
Ġthera pist
Ġwindow is
Ġori ents
Ġori entations
Ġarth oplasty
Ġaccum uation
Ġaccum ulates
cav o
cav ity
cav itated
bo op
Ġcall osal
Ġseque l
Ġseque ls
duc ibility
Ġsecu rity
Ġabut ing
Ġexpos ed
Ġextra esophageal
Ġextra parenchymal
Ġextra renal
Ġnarrowing s
Ġke eps
art y
Ġcalcific ed
Ġcalcific atoin
Ġcalcific ait
Ġtransp orted
Ġtransp arencies
Ġstern tom
Ġstern ocostal
Ġstern ocleid
Ġsepar able
app reciated
Ġdash baord
Ġoccu red
Ġarm oured
Ġkin ase
Ġcare valve
Ġcare gro
Ġcare team
Ġcare web
Ġnin creased
Ġnin ht
Ġnurse on
Ġmy ocarditis
Ġmy asth
Ġmy xoma
Ġmy riad
Ġcosto diaph
Ġcosto frenic
Ġbleeding s
Ġ14 4
Ġ14 8
Ġ14 15
Ġhealing s
Ġtb c
esophag ogastrectomy
hole s
Ġglo be
Ġglo bes
Ġsensitivity ive
-___ )
-___ ,
Ġsple ural
sp inal
bing er
Ġcri t
Ġcri tically
Ġimpos ed
Ġfact ures
Ġfact ored
Ġdouble d
Ġplu erx
Ġforward s
Ġsty loid
Ġlater omedial
Ġlater omedially
Ġinform ing
Ġregard omg
Ġstabil ty
Ġstabil ize
Ġstabil isation
Ġplug gin
Ġsternum to
Ġvari ance
Ġintrodu ing
Ġfinal ization
Ġaccumulation g
Ġthin nest
Ġemboli ze
Ġmd ct
Ġmd oerate
Ġserious ness
Ġinterpre tion
Ġinterpre ation
Ġcircum script
Ġfeas ibility
Ġattribut ing
Ġret arding
Ġret ino
Ġret ratr
Ġspic ule
Ġkyphotic ally
Ġtem rin
osp asm
ium onia
nt ration
Ġq estion
inc al
inc orrect
Ġrenal ly
Ġul tiple
Ġabscess ing
Ġdep ot
Ġdep loy
Ġcontribu tiing
Ġreason ing
Ġextrapleural ly
Ġanti gen
Ġanti ref
Ġcoinc ided
Ġcoinc identally
obstr ucting
Ġconsequ ences
Ġrequi eres
Ġmonth ly
Ġexplan ted
Ġaff iliated
Ġaff airs
Ġdistortion s
Ġbil i
Ġbil apical
Ġbil teral
Ġbil aeral
Ġbil atral
Ġbil iairy
Ġdet achment
Ġlip omatous
Ġect opy
Ġty len
Ġty ros
Ġty pes
Ġty pcial
Ġdeep ly
peric arinal
peric adial
peric ardotomy
Ġcorrel tion
Ġcorrel ary
Ġvs ulaized
Ġoverlap ing
acu ity
oper ate
oper ation
oper ated
Ġsuspect ing
Ġanch ored
Ġ___- ,
Ġsecretions due
Ġpen dant
Ġpen rose
Ġmig rates
Ġcharacterize b
Ġmillim eteric
iltr ate
Ġech inococ
Ġmist akened
Ġsuc ceeding
Ġdetermin ative
Ġslow ing
Ġprelim inarily
Ġantib ioic
Ġdestru cted
Ġdestru ctic
Ġus age
Ġov r
Ġov ary
Ġov aries
Ġrecogn izing
Ġexcav ation
Ġelectro physi
Ġelectro graph
Ġelectro phoresis
Ġme al
Ġme ant
Ġme idastinal
Ġme atstatic
Ġtric sup
Ġlev osoliosis
Ġscout s
Ġorientation al
Ġbub bly
Ġ18 0
Ġeffect ing
Ġperipher ay
Ġnaso tracheal
Ġrule o
Ġcell ular
Ġradiologist s
radi ograph
radi ative
radi opaque
radi ographic
radi aton
Ġsuff er
fe ver
Ġring ed
Ġ24 5
Ġultras ounds
Ġresident s
Ġprec arinal
Ġprec arious
Ġpleuro pericarditis
Ġsa ved
Ġsa usage
Ġnonurgent ly
Ġpe i
Ġpe tech
Ġpe umoperitoneum
Ġpe anut
rid den
Ġbar s
Ġbar ring
Ġbar rier
Ġclar ifiy
Ġlob ulat
Ġmorning s
Ġbed sides
Ġbed ridden
Ġimpac ed
Ġreveal e
Ġmed ain
Ġmed istinum
Ġmed dastinal
Ġmed uastinal
Ġmed astinum
Ġmed tronic
Ġmed allion
Ġreticul olinear
Ġcann not
Ġcann onball
Ġcyst ogast
Ġsmo ke
end obronchial
end ocrine
Ġhor acic
Ġhor monally
Ġventricul oatrial
Ġventricul oseptal
Ġden ied
Ġden city
Ġden isties
Ġcallus es
Ġflu ency
Ġdys ostosis
Ġdys plastic
Ġexacer abation
Ġdiscon tin
Ġdiscon tiuous
Ġradio opacities
Ġradio opaqe
Ġexacerb ates
Ġexacerb aton
Ġstem i
Ġperibronch o
Ġperibronch ical
Ġmen tions
lin dirac
svc junction
svc brachiocephalic
alle gedly
solid ation
Ġnum bered
Ġher o
Ġher at
Ġher bal
Ġorgan o
Ġorgan omegaly
istic ated
Ġepi theli
Ġepi leptic
Ġepi pericadial
Ġexpan ed
Ġnumber ous
Ġsum moned
Ġcran ium
Ġdiss appeared
Ġdiss appearance
Ġdiss imilar
Ġdiss appears
Ġdiss ension
Ġpara diaphragmatic
Ġpara fissural
Ġpara itracheal
pylor us
pylor ically
Ġsumm ed
Ġsumm arized
Ġbro ader
Ġbro viac
Ġpenet rate
Ġneg ate
Ġneg ated
Ġsequ ins
Ġsequ ae
Ġpack aging
Ġorthop aedic
Ġorthop nea
Ġmyel oid
Ġmyel of
Ġmyel odys
ip ally
Ġlie u
Ġlie kely
Ġlig th
Ġker nel
Ġparas pinous
Ġsiz xe
Ġcore ct
ject s
Ġhemodynam ical
ci plinary
Ġqual ifies
Ġhous ing
Ġfac ets
Ġfac emas
Ġfac tiors
Ġcomple tley
Ġtend nderness
Ġligament s
Ġcontig ous
lip omatosis
Ġreal ity
Ġreal istic
Ġdepos iton
Ġoval e
Ġoval ary
Ġsure levation
Ġfibro si
Ġfibro atelectasis
Ġfibro elastosis
Ġcontiguous ly
Ġmagn ify
Ġmagn ifies
Ġmagn ifiation
Ġdomin ate
Ġdomin ent
Ġdomin ated
Ġdomin ance
Ġcover ning
Ġglob ose
Ġtell s
Ġcharacter s
of ugal
of luoroscopy
Ġimpaction t
Ġbeh alf
Ġbb ibasilar
Ġile um
Ġile ostomy
Ġile ectomy
Ġsha res
Ġcrossing s
Ġoss oues
Ġrepres et
Ġrepres eting
Ġrepres enrs
lay er
Ġacce pting
Ġec d
Ġec centuated
Ġtran sected
Ġoper ator
Ġoper ators
Ġoper atived
Ġhep arinization
Ġpseud ocys
Ġpseud ocavitary
Ġpseud loarticulation
Ġterm ed
Ġterm nin
Ġterm iant
Ġglenoid s
Ġpole s
Ġopp ose
Ġaband omned
Ġips ilater
Ġinterf ere
Ġinterf ering
Ġintrafissural l
Ġintrafissural ly
Ġroutine ly
evalu te
evalu able
Ġact ure
Ġact inomycosis
Ġsten osing
Ġacuity l
Ġadj aent
Ġinten ding
Ġinten sified
Ġinten sivist
Ġfl ask
Ġmidportion s
Ġelectronic s
Ġiv s
Ġiv or
Ġaccept ably
Ġpossibil ty
Ġpossibil itiy
function al
Ġ' \
Ġbat ch
Ġconne cti
sip ar
Ġdec icated
Ġdec iding
Ġdec idual
Ġdec oiled
Ġdec srib
Ġdec orative
Ġdec resaed
Ġsequen ces
Ġhemop thorax
Ġcervic ocranial
Ġris en
Ġris er
Ġfine ly
Ġbulk iness
Ġep a
Ġep miric
Ġep istaxis
Ġmodal ites
cys t
cys ts
Ġway s
Ġsubc untaneous
Ġpseudo articulation
Ġpseudo aneur
Ġamong st
arth roplasty
arth ropath
opath ay
Ġperson on
Ġperson al
Ġperson nel
Ġbroncho tracheal
Ġvertical ization
Ġreading s
Ġbullet in
Ġprefer s
Ġprefer rably
Ġ21 7
Ġneph rectomies
Ġfem orally
Ġfem ara
Ġstation ed
Ġstation ary
Ġmyc otic
gra vity
gra matic
Ġthink s
oce pal
Ġste tting
Ġuniform ity
Ġidi osyn
Ġhol ter
Ġ23 0
Ġ23 9
Ġmi ild
Ġimmun o
Ġimmun osup
Ġ22 3
Ġ--___ ,
par ison
par aesophageal
Ġta a
Ġta ut
Ġcharacteristic ally
Ġcap illar
Ġlight ly
Ġeas tern
Ġfluor ographs
Ġfluor oscope
Ġspondylo epi
Ġspondylo arthropath
Ġreaccum ulati
sign s
Ġent ral
Ġent ail
Ġent ubated
Ġent ails
Ġpan el
Ġcongen tial
Ġcongen itally
Ġdiscussion t
Ġperibronchi ovascular
significant ly
su blexation
Ġcc c
Ġcc d
Ġcc arring
Ġinsignificant ly
Ġeg t
Ġeg astric
Ġmiss intubation
Ġaden itis
Ġaden oap
Ġaden oathy
Ġaden osqu
Ġaden ocaric
Ġaden opathay
Ġsimul ator
Ġriding in
Ġbronchiol itic
Ġbifurc ate
Ġresor bing
Ġpostprocedural ly
Ġ(___ -
Ġ(___ .
Ġ(___ -___)
Ġthem ain
Ġfung emia
osed ly
Ġevacu ating
Ġevacu ations
Ġsupra glottic
Ġsupra valvular
Ġer notomy
Ġrelax ed
ologist s
Ġunexpected ly
Ġcres centric
Ġcut s
Ġcy ber
Ġcy lindirac
Ġorific es
Ġkne ar
Ġduct s
Ġlen s
Ġredi ctated
Ġlik kly
Ġventil ates
Ġventil ating
Ġquantif iable
Ġquantif eron
Ġconcomitant ly
Ġsolid ly
Ġadmin ister
Ġadmin istrat
Ġcirculation s
Ġpower picc
Ġstap edial
Ġ___; .
Ġinterc oast
Ġpeer basilar
ins piration
Ġmr v
Ġmr sa
Ġmus cular
Ġpool s
Ġsuccessive ly
Ġnephro ureteric
bi iliac
Ġmat y
Ġmat ted
Ġosteoarth rosis
Ġosteoarth ropathy
co operative
co iling
co operation
his tiocytosis
Ġach es
Ġach eal
Ġmean der
Ġmax illary
Ġmax illa
Ġretract s
thorac olumbar
Ġworsen ign
Ġworsen end
Ġworsen ining
Ġpal mar
Ġcou res
Ġcou ild
Ġcou dl
ram gatic
Ġund hcnaged
Ġund elayed
Ġdehis ced
Ġocclusion s
Ġcre ases
Ġcre pitus
omedi atinal
Ġnodulation s
Ġadvance ed
Ġspondyl ar
Ġinte ral
Ġinte val
Ġinte cept
Ġfluctu ate
Ġfluctu ant
Ġfluctu ates
Ġdeli ver
Ġdeli rium
Ġdeli very
Ġneuro vascular
Ġneuro cystic
Ġneuro endocrine
Ġpt c
Ġpt s
Ġbur der
Ġbur dens
Ġadd ison
Ġiden fiti
Ġsac ral
Ġsac ular
Ġsac cule
Ġsac culated
Ġenc ase
Ġadded d
Ġconform ed
Ġeosinoph ic
Ġcolum es
Ġinstr uct
Ġalte ctasis
Ġblunt in
Ġsegm ented
Ġsegm enectomy
Ġdisch arging
Ġhemidi agraph
duoden um
Ġmechan ically
focal ly
Ġbra ded
Ġbra vo
emphysema tous
Ġsuction ed
Ġoccasion al
Ġreli ant
Ġreli eve
Ġgu iding
Ġadm ix
Ġdegener ations
Ġimmunoc ompe
Ġcondu cting
Ġunde tected
Ġunde tectable
ocy toma
ographic s
Ġdiver ging
Ġinsuff lation
--___ .
Ġthrom bi
omal ity
Ġvent rolateral
Ġintersiti tial
Ġmamm oplasty
Ġmamm illation
Ġtooth br
Ġsen tence
Ġsen escent
Ġsen sipar
Ġrect rograde
Ġsection ing
Ġperif ascial
Ġendograft s
Ġhere after
Ġhere terogeneous
Ġcrowd in
Ġunderes timate
post operative
Ġdemarc ate
Ġdemarc ates
Ġdemarc ating
Ġred unc
Ġred emos
Ġ___-___ ,
Ġ___-___ .
Ġangi oplasty
Ġangi ographic
Ġmicro organ
ned ed
pel v
vent ral
Ġpn umonia
Ġpn umothorax
Ġpn uemonectomy
Ġascertain s
Ġget s
Ġjustif y
Ġpullback ed
Ġhemidiaph raph
Ġhemidiaph arm
Ġhemidiaph rams
Ġhemidiaph arag
Ġhemidiaph rags
Ġisol anted
Ġchem oradi
chronic ity
Ġtranspl anted
jejun ostomy
Ġmes iastinal
Ġparac entral
Ġthromb otic
Ġthromb ocytosis
Ġpi hilar
Ġpi eces
Ġdeb ility
Ġinfra pulmonary
Ġinfra renal
Ġinfra hi
Ġinfra glenoid
Ġgroup ing
Ġadjustment s
biop tic
bl unted
bl uting
Ġtil ts
Ġdesign ations
Ġhydropneumo thorx
Ġequivalent ly
sub diaphragmatic
sub pulmonic
sub stantially
Ġlate al
Ġlate ring
Ġlate arl
Ġlate net
Ġhypers entivity
Ġcannul as
Ġstraigh ter
Ġdistinction s
Ġestablish ment
ather osclerotic
Ġproportion s
Ġproportion ate
Ġexp edite
Ġcount ours
Ġamorph ic
Ġti ube
Ġti rangular
Ġti ype
retro esophageal
Ġsol ve
Ġsol ves
charac terization
tention al
Ġure ters
Ġure teropelvic
Ġdistrac tions
Ġtrun cus
Ġmyoc bacterial
Ġassymetric all
Ġinh erits
Ġantero septal
Ġfall s
Ġfall ing
Ġcheck s
Ġstrand like
Ġoverd istenion
mass like
Ġreoc mmended
Ġrapi diti
trache omalacia
Ġgenuine ly
Ġfla ps
Ġtrach ial
Ġtrach estomy
Ġarg ument
Ġneedle s
top enia
top arietal
Ġrh e
Ġrh ere
Ġrh onchi
Ġrh omboid
Ġau then
Ġau ricle
Ġopacif ity
Ġopacif action
Ġgastrojejun al
Ġhemat ologic
Ġhemat opneumothorax
Ġhemat ocyst
Ġhemat ologists
Ġflash ing
Ġreconstr ucted
Ġasperg ilus
Ġmediastin l
Ġmediastin am
Ġmediastin itis
Ġmediastin otomy
Ġappli es
Ġsyn apse
Ġrf esident
Ġrll l
Ġindirect ly
Ġpin ding
Ġpin point
Ġmel p
Ġsept ate
Ġsept ation
Ġsept member
Ġweight ing
Ġspon ges
Ġattendant s
Ġpurpose ful
Ġpurpose fully
Ġmimick ed
Ġpalp ating
Ġpalp itation
Ġpancreatic opleural
Ġyoung er
fi xation
titu te
Ġbr aces
Ġbr ush
Ġbic uspid
Ġsto pped
Ġappar opriate
Ġmod reate
Ġmod aerate
Ġdiaph gragm
Ġdiaph rams
Ġdiaph ragam
Ġham pered
Ġoccup ational
Ġpne unonia
Ġpne mothoraces
Ġpne iumonia
Ġther wise
ision s
Ġsight ly
Ġintraparenchymal ly
Ġdescri be
Ġdescri ptive
Ġmanag ing
Ġlabe ling
Ġadi ographs
Ġadi pous
Ġpate lla
Ġpate llar
Ġnotic es
Ġinver tal
Ġvol untary
Ġvol lumes
Ġchond rosis
Ġhemiarth roplasties
Ġ45 6
Ġmis diagn
Ġmis under
Ġmis directed
Ġmis interpretation
Ġdeterior ating
Ġdislo dgment
Ġinflu ent
Ġclot ted
Ġprom ised
Ġprom pted
Ġprom iment
Ġprom ient
Ġprom ience
Ġprom imance
Ġprom inece
Ġfix ators
Ġstrict ures
Ġcenter s
Ġdegenerate ive
Ġchallen ge
Ġchallen ged
Ġsigmoid ectomy
ioca udal
Ġpas te
Ġpulmon ry
Ġpulmon onary
Ġpulmon sry
Ġpulmon arty
Ġcr wo
Ġcr rt
Ġcr utches
Ġmac rondule
Ġconstitu ents
Ġopaciti ess
Ġopaciti fication
Ġascends to
Ġgyne cology
Ġperia pical
Ġspot ting
Ġcoex istence
Ġextravas ating
Ġmedication s
Ġsillou ete
Ġsillou het
00 9
gi htly
ng itis
rel atively
Ġcop ared
Ġcop ied
Ġcop ies
Ġcop ious
Ġtral li
Ġconsult ations
Ġdev loping
Ġpostero ir
Ġpostero basilar
nod ulation
Ġspe tember
Ġtwel ve
Ġindu ce
Ġnonde tectable
Ġequal s
Ġequal izatoin
Ġbicon cavity
Ġaid s
Ġspi king
Ġsqu arish
Ġnoon time
Ġfo v
iton al
Ġsligh ter
Ġsligh lt
Ġsligh ltly
inferior ly
Ġcoll inear
Ġcomplic ate
Ġcomplic atiosn
Ġtreat able
Ġgrav id
Ġgrav itating
Ġpenum athoraces
Ġencas ement
Ġresemble d
Ġdescription s
Ġacknowled gment
Ġpor jecting
Ġsaber sheath
Ġtal k
Ġfre quent
Ġfre actures
Ġdon ation
Ġcardiop umonary
Ġpneumoth ror
Ġpneumoth oax
Ġpneumoth races
oste otomy
oste onecrosis
oste ophytes
Ġappe als
verteb roplasties
trans venous
trans bronchial
trans cription
trans plant
Ġassure d
Ġunders ides
Ġabsol ve
Ġmanip ulating
Ġsternoman obrial
Ġ--? ?
Ġspiral ing
Ġsl ab
Ġsl anted
Ġsl ices
Ġsl gihtly
Ġfus ing
Ġfli oroscopically
Ġdd r
Ġdd ense
Ġvac ation
Ġvac ular
Ġvac ant
Ġvac ulature
Ġsta us
Ġsta be
Ġunch anges
Ġunch hanged
Ġselective ly
Ġcontrol ler
Ġinterruption s
Ġlift ing
Ġdiast ases
Ġcortic omed
Ġpoly chamber
Ġpoly ser
Ġpoly lobulated
Ġpoly arteri
Ġspecial ist
Ġeman ation
Ġstrip ed
Ġdiminish es
Ġinterpret able
Ġinterpret ted
Ġinterpret ations
inser t
Ġatelecat is
Ġsternomanub rioial
stent s
Ġstero tomy
Ġom ewhat
Ġom parison
Ġmoder al
Ġmoder atley
Ġmoder ste
Ġka was
Ġ40 1
Ġ40 4
Ġ40 9
Ġcooper ation
Ġprotrud e
deg raded
kin k
Ġ> >
Ġpp reciably
Ġcic atri
Ġlab ral
Ġlab ored
Ġlab rum
impro ving
Ġasy gous
Ġpatch ily
Ġpatch ier
Ġadvis ability
Ġ55 0
Ġcommunic ates
Ġrpo jects
Ġ#___ )
Ġ#___ ,
Ġhepat ocarcinoma
Ġhepat ohydro
Ġhepat obiliary
Ġhepat ofugal
super imposed
super ficial
Ġcrescent s
Ġinteres titial
Ġinfluen cing
Ġ\ \
accum ulate
Ġbac lofen
Ġwa it
Ġwa its
Ġwa ving
Ġwa iting
Ġwa veform
Ġtom ogram
Ġfu id
Ġvom itting
Ġuncom licated
Ġunco ided
Ġprote ction
Ġprote cting
Ġprote ctive
Ġsilhou ting
Ġsilhou ute
Ġsilhou ete
Ġprevi usly
Ġlimb s
Ġlimb us
Ġbutt ressing
Ġbutt resses
Ġdiscrimin ates
Ġlymphaden pathy
Ġlymphaden oap
Ġtaper s
Ġcicatric es
Ġdisproportion al
but terfly
Ġcll inical
Ġho oked
Ġho arse
Ġho ever
Ġfecal ization
Ġdub off
Ġrever sion
angi ogram
Ġsilou het
Ġsilou etter
Ġexer ting
Ġpersis dent
Ġrecover ing
Ġdefine te
Ġspong iosal
Ġ33 7
Ġoutward ly
Ġ52 1
Ġ52 3
Ġtransition al
Ġminim a
Ġminim imal
Ġminim arl
Ġesc aped
Ġesc ape
Ġesc aping
Ġincons tant
Ġwhee zes
superior ly
Ġallerg y
Ġscratch es
Ġml dly
Ġtable ts
Ġhes itant
Ġfun nel
Ġconver t
Ġdem and
Ġdem osn
Ġdem yel
Ġdem ostrates
Ġdem ographics
raph y
Ġapper as
Ġrare fied
Ġmodi fy
Ġga mma
Ġmedias tial
Ġperio hilar
curv ilinear
Ġpresuming ly
Ġspeck s
Ġsecret ory
sug gest
Ġmycobac terical
Ġburs ae
Ġredund ency
Ġpnu emina
Ġindiv idually
Ġaugment s
marked ly
Ġtrendelen berg
Ġcardiopul moonary
predomin ent
Ġsignficant ly
ae te
Ġsort ing
Ġincomp arison
Ġincomp atible
Ġincomp eten
Ġincomp atibility
Ġbuck ling
Ġconcent ration
Ġconcent rates
Ġvide ofluoroscopy
Ġornament al
physi ologically
Ġenhan cing
Ġfron tral
Ġfron atl
Ġfron toparietal
Ġpreferen tial
Ġalle ged
Ġalle geric
Ġgent le
Ġendoscop ically
Ġ27 0
Ġportacath eter
Ġportacath that
Ġparticul lary
Ġregular ity
Ġblank ets
Ġ42 4
Ġ42 7
Ġ42 8
Ġ43 1
Ġ43 9
Ġpulm omary
Ġpulm omonary
Ġpulm kany
Ġpulm nonary
Ġpulm omnary
Ġpulm olnary
Ġulcer s
Ġulcer ated
Ġtunnel s
electro lyte
dr s
fol ds
fol lowup
hr s
thes e
indic ating
Ġsear ched
Ġlu be
Ġlu gn
Ġlu xation
Ġlu gns
Ġlu ymph
lymph oma
lymph angiogram
Ġvas ulature
Ġvas ov
Ġvas cuature
Ġcharach teristic
Ġcharach terization
Ġatelectais is
Ġexc ite
Ġexc ision
Ġexl ude
Ġexperi ence
Ġposteri o
Ġposteri on
Ġalve oli
Ġcathe tera
Ġrespiration al
Ġhapp en
Ġhapp ens
Ġclass ical
Ġspoon in
Ġtes la
Ġtes ticular
Ġtether s
Ġbronchio vasculature
Ġbronchio les
Ġengor ment
Ġdraw back
deform ed
Ġgeom etry
Ġhydroneph rotic
Ġcircul atory
Ġhematogenous ly
Ġcigare t
cn ically
log y
ug ue
Ġthro acic
Ġsam ple
Ġeve ident
Ġeve idence
Ġmut ual
Ġmut lil
under lying
under penetrated
Ġaneur ymal
Ġoro enteric
Ġunrec overable
Ġopacific aiton
Ġaspi raiton
Ġcaud a
Ġcaud ad
Ġsubcu atneous
Ġsubcu raneous
Ġreced es
Ġ31 8
Ġ31 9
Ġrecomm mended
Ġrecomm neded
Ġtriang ulation
Ġtriang ulating
Ġtriang ulates
Ġtriang uar
Ġtriang luar
Ġperme ative
Ġfacil ities
Ġfacil itated
Ġfacil itates
Ġentra pment
Ġbrache ocepal
Ġsilhoutte ing
bre ath
ev acuation
eff acement
fir st
ius ly
rep air
rep resenting
Ġthresh olds
Ġcast s
Ġcast ing
Ġcast leman
Ġcere al
Ġcere bro
Ġmam illary
Ġwrist s
Ġanesthes iologist
anterior ly
Ġhome ostasis
Ġconc ering
Ġda ub
chi ari
Ġdeal ing
Ġprot uberant
Ġens itivity
Ġcontraindic ate
Ġcontraindic ation
Ġcontraindic ations
Ġinterrog ate
Ġinterrog ated
Ġovershadow ing
Ġdisro bing
Ġperis istence
Ġperis pinal
Ġperis itent
Ġperis capular
Ġdivision s
Ġweak er
Ġsubm ission
Ġrefel cts
Ġrecrud encen
Ġcalcif iation
Ġcalcif actions
Ġasses ed
external ly
Ġteh cnically
infar ct
infar cted
Ġ44 5
Ġdesaturation s
Ġcrown ded
Ġtransit ory
Ġsemis olid
Ġ75 0
Ġempt y
cons istent
cons lidation
cons oldiation
cons picuity
Ġtranspedic le
Ġepiglot tis
Ġasthmatic s
Ġbifid a
Ġneurolog ic
Ġneurolog ical
Ġrecons ider
Ġrecons idering
Ġpneu othorax
Ġpneu imonia
Ġunrecogn izable
Ġenviron ment
bul la
bul let
bul lous
base line
fill ing
hema togenous
my coplasma
my cetomas
Ġum changed
Ġum bar
Ġum remarkable
Ġaler t
Ġaler ts
Ġpare chnymal
Ġincre mental
Ġincre aed
Ġincre aesd
Ġbring ing
diaph ysis
Ġhar ware
Ġhar ness
Ġhar binger
Ġdressing s
Ġrecur s
Ġrecur ving
Ġrecur rance
Ġunchn ged
Ġcomm ence
Ġcomm uicated
Ġconstitution al
Ġopaci y
Ġopaci ities
Ġopaci thy
Ġprol iferation
Ġatelectas dis
Ġatelectas ias
Ġask ew
Ġtub r
Ġtub al
Ġtub ulated
Ġposter lateral
Ġposter omedially
Ġradiogr pha
Ġupp e
Ġupp en
Ġupp erexpanded
Ġups loping
Ġcadi opulmonay
Ġdiag rams
Ġdiag phram
Ġsubs quent
Ġsubs umed
Ġsubs tituted
Ġsubs emental
Ġsubs titute
Ġinfrac arinal
Ġimper ssion
Ġimper fect
Ġrepro ducible
Ġrepro duce
Ġrepro ducibility
Ġsugg gest
Ġsugg etsing
Ġsugg setive
Ġadmitted ly
Ġboarder s
Ġarr anged
Ġarr angement
Ġarrh ythm
Ġworsens ed
Ġworsens ing
Ġrecommed ations
Ġrecommed nation
Ġunderstand able
Ġaccident ally
Ġ50 6
Ġfilament s
Ġsupras ternal
week s
Ġ80 3
Ġ80 6
Ġ80 7
Ġ84 1
Ġ84 9
Ġincision al
Ġeffu isions
Ġirri tant
Ġirri gant
progres sed
progres sing
apparent ly
hyper inflated
Ġguide lines
Ġtib ia
Ġumbil icated
Ġdisconnection s
Ġcardiopulmon ery
Ġcardiopulmon ry
Ġlymphadenop aty
Ġauto infarcted
Ġconcord at
Ġwrong ly
Ġvoicemail s
?? ?
?? ?.
big uate
hn ged
met astases
rn ic
ser oma
vo ed
vessel s
Ġic reased
Ġaim s
Ġsid ze
Ġstead y
Ġlun ate
Ġlun ch
Ġlun cent
Ġlun cency
Ġisn piratory
Ġmar ble
Ġmar ied
acco unting
Ġante ior
Ġante grade
Ġante iror
Ġante cubital
Ġconven ed
Ġconven ience
Ġconven itonal
neuro logy
Ġwit n
Ġwit out
Ġwit pneumonia
Ġdri ft
Ġdanger ous
Ġva uge
Ġva wsc
Ġva ugue
Ġves icles
Ġplex us
Ġchoroid al
Ġstre acky
Ġstay s
Ġstring y
Ġunin tended
Ġunin tentional
Ġunrespon siveness
Ġconsisten ly
Ġprop agating
Ġsihouet tle
Ġasc ening
Ġasc vd
Ġforce ful
Ġalter ated
Ġalter hative
Ġcad riomediastinal
Ġdisce te
Ġdispal acement
Ġperim ediastinal
Ġdig it
Ġunremak rable
Ġhemost at
Ġreform ation
Ġreform ats
Ġfind in
Ġfind ins
Ġcari opulmonary
Ġcari omegaly
Ġcari omediastinal
Ġcari omediatinal
Ġparad oxic
Ġparagraph s
Ġtech ique
Ġwashou ts
Ġlocul ates
Ġlocul atio
Ġblo ating
Ġ53 1
Ġcoordin ation
Ġfulfill s
Ġ63 6
Ġapico ventral
Ġtraject ories
Ġ74 9
Ġgoal s
Ġavail abe
Ġgenerous ly
Ġmasqu ed
Ġemp ysema
Ġemp loying
Ġefffusion s
Ġmaneu vers
Ġarterios us
Ġcostochond aral
Ġneighb orhood
Ġlongitudin aly
hemo dialysis
Ġencroach ment
Ġexplo red
Ġfistul as
Ġfistul ization
Ġtherm oplasty
Ġlabel led
Ġmislabe ling
Ġmacro lobulated
Ġmacro scopic
Ġcoexist s
Ġcardiopulm ary
Ġcardiopulm omary
Ġcardiopulm noary
Ġcardiopulm osy
Ġ(#___ ),
Ġankyl osis
atelectatic s
Ġpneumoconi oses
Ġpreponder ant
60 2
cr ack
cost ochondral
do es
do bhoff
docum ented
gast roesophageal
non specific
non urgent
nur sing
tortu osity
Ġion izing
Ġarot opulmonary
Ġawa it
Ġawa ited
Ġawa iting
Ġcs n
Ġcos olidation
Ġcos trphrenic
Ġcos picuos
Ġcance llation
Ġcard omediastinal
Ġcard ki
Ġcard oomegaly
aran x
Ġsg c
Ġsg gesting
Ġsn ce
tian l
Ġna vel
Ġna vicular
Ġna vigates
Ġoth rwise
Ġove remphas
Ġinch es
Ġef ufsion
Ġeth iodiol
Ġeffus on
Ġequ ina
Ġmn imal
Ġmn ild
Ġmn inutes
Ġmu tiple
Ġmu uch
Ġmu ild
Ġmag lignant
Ġmail d
access ory
Ġbm i
Ġbm t
Ġbron coconcentric
Ġbron hcial
Ġbron vchi
Ġfen estrated
Ġfish er
Ġfish bone
Ġdress ler
Ġwithou g
Ġredist ributing
Ġchy lae
Ġbean th
Ġbeha vior
Ġcompu terized
Ġcompris ed
Ġdel toid
Ġdel iniate
Ġdel usional
Ġdecl ines
Ġprog ession
Ġprola psed
Ġatelecta asis
Ġcardiomed istainl
Ġcardiomedias tianl
Ġenfor cement
Ġascen dic
Ġascen dant
Ġascen idng
Ġextr aneous
Ġpositon ing
Ġabn omality
second ary
Ġprev ail
Ġprev ously
Ġalth ought
Ġsubdiaph gramatic
Ġrepos tioning
Ġrepos itined
Ġrepos itining
Ġjo ined
Ġrefect ing
Ġclam shell
Ġaddit on
Ġhyer tension
Ġhyer inflated
Ġhyer inflation
Ġsupersed ed
Ġsupersed es
Ġsupersed ing
Ġtee th
Ġart tery
Ġart fact
Ġart osclerosis
Ġmediast al
Ġmediast nal
Ġmediast onal
Ġcostro chondral
Ġcostoph rnic
Ġperih ilum
Ġperih ardware
Ġperih ialr
Ġpossibl le
Ġpossibl ity
Ġpossibl ities
Ġemphys esma
Ġinfilter ate
Ġassoci ate
Ġquarter ly
Ġinspect ing
Ġoutpouching s
Ġ54 3
Ġesophago intestinal
Ġesophago jejunostomy
Ġmeta astatic
Ġmeta diaphysis
Ġaccommo date
Ġswit ch
Ġswir led
Ġpheum othorax
Ġphleb ography
Ġcomplain s
Ġindis tict
intra venous
Ġneur omyelitis
Ġneur omas
Ġneur omuscular
Ġpronou ce
Ġopc acities
Ġ(~ ___%)
Ġparatrach ial
Ġplump ness
Ġplasm apheresis
pros thesis
project ing
Ġamput ated
Ġambig uity
Ġpyel ogram
multi level
Ġspiculation s
Ġlevosc liosis
Ġbroch us
Ġbroch oscopy
Ġbroch ograms
Ġquantit ative
Ġconnect ors
supp osedly
Ġcryptococ cosis
Ġguess es
Ġthrombocytop enic
Ġdebil itating
Ġinhib itor
Ġvolun teered
Ġpulmonar ial
Ġpulmonologist s
Ġclothes pin
Ġpersiste t
Ġpersiste net
Ġautom obile
Ġveterbra e
Ġopacificaties f
Ġsubcutan ous
Ġrecommmend ations
Ġcardiopulmonar ay
Ġstret ched
Ġparadox ical
Ġlaryng itis
Ġlaryng oscopy
Ġlaryng ospasm
Ġredistrub tion
Ġredistrub ution
Ġredistrub tution
Ġstaphylococ cal
Ġappointment clinical
Ġovercirc ulated
det ailed
det ails
epi gastric
fl agged
flu ctuating
hal f
hce al
last ing
last oma
nin th
sol uble
smo oth
tone al
tone um
tachy cardia
tachy pnea
via ular
Ġung s
Ġib p
Ġident is
Ġident ation
Ġay ering
Ġaz gy
Ġati ent
Ġati rum
Ġpf o
Ġpil low
Ġpil monary
Ġcj f
Ġcra ft
Ġcra zy
Ġcup ola
Ġsm v
Ġsm oldering
Ġsun cutaneous
Ġsun rise
Ġsic th
Ġsic ne
Ġspac ed
Ġspac ing
Ġot oscoliosis
enhan cing
Ġluc ulated
Ġluc ien
Ġismid esophagus
Ġintim a
Ġintim ately
Ġele veation
Ġele trodes
Ġelec rtro
Ġelec vation
Ġephysema tous
Ġment ally
Ġba ilar
Ġbus y
Ġbus iness
Ġbad ly
Ġbais ilar
Ġbais lar
Ġbcg osis
Ġtas te
Ġtas ked
Ġtang ent
Ġtang ible
Ġhowe ve
Ġhowe vere
Ġhinder s
Ġfresh ly
Ġconvol ution
Ġconvol uted
neo esophagus
Ġdumb bell
Ġdull ness
Ġvess e
Ġvess les
Ġlef ward
Ġchrac terized
Ġchrac terization
Ġtow el
Ġtow els
Ġtox ins
Ġtox emia
Ġtole rating
Ġtole rable
Ġpneumoper ioneum
Ġpneumoper toneum
Ġunm ask
Ġunm istak
Ġunn changed
Ġunn chaged
Ġsupper ior
Ġsupper imposed
Ġprox iaml
Ġatele lectasis
Ġatele lctasis
Ġatelectat is
Ġatelectat sis
Ġsiad h
Ġaty p
Ġaty ical
atri us
Ġenable s
Ġenvelop ed
Ġenvelop ing
Ġexem plified
Ġconsolidatin o
Ġposte olateral
Ġposte iror
Ġont ours
Ġbasial ar
tend on
tend inosis
Ġimrpo ved
Ġimrpo vement
Ġgag ging
Ġgrand ulomas
Ġperin atal
Ġperin odular
add endum
Ġligh ter
Ġligh tening
Ġdic ating
Ġdiv ides
Ġdiv iding
Ġdial ted
Ġapro priate
Ġapro ximately
Ġsubcl ass
Ġsubcl incal
irregular ity
Ġimpr ression
Ġimpr ssion
Ġimpres ion
Ġimpres soin
Ġimplement s
Ġimproper ly
Ġjan nu
Ġjan urary
Ġslig tly
Ġslig tlty
Ġobvi us
Ġobvi ate
Ġbibasial r
Ġshot gun
Ġterminat rd
Ġhaust ral
Ġhaust rations
Ġreflec tes
Ġreflec tiing
prim ary
prim arily
Ġinterstit um
Ġinterstit aial
Ġdeflect s
Ġdeflect ing
Ġscrut iny
Ġscrut inized
Ġclinc ally
Ġclinc ially
Ġsupero anteriorly
Ġnodu ular
Ġnodu oes
Ġacs ending
Ġactiv ate
Ġactiv ating
Ġarte y
Ġarte factual
Ġarri val
Ġarri ving
Ġarge ly
Ġhyperin lated
Ġhyperin tensity
Ġhypervascular ity
Ġrecomend ations
Ġfollic ular
Ġfollic les
Ġiod ine
Ġiod inated
Ġdrag ging
Ġdrawing s
Ġemphesema tous
Ġdeshis cence
Ġdeshis cences
Ġinsters tial
Ġinsters tiail
Ġlympho histiocytosis
Ġlympho hematogenous
Ġlymphno de
Ġlymphno des
Ġfissur raly
Ġnoncav itated
Ġnoncav itating
Ġhype remia
Ġhype remic
Ġhypoph arnx
Ġhypoph aranx
Ġhypovascular ity
Ġphsy siologic
Ġphsy iotherapy
Ġpredominan ly
Ġpredominan lty
Ġpuls ation
Ġpuls atility
Ġ114 7
Ġstudi e
Ġstudi y
Ġ72 2
Ġ72 9
Ġincres e
Ġincres ed
hair pin
Ġ(" ___;
Ġbull as
Ġbull us
Ġirrit ated
Ġirrit ating
Ġsupracla vian
Ġsupracla viaular
Ġhemato thorax
Ġdiscreet ly
projection al
Ġrestri cting
Ġrestri cts
Ġprio or
Ġaffective ly
Ġbilater la
Ġshell s
Ġbrochi ectasis
Ġbrochi olitis
Ġfibroaden oma
Ġfibroaden omas
Ġrepresnt s
Ġinterfac ing
Ġinterfac ial
Ġsublux ing
Ġsublux ations
Ġpurported ly
Ġsteak y
hyp opharynx
Ġ"___ ".
Ġcreatin ine
Ġcreatin ines
Ġhemidiag phragm
Ġhemidiag phram
Ġhemidiap ragm
Ġhemidiap ghram
Ġhemidiphragm s
Ġsillhou te
Ġsillhou ete
Ġimmunosuppressant s
Ġcollab se
Ġcollab orated
ĠĠĠĠĠĠĠĠ ĠĠĠĠ
Ġprevioius ly
Ġdemom strated
Ġdemom srated
Ġvascual r
Ġvascual ture
Ġexlcu ded
Ġexlcu de
reported ly
Ġincrement ally
Ġatelectasi is
Ġradiogrph ayically
Ġapproxiam ately
Ġapproxiam tely
Ġmarfan oid
Ġtrouble some
Ġfracut re
Ġfracut res
Ġsymetric al
confirm ation
Ġothwer ise
Ġothwer wise
Ġoveres timated
Ġoveres timate
Ġfenestration s
Ġprogess ed
Ġprogess ive
Ġabnorm aity
Ġabnorm ailty
Ġradiograh s
Ġemphysem etous
Ġsubcutane us
Ġsubcutane osu
Ġauscult ation
Ġauscult atory
Ġunclamp ed
Ġunclamp ing
Ġasplen ic
Ġasplen ia
Ġsympath ectomy
Ġsympath etic
aort a
avi dity
bur sitis
cra tic
cran iocaudal
cpon solidation
dex trosc
dys pnea
eate n
emal y
epig astrium
fu id
fung al
fem oral
fragm ent
fail ure
flat tening
fiduc ial
gran ulomatous
gyne comastia
hor izontal
hern ia
humer us
homogen ously
honeycom bing
max imum
morg agni
mill imetric
meas uring
mosa ic
oagul ant
pulmon ologist
pag etoid
path ologic
punct ate
qaph ically
sti ll
sil houetting
sem i
sli ver
stern oclavicular
saf ety
tub ing
typical ly
wet read
ycl ic
Ġil ll
Ġgh ost
Ġult rafiltration
Ġides pread
Ġaac centuated
Ġail ment
Ġaro to
Ġali ve
Ġaure us
Ġaunt s
Ġazy os
Ġathe orsclerotic
Ġaof worsening
Ġarit fact
Ġakl though
Ġathlete s
instr umentation
indist inctness
inlf ation
reach ing
repe at
Ġthar upper
Ġthread ed
Ġpti ot
Ġped al
Ġpum onry
Ġpoc ess
Ġpati en
Ġpine al
Ġpric kly
Ġpvc s
Ġpso as
Ġpatic ularly
Ġpub ic
Ġpurg ed
Ġpancy topenia
Ġpep tic
Ġparency mal
Ġppneumo thorac
Ġphot ons
Ġpolic yclic
Ġcis terna
Ġcas ings
Ġcne tral
Ġcour rier
Ġcoul s
Ġcric opharynge
Ġcvic u
Ġcove xity
arat racheal
tele phone
Ġsed ond
Ġsou ce
Ġshou le
Ġsoc ial
Ġsad dle
Ġsoph isticated
Ġsond e
Ġsymm etic
Ġsteri le
Ġsamp led
isti bution
orig in
orthope adic
Ġnto ed
Ġnerv ous
Ġnfil trate
Ġntra peritoneal
Ġnsa ogastric
Ġocu ppying
Ġoop s
Ġoup le
Ġochron osis
Ġotehr wise
Ġlol wer
Ġlang uage
Ġlame llated
Ġlbo e
Ġlng s
Ġlkie ly
Ġisun remarkable
Ġnoat vbly
Ġnopne mergent
Ġnosoc omial
Ġnotitif ication
Ġince ased
Ġinder terminate
Ġinif iltrate
Ġintr udes
Ġinding s
Ġincl uide
Ġinsi ratory
Ġinqu iry
Ġinex orably
Ġinsis ted
Ġinimal ly
Ġinsip ration
Ġintrins ically
Ġingu inal
Ġinaccess ible
Ġinespec ific
Ġepp ars
Ġela psed
Ġeinf eiror
Ġeig th
Ġelo esser
Ġebs tein
Ġmro e
Ġmct d
Ġmast opex
Ġmort ise
Ġmeg acol
Ġmir roring
Ġmening ioma
Ġmys terious
ridi form
rict ube
accentu ation
Ġban ded
Ġbou leus
Ġbud d
Ġblac k
Ġbru ising
Ġbab asilar
Ġbill roth
Ġbank hart
Ġbrac e
Ġbrow n
Ġburi ed
Ġbrief ly
Ġwpr king
diff icult
dict ating
dimension al
Ġanormal ities
Ġanten atal
Ġanaly ses
Ġantic oagulant
Ġanond istended
Ġantim icrob
Ġantil ordotic
Ġanindic ation
Ġtour tous
Ġtard a
Ġtors os
Ġtamp ondade
Ġtortun osity
Ġtrot uous
Ġtons illar
anat omic
Ġheral d
Ġhorses hoe
Ġarehyp erexpanded
Ġfati gue
Ġfow ard
Ġfss ural
Ġfab ric
Ġfam ily
Ġflec ks
Ġffusion s
Ġrighth ydro
Ġconos oidation
Ġconder ning
Ġconcre n
Ġconds olidation
Ġconge tion
Ġconcer t
Ġconves ity
Ġconni ventes
Ġconlf uent
necess ary
[...]
