{"<s>":0,"<pad>":1,"</s>":2,"<unk>":3,"<mask>":4,"!":5,"\"":6,"#":7,"$":8,"%":9,"&":10,"'":11,"(":12,")":13,"*":14,"+":15,",":16,"-":17,".":18,"/":19,"0":20,"1":21,"2":22,"3":23,"4":24,"5":25,"6":26,"7":27,"8":28,"9":29,":":30,";":31,"<":32,"=":33,">":34,"?":35,"@":36,"A":37,"B":38,"C":39,"D":40,"E":41,"F":42,"G":43,"H":44,"I":45,"J":46,"K":47,"L":48,"M":49,"N":50,"O":51,"P":52,"Q":53,"R":54,"S":55,"T":56,"U":57,"V":58,"W":59,"X":60,"Y":61,"Z":62,"[":63,"\\":64,"]":65,"^":66,"_":67,"`":68,"a":69,"b":70,"c":71,"d":72,"e":73,"f":74,"g":75,"h":76,"i":77,"j":78,"k":79,"l":80,"m":81,"n":82,"o":83,"p":84,"q":85,"r":86,"s":87,"t":88,"u":89,"v":90,"w":91,"x":92,"y":93,"z":94,"{":95,"|":96,"}":97,"~":98,"¡":99,"¢":100,"£":101,"¤":102,"¥":103,"¦":104,"§":105,"¨":106,"©":107,"ª":108,"«":109,"¬":110,"®":111,"¯":112,"°":113,"±":114,"²":115,"³":116,"´":117,"µ":118,"¶":119,"·":120,"¸":121,"¹":122,"º":123,"»":124,"¼":125,"½":126,"¾":127,"¿":128,"À":129,"Á":130,"Â":131,"Ã":132,"Ä":133,"Å":134,"Æ":135,"Ç":136,"È":137,"É":138,"Ê":139,"Ë":140,"Ì":141,"Í":142,"Î":143,"Ï":144,"Ð":145,"Ñ":146,"Ò":147,"Ó":148,"Ô":149,"Õ":150,"Ö":151,"×":152,"Ø":153,"Ù":154,"Ú":155,"Û":156,"Ü":157,"Ý":158,"Þ":159,"ß":160,"à":161,"á":162,"â":163,"ã":164,"ä":165,"å":166,"æ":167,"ç":168,"è":169,"é":170,"ê":171,"ë":172,"ì":173,"í":174,"î":175,"ï":176,"ð":177,"ñ":178,"ò":179,"ó":180,"ô":181,"õ":182,"ö":183,"÷":184,"ø":185,"ù":186,"ú":187,"û":188,"ü":189,"ý":190,"þ":191,"ÿ":192,"Ā":193,"ā":194,"Ă":195,"ă":196,"Ą":197,"ą":198,"Ć":199,"ć":200,"Ĉ":201,"ĉ":202,"Ċ":203,"ċ":204,"Č":205,"č":206,"Ď":207,"ď":208,"Đ":209,"đ":210,"Ē":211,"ē":212,"Ĕ":213,"ĕ":214,"Ė":215,"ė":216,"Ę":217,"ę":218,"Ě":219,"ě":220,"Ĝ":221,"ĝ":222,"Ğ":223,"ğ":224,"Ġ":225,"ġ":226,"Ģ":227,"ģ":228,"Ĥ":229,"ĥ":230,"Ħ":231,"ħ":232,"Ĩ":233,"ĩ":234,"Ī":235,"ī":236,"Ĭ":237,"ĭ":238,"Į":239,"į":240,"İ":241,"ı":242,"Ĳ":243,"ĳ":244,"Ĵ":245,"ĵ":246,"Ķ":247,"ķ":248,"ĸ":249,"Ĺ":250,"ĺ":251,"Ļ":252,"ļ":253,"Ľ":254,"ľ":255,"Ŀ":256,"ŀ":257,"Ł":258,"ł":259,"Ń":260,"th":261,"Ġa":262,"on":263,"in":264,"re":265,"Ġth":266,"al":267,"Ġp":268,"Ġthe":269,"Ġc":270,"ar":271,"te":272,"le":273,"Ġs":274,"is":275,"or":276,"ti":277,"Ġn":278,"ed":279,"Ġo":280,"en":281,"as":282,"Ġl":283,"Ġis":284,"Ġno":285,"er":286,"es":287,"Ġin":288,"Ġe":289,"Ġm":290,"ri":291,"ac":292,"Ġb":293,"un":294,"us":295,"Ġof":296,"il":297,"Ġw":298,"di":299,"ul":300,"om":301,"Ġan":302,"tion":303,"ral":304,"um":305,"Ġt":306,"an":307,"gh":308,"Ġand":309,"ate":310,"Ġh":311,"Ġare":312,"id":313,"ght":314,"Ġf":315,"mal":316,"ic":317,"Ġri":318,"ion":319,"Ġcon":320,"ff":321,"ing":322,"Ġright":323,"ne":324,"neum":325,"__":326,"Ġpneum":327,"Ġwi":328,"ly":329,"ffus":330,"Ġd":331,"Ġv":332,"Ġle":333,"Ġwith":334,"Ġthere":335,"ffusion":336,"ro":337,"Ġeffusion":338,"ra":339,"ardi":340,"Ġple":341,"ural":342,"ung":343,"Ġlung":344,"Ġpleural":345,"ou":346,"Ġre":347,"mon":348,"Ġcardi":349,"ft":350,"ent":351,"ation":352,"Ġleft":353,"Ġch":354,"ary":355,"ol":356,"Ġto":357,"ct":358,"thor":359,"ulmon":360,"ulmonary":361,"em":362,"Ġlo":363,"ax":364,"it":365,"ormal":366,"Ġst":367,"thorax":368,"ast":369,"Ġpneumo":370,"Ġpneumothorax":371,"ter":372,"Ġor":373,"ang":374,"edi":375,"ch":376,"pp":377,"ph":378,"os":379,"Ġun":380,"astin":381,"ediastin":382,"ear":383,"Ġpulmonary":384,"ble":385,"Ġse":386,"be":387,"est":388,"ediastinal":389,"Ġnormal":390,"pac":391,"ce":392,"ve":393,"Ġcom":394,"Ġbe":395,"lect":396,"Ġcons":397,"___":398,"Ġ___":399,"im":400,"res":401,"Ġcomp":402,"Ġopac":403,"able":404,"ous":405,"ilar":406,"Ġchest":407,"Ġde":408,"ateral":409,"cu":410,"Ġsu":411,"Ġpro":412,"ema":413,"Ġlow":414,"ity":415,"et":416,"Ġate":417,"Ġatelect":418,"Ġsi":419,"asis":420,"anged":421,"Ġatelectasis":422,"Ġcardiom":423,"Ġat":424,"ew":425,"Ġacu":426,"at":427,"Ġacute":428,"changed":429,"Ġunchanged":430,"Ġseen":431,"Ġmil":432,"Ġmild":433,"Ġen":434,"Ġas":435,"Ġsil":436,"hou":437,"Ġed":438,"houet":439,"Ġsilhouet":440,"Ġedema":441,"Ġsilhouette":442,"Ġex":443,"olid":444,"Ġconsolid":445,"Ġconsolidation":446,"Ġapp":447,"oc":448,"Ġtu":449,"og":450,"iden":451,"Ġlungs":452,"Ġpos":453,"ular":454,"der":455,"are":456,"ia":457,"Ġtube":458,"Ġcont":459,"ain":460,"Ġon":461,"Ġcle":462,"ze":463,"our":464,"ver":465,"Ġsize":466,"Ġclear":467,"op":468,"ocal":469,"Ġbas":470,"Ġra":471,"Ġpneumon":472,"ess":473,"Ġab":474,"eart":475,"Ġheart":476,"Ġpneumonia":477,"Ġmo":478,"Ġfr":479,"Ġev":480,"if":481,"ati":482,"ud":483,"Ġradi":484,"Ġmediastinal":485,"ten":486,"Ġfocal":487,"arg":488,"iti":489,"ort":490,"ogra":491,"ated":492,"asc":493,"ours":494,"ograph":495,"Ġsmal":496,"Ġradiograph":497,"ities":498,"Ġcardiac":499,"rior":500,"Ġinter":501,"Ġlower":502,"ted":503,"Ġsmall":504,"cre":505,"Ġhas":506,"Ġvasc":507,"Ġu":508,"creas":509,"ow":510,"ared":511,"Ġcontours":512,"derate":513,"Ġeviden":514,"Ġevidence":515,"se":516,"olum":517,"Ġcardiomediastinal":518,"Ġstable":519,"Ġcompared":520,"Ġvolum":521,"Ġlateral":522,"Ġchang":523,"Ġmoderate":524,"vi":525,"Ġpre":526,"ilateral":527,"ine":528,"Ġbilateral":529,"Ġappear":530,"li":531,"Ġim":532,"Ġover":533,"Ġeffusions":534,"ach":535,"Ġprior":536,"tr":537,"Ġvi":538,"Ġopacity":539,"cess":540,"pper":541,"Ġview":542,"Ġlobe":543,"Ġupper":544,"tial":545,"ific":546,"Ġhilar":547,"Ġprocess":548,"normal":549,"ark":550,"tip":551,"opulmonary":552,"Ġcardiopulmonary":553,"Ġfor":554,"ay":555,"ges":556,"ition":557,"Ġvascular":558,"ical":559,"Ġincreas":560,"Ġstud":561,"Ġstudy":562,"Ġvolumes":563,"resent":564,"Ġal":565,"Ġca":566,"Ġopacities":567,"Ġabnormal":568,"Ġg":569,"vious":570,"Ġdis":571,"Ġper":572,"ke":573,"ad":574,"Ġprevious":575,"aly":576,"Ġposition":577,"ement":578,"ther":579,"ut":580,"Ġli":581,"Ġdi":582,"Ġap":583,"ure":584,"ib":585,"tent":586,"Ġtip":587,"Ġwe":588,"Ġrem":589,"oul":590,"ag":591,"eg":592,"ric":593,"egaly":594,"Ġcardiomegaly":595,"larg":596,"Ġwh":597,"Ġlike":598,"ding":599,"Ġenlarg":600,"Ġwithin":601,"Ġlikely":602,"act":603,"ant":604,"Ġsub":605,"Ġmid":606,"Ġint":607,"ould":608,"Ġnot":609,"ved":610,"gm":611,"val":612,"ures":613,"min":614,"ided":615,"Ġnew":616,"Ġnoted":617,"Ġinf":618,"ue":619,"ec":620,"Ġconges":621,"tif":622,"cl":623,"rem":624,"Ġ1":625,"ini":626,"Ġcompar":627,"ison":628,"Ġcomparison":629,"arkable":630,"ir":631,"Ġbase":632,"Ġag":633,"Ġ___.":634,"Ġlim":635,"Ġbut":636,"Ġunrem":637,"Ġunremarkable":638,"ied":639,"out":640,"Ġimp":641,"ragm":642,"aph":643,"Ġcongestion":644,"Ġchange":645,"its":646,"aphragm":647,"Ġhem":648,"Ġend":649,"Ġ___,":650,"lac":651,"Ġagain":652,"Ġfrom":653,"eter":654,"acic":655,"Ġimpro":656,"Ġbeen":657,"ll":658,"Ġinterval":659,"atient":660,"Ġos":661,"Ġpatient":662,"ost":663,"Ġincreased":664,"ification":665,"ron":666,"per":667,"ich":668,"Ġwhich":669,"istent":670,"Ġthis":671,"Ġosse":672,"Ġhemi":673,"Ġosseous":674,"Ġmay":675,"Ġwithout":676,"low":677,"Ġlarg":678,"Ġrep":679,"Ġj":680,"Ġsin":681,"ect":682,"Ġcath":683,"Ġcatheter":684,"ache":685,"tal":686,"Ġsli":687,"Ġslight":688,"Ġthor":689,"Ġair":690,"Ġviews":691,"ting":692,"ru":693,"Ġlimits":694,"Ġ2":695,"chy":696,"gn":697,"Ġother":698,"Ġob":699,"Ġsince":700,"Ġstru":701,"Ġstruct":702,"Ġenlarged":703,"Ġline":704,"ibas":705,"Ġbibas":706,"tic":707,"no":708,"str":709,"clud":710,"Ġsug":711,"Ġstructures":712,"Ġsh":713,"Ġpresent":714,"Ġremain":715,"ss":716,"Ġres":717,"ates":718,"ded":719,"Ġbibasilar":720,"Ġexa":721,"Ġabnormality":722,"sided":723,"termin":724,"Ġlarge":725,"diaphragm":726,"Ġtermin":727,"Ġdemon":728,"Ġcould":729,"Ġplac":730,"ual":731,"Ġwell":732,"vc":733,"si":734,"Ġha":735,"Ġcm":736,"Ġmini":737,"Ġref":738,"Ġminimal":739,"Ġsvc":740,"Ġinters":741,"Ġpers":742,"Ġdemonstr":743,"Ġrec":744,"Ġhemidiaphragm":745,"Ġpa":746,"ren":747,"Ġport":748,"pri":749,"Ġintersti":750,"ative":751,"Ġchanges":752,"Ġcl":753,"Ġinterstitial":754,"ance":755,"Ġfin":756,"Ġsign":757,"Ġad":758,"identif":759,"Ġct":760,"Ġidentif":761,"Ġthoracic":762,"Ġproj":763,"Ġdue":764,"Ġfinding":765,"Ġidentified":766,"lev":767,"Ġimproved":768,"ration":769,"Ġtr":770,"Ġopacification":771,"all":772,"not":773,"Ġby":774,"Ġappro":775,"ern":776,"oph":777,"omy":778,"vel":779,"Ġcal":780,"omin":781,"Ġslightly":782,"aren":783,"Ġappearance":784,"Ġdef":785,"tro":786,"Ġstom":787,"Ġstomach":788,"Ġrepresent":789,"vic":790,"acheal":791,"Ġaort":792,"Ġreflect":793,"Ġfract":794,"ur":795,"Ġinfec":796,"ction":797,"Ġcalc":798,"Ġaorta":799,"Ġexclud":800,"Ġfindings":801,"Ġrib":802,"Ġproject":803,"ontal":804,"Ġabnormalities":805,"ise":806,"Ġfrontal":807,"pi":808,"ist":809,"Ġradiographs":810,"Ġhave":811,"Ġpic":812,"Ġretro":813,"wise":814,"Ġotherwise":815,"Ġsp":816,"Ġendo":817,"cardi":818,"tially":819,"Ġwor":820,"pan":821,"ature":822,"ard":823,"so":824,"ough":825,"cardiac":826,"one":827,"tracheal":828,"Ġsc":829,"Ġendotracheal":830,"Ġretrocardiac":831,"Ġconsistent":832,"Ġass":833,"age":834,"Ġpost":835,"Ġcar":836,"gest":837,"Ġsuggest":838,"astric":839,"Ġclin":840,"Ġalso":841,"Ġclinical":842,"ree":843,"Ġmore":844,"lu":845,"Ġbasilar":846,"Ġhy":847,"Ġbo":848,"Ġcent":849,"Ġvascul":850,"Ġcentral":851,"Ġdecreas":852,"Ġvasculature":853,"tan":854,"Ġven":855,"Ġpar":856,"Ġcarin":857,"ove":858,"sion":859,"Ġbases":860,"ase":861,"iz":862,"Ġabove":863,"Ġthan":864,"Ġwere":865,"cern":866,"Ġmildly":867,"Ġintact":868,"Ġconcern":869,"qu":870,"arenchy":871,"Ġappears":872,"ex":873,"ening":874,"Ġpr":875,"Ġparenchy":876,"tain":877,"Ġpromin":878,"Ġsim":879,"lying":880,"Ġpicc":881,"Ġsom":882,"Ġsuper":883,"Ġvis":884,"Ġsimilar":885,"Ġnod":886,"ediastinum":887,"Ġreg":888,"Ġsignific":889,"piration":890,"owe":891,"ogastric":892,"Ġster":893,"Ġterminates":894,"ide":895,"ab":896,"Ġcan":897,"lated":898,"Ġdevic":899,"Ġlead":900,"Ġcarina":901,"ronch":902,"Ġsignificant":903,"nal":904,"Ġmost":905,"Ġremo":906,"Ġinfection":907,"tained":908,"Ġremains":909,"vere":910,"Ġmul":911,"Ġsur":912,"Ġexam":913,"Ġbelow":914,"Ġregion":915,"Ġends":916,"Ġac":917,"Ġpac":918,"Ġchron":919,"Ġobtained":920,"Ġk":921,"Ġte":922,"Ġexten":923,"Ġexcluded":924,"unction":925,"ized":926,"tle":927,"Ġdise":928,"Ġdisease":929,"Ġchronic":930,"Ġprob":931,"Ġapical":932,"Ġsilhouettes":933,"Ġsevere":934,"terior":935,"ys":936,"Ġfree":937,"ably":938,"Ġmark":939,"Ġatri":940,"ring":941,"gular":942,"ence":943,"owever":944,"Ġhowever":945,"Ġnas":946,"Ġpersistent":947,"Ġintra":948,"Ġar":949,"erative":950,"Ġpat":951,"Ġvenous":952,"Ġparenchymal":953,"Ġnasogastric":954,"Ġwors":955,"Ġmediastinum":956,"ath":957,"Ġspine":958,"ortu":959,"Ġtortu":960,"la":961,"Ġjunction":962,"Ġdiff":963,"mph":964,"luid":965,"Ġprov":966,"red":967,"Ġconcerning":968,"Ġlin":969,"Ġju":970,"Ġaspiration":971,"sive":972,"tive":973,"Ġbronch":974,"inite":975,"Ġdefinite":976,"Ġresol":977,"Ġbon":978,"stan":979,"Ġhyper":980,"Ġelev":981,"Ġcor":982,"priate":983,"Ġappropriate":984,"Ġenlargement":985,"el":986,"Ġvisual":987,"Ġ3":988,"Ġthat":989,"Ġver":990,"ass":991,"Ġplacement":992,"ortic":993,"panded":994,"Ġjugular":995,"Ġportable":996,"men":997,"Ġprovided":998,"Ġear":999,"ong":1000,"ps":1001,"Ġpatchy":1002,"Ġwas":1003,"gen":1004,"Ġfluid":1005,"Ġrecom":1006,"Ġrecommen":1007,"ication":1008,"Ġvolume":1009,"ced":1010,"Ġvisualized":1011,"Ġet":1012,"Ġsubstan":1013,"Ġif":1014,"ating":1015,"notomy":1016,"inf":1017,"Ġsternotomy":1018,"Ġaortic":1019,"Ġtop":1020,"line":1021,"Ġdecreased":1022,"ven":1023,"Ġmedi":1024,"Ġunder":1025,"Ġatrium":1026,"Ġgro":1027,"Ġbet":1028,"thoracic":1029,"Ġsome":1030,"Ġimprov":1031,"Ġset":1032,"Ġimag":1033,"Ġrecent":1034,"entric":1035,"Ġexamin":1036,"Ġsetting":1037,"and":1038,"Ġexamination":1039,"Ġbony":1040,"renic":1041,"atic":1042,"pright":1043,"Ġassess":1044,"ophrenic":1045,"ment":1046,"hilar":1047,"Ġfracture":1048,"Ġprojecting":1049,"Ġcost":1050,"Ġintrathoracic":1051,"Ġabd":1052,"Ġcalcification":1053,"Ġperi":1054,"Ġlevel":1055,"Ġsupp":1056,"org":1057,"ens":1058,"though":1059,"Ġventric":1060,"Ġeng":1061,"Ġalthough":1062,"Ġdevices":1063,"Ġengorg":1064,"Ġcannot":1065,"Ġscar":1066,"ffuse":1067,"Ġdiffuse":1068,"Ġoverall":1069,"Ġnow":1070,"iated":1071,"Ġsupport":1072,"Ġareas":1073,"Ġgross":1074,"inu":1075,"Ġloc":1076,"pace":1077,"Ġpres":1078,"own":1079,"ail":1080,"sible":1081,"ution":1082,"pos":1083,"Ġplace":1084,"order":1085,"Ġacc":1086,"ult":1087,"Ġborder":1088,"Ġcostophrenic":1089,"Ġincrease":1090,"Ġdr":1091,"Ġcli":1092,"Ġfol":1093,"Ġboth":1094,"atus":1095,"Ġdemonstrated":1096,"Ġdiaphragm":1097,"Ġlinear":1098,"iss":1099,"Ġfractures":1100,"Ġinternal":1101,"Ġi":1102,"ified":1103,"Ġrelev":1104,"Ġrelevant":1105,"Ġit":1106,"Ġbetter":1107,"ior":1108,"aces":1109,"rec":1110,"Ġwires":1111,"pec":1112,"Ġeval":1113,"Ġclips":1114,"Ġevalu":1115,"esoph":1116,"Ġmon":1117,"Ġhyperinf":1118,"Ġhil":1119,"Ġstatus":1120,"Ġang":1121,"Ġscarring":1122,"Ġpersist":1123,"Ġprobably":1124,"Ġstand":1125,"Ġcav":1126,"Ġcol":1127,"Ġstandard":1128,"Ġrel":1129,"Ġfollow":1130,"Ġgrossly":1131,"Ġpossible":1132,"bes":1133,"Ġhe":1134,"nown":1135,"ately":1136,"Ġtrache":1137,"orm":1138,"ond":1139,"Ġmonit":1140,"Ġwall":1141,"Ġapprec":1142,"velop":1143,"Ġcontinu":1144,"Ġcalcified":1145,"oring":1146,"Ġexpanded":1147,"omen":1148,"Ġangle":1149,"Ġpreviously":1150,"Ġdevelop":1151,"Ġcontour":1152,"Ġabdomen":1153,"Ġremoved":1154,"Ġknown":1155,"Ġovert":1156,"Ġupright":1157,"Ġimaged":1158,"ig":1159,"Ġmonitoring":1160,"Ġimprovement":1161,"Ġsugges":1162,"Ġtortuous":1163,"Ġdegen":1164,"Ġelevation":1165,"ak":1166,"que":1167,"Ġleads":1168,"Ġdegenerative":1169,"sib":1170,"Ġpossib":1171,"Ġlit":1172,"Ġlittle":1173,"Ġobs":1174,"Ġdra":1175,"ule":1176,"Ġunderlying":1177,"rib":1178,"Ġemph":1179,"ysema":1180,"Ġnodule":1181,"Ġloss":1182,"rial":1183,"Ġsurg":1184,"Ġearli":1185,"Ġprominent":1186,"Ġemphysema":1187,"xim":1188,"Ġbasal":1189,"Ġdrain":1190,"Ġearlier":1191,"Ġapproxim":1192,"Ġnotif":1193,"ater":1194,"Ġposterior":1195,"Ġterminating":1196,"space":1197,"Ġbl":1198,"Ġairspace":1199,"Ġapproximately":1200,"ick":1201,"Ġdemonstrate":1202,"Ġro":1203,"Ġnotification":1204,"ally":1205,"Ġwould":1206,"Ġthick":1207,"impos":1208,"Ġsuperimpos":1209,"Ġpo":1210,"Ġdistal":1211,"Ġdisc":1212,"Ġsing":1213,"Ġsingle":1214,"Ġcours":1215,"Ġcorre":1216,"Ġmarking":1217,"Ġdete":1218,"cen":1219,"Ġprominence":1220,"Ġgre":1221,"mo":1222,"unting":1223,"Ġthough":1224,"Ġmarkings":1225,"Ġcompres":1226,"Ġsuperimposed":1227,"ugh":1228,"Ġgi":1229,"cla":1230,"Ġworsening":1231,"Ġinfil":1232,"Ġ4":1233,"eous":1234,"ker":1235,"Ġtele":1236,"Ġteleph":1237,"ds":1238,"Ġperihilar":1239,"emaker":1240,"Ġsubstantial":1241,"vian":1242,"clavian":1243,"Ġsubclavian":1244,"Ġthickening":1245,"Ġpacemaker":1246,"Ġprojects":1247,"rough":1248,"Ġmedian":1249,"Ġgreater":1250,"Ġdes":1251,"Ġcompati":1252,"Ġcompatible":1253,"Ġoverlying":1254,"Ġdiffic":1255,"Ġadv":1256,"Ġgiven":1257,"osis":1258,"Ġalong":1259,"Ġdifficult":1260,"Ġtelephone":1261,"tiple":1262,"Ġmultiple":1263,"mm":1264,"Ġhyperinflated":1265,"jac":1266,"jacent":1267,"Ġthrough":1268,"cted":1269,"lation":1270,"Ġconf":1271,"am":1272,"Ġarea":1273,"Ġshould":1274,"ory":1275,"Ġadjacent":1276,"Ġblunting":1277,"Ġobscu":1278,"Ġng":1279,"Ġso":1280,"Ġresid":1281,"Ġente":1282,"rent":1283,"Ġbilaterally":1284,"ere":1285,"Ġmass":1286,"Ġdens":1287,"Ġrelative":1288,"Ġassoc":1289,"Ġinto":1290,"Ġsti":1291,"Ġside":1292,"Ġpersists":1293,"Ġqu":1294,"Ġassociated":1295,"Ġsuperior":1296,"Ġhi":1297,"Ġesoph":1298,"Ġextent":1299,"Ġinfiltr":1300,"dle":1301,"Ġventricle":1302,"Ġenteric":1303,"plac":1304,"lete":1305,"Ġmiddle":1306,"to":1307,"Ġdetected":1308,"atrial":1309,"Ġsubse":1310,"Ġtrac":1311,"Ġij":1312,"oatrial":1313,"Ġcolla":1314,"Ġcalcifications":1315,"Ġstill":1316,"sis":1317,"Ġfur":1318,"Ġfurther":1319,"Ġsigns":1320,"Ġinclud":1321,"Ġcro":1322,"Ġcavoatrial":1323,"ĠĠ":1324,"tant":1325,"Ġconstant":1326,"Ġins":1327,"Ġwiden":1328,"Ġdo":1329,"Ġdisplac":1330,"sed":1331,"Ġve":1332,"Ġextensive":1333,"eed":1334,"eral":1335,"Ġresidual":1336,"Ġany":1337,"Ġchanged":1338,"vasc":1339,"Ġvein":1340,"tail":1341,"vascular":1342,"Ġcur":1343,"'s":1344,"Ġmoderately":1345,"ened":1346,"Ġborderline":1347,"Ġday":1348,"led":1349,"Ġsuggesting":1350,"Ġout":1351,"Ġrecommend":1352,"Ġsurgical":1353,"cath":1354,"Ġtiss":1355,"Ġexclude":1356,"Ġrecommended":1357,"ymm":1358,"isting":1359,"ymmet":1360,"Ġless":1361,"lo":1362,"ewh":1363,"Ġsuggestive":1364,"Ġimage":1365,"Ġhila":1366,"Ġsurf":1367,"reak":1368,"Ġsever":1369,"Ġresolved":1370,"ostomy":1371,"Ġdemonstrates":1372,"Ġapex":1373,"Ġstreak":1374,"dy":1375,"Ġfi":1376,"Ġcomb":1377,"Ġtubes":1378,"Ġengorgement":1379,"Ġcontinued":1380,"Ġcombin":1381,"pected":1382,"chn":1383,"Ġits":1384,"Ġresolution":1385,"Ġtechn":1386,"Ġdiffe":1387,"Ġpositioning":1388,"Ġtrace":1389,"ade":1390,"____":1391,"Ġadvan":1392,"Ġanterior":1393,"dist":1394,"Ġ5":1395,"Ġconsolidations":1396,"Ġhemithorax":1397,"Ġpacer":1398,"Ġbody":1399,"Ġaer":1400,"usion":1401,"dition":1402,"Ġpartially":1403,"Ġworsened":1404,"ovascular":1405,"pse":1406,"Ġcrow":1407,"Ġsurfaces":1408,"Ġmade":1409,"Ġsoft":1410,"Ġsubtle":1411,"Ġcollapse":1412,"Ġthese":1413,"Ġdensity":1414,"ortion":1415,"Ġdisplaced":1416,"tious":1417,"ore":1418,"Ġinfectious":1419,"Ġshow":1420,"Ġevaluation":1421,"Ġlarger":1422,"ering":1423,"Ġrelatively":1424,"Ġcrowding":1425,"Ġnodular":1426,"Ġbronchovascular":1427,"Ġtracheostomy":1428,"Ġz":1429,"Ġfil":1430,"up":1431,"Ġdecrease":1432,"Ġcomplete":1433,"existing":1434,"Ġremoval":1435,"ub":1436,"unt":1437,"Ġaddition":1438,"ack":1439,"Ġhern":1440,"gres":1441,"Ġpig":1442,"Ġdifferen":1443,"Ġcombination":1444,"Ġpigtail":1445,"tifocal":1446,"ymmetric":1447,"Ġmultifocal":1448,"Ġly":1449,"ticular":1450,"Ġstreaky":1451,"ial":1452,"Ġess":1453,"Ġessen":1454,"Ġportion":1455,"Ġlay":1456,"Ġhernia":1457,"ward":1458,"Ġdevice":1459,"Ġessentially":1460,"rant":1461,"Ġminimally":1462,"operative":1463,"ique":1464,"Ġprogres":1465,"Ġdeform":1466,"imal":1467,"load":1468,"Ġoverload":1469,"Ġlayering":1470,"Ġtechnique":1471,"ulated":1472,"cending":1473,"Ġmarked":1474,"day":1475,"Ġco":1476,"Ġincreasing":1477,"ximal":1478,"zy":1479,"Ġaf":1480,"Ġafter":1481,"teb":1482,"Ġdrainage":1483,"athy":1484,"Ġproximal":1485,"ited":1486,"Ġatelectatic":1487,"idered":1488,"Ġconsidered":1489,"adrant":1490,"Ġquadrant":1491,"Ġsup":1492,"Ġpoten":1493,"tim":1494,"ility":1495,"Ġback":1496,"cy":1497,"Ġlimited":1498,"Ġappreci":1499,"Ġprobable":1500,"Ġengorged":1501,"Ġverteb":1502,"ans":1503,"opathy":1504,"Ġfiel":1505,"Ġappreciable":1506,"und":1507,"Ġesophag":1508,"Ġarch":1509,"Ġsomewh":1510,"sure":1511,"Ġsec":1512,"Ġsomewhat":1513,"Ġsecond":1514,"taneous":1515,"Ġlymph":1516,"rotic":1517,"Ġcurrent":1518,"Ġextends":1519,"ageal":1520,"Ġchf":1521,"Ġfilm":1522,"Ġradiographic":1523,"ho":1524,"cutaneous":1525,"Ġpossibly":1526,"eeding":1527,"Ġfeeding":1528,"Ġadvanced":1529,"Ġful":1530,"Ġleast":1531,"osity":1532,"arent":1533,"Ġrot":1534,"Ġtrans":1535,"Ġtortuosity":1536,"Ġapparent":1537,"Ġmidline":1538,"Ġdual":1539,"Ġsuggests":1540,"de":1541,"Ġinfiltrate":1542,"entu":1543,"Ġwidening":1544,"Ġaccentu":1545,"cle":1546,"Ġmet":1547,"Ġsubcutaneous":1548,"Ġdiscus":1549,"Ġvery":1550,"ribution":1551,"Ġnodules":1552,"Ġcompressive":1553,"Ġasymmetric":1554,"Ġaeration":1555,"Ġext":1556,"tery":1557,"Ġvascularity":1558,"Ġval":1559,"dic":1560,"Ġpotentially":1561,"Ġwhen":1562,"atal":1563,"Ġtissue":1564,"Ġhiatal":1565,"ving":1566,"Ġartery":1567,"enopathy":1568,"Ġdiscussed":1569,"Ġindic":1570,"Ġsubstantially":1571,"Ġzone":1572,"thoraces":1573,"icated":1574,"Ġdob":1575,"hoff":1576,"Ġloculated":1577,"Ġrelated":1578,"Ġexpected":1579,"gment":1580,"Ġpossibility":1581,"ran":1582,"ill":1583,"Ġvertebral":1584,"Ġassessment":1585,"essel":1586,"Ġvessel":1587,"tension":1588,"Ġpneumothoraces":1589,"quent":1590,"pic":1591,"moderate":1592,"Ġsus":1593,"Ġperf":1594,"teri":1595,"Ġelevated":1596,"Ġnote":1597,"oli":1598,"Ġsubsequent":1599,"od":1600,"Ġfollowup":1601,"Ġpostoperative":1602,"Ġrepresents":1603,"iny":1604,"Ġtiny":1605,"Ġallow":1606,"Ġcourse":1607,"Ġdeveloping":1608,"Ġearly":1609,"Ġtim":1610,"onent":1611,"Ġcomponent":1612,"ces":1613,"Ġsignificantly":1614,"Ġpressure":1615,"ident":1616,"Ġassessed":1617,"Ġperform":1618,"fore":1619,"Ġincluding":1620,"Ġparticular":1621,"Ġtime":1622,"pical":1623,"Ġtrachea":1624,"bar":1625,"Ġaccom":1626,"Ġperformed":1627,"ider":1628,"st":1629,"Ġlesion":1630,"Ġallowing":1631,"olog":1632,"Ġaccompan":1633,"Ġpart":1634,"Ġvalve":1635,"Ġfiss":1636,"pt":1637,"Ġdescending":1638,"Ġreflecting":1639,"late":1640,"tero":1641,"Ġvessels":1642,"ible":1643,"Ġesophagus":1644,"Ġlobes":1645,"Ġstent":1646,"Ġdate":1647,"Ġnon":1648,"Ġsternal":1649,"Ġpass":1650,"Ġol":1651,"nob":1652,"Ġknob":1653,"ign":1654,"Ġei":1655,"com":1656,"pect":1657,"erv":1658,"Ġthorac":1659,"domin":1660,"Ġtoday":1661,"Ġpect":1662,"oliosis":1663,"Ġamo":1664,"Ġamount":1665,"Ġcompression":1666,"Ġcla":1667,"Ġclavic":1668,"Ġventricular":1669,"ense":1670,"Ġsem":1671,"Ġconflu":1672,"bg":1673,"Ġcabg":1674,"Ġdifferences":1675,"Ġsemi":1676,"Ġappreciated":1677,"cur":1678,"Ġsw":1679,"Ġhyp":1680,"Ġold":1681,"Ġmin":1682,"ardial":1683,"ery":1684,"Ġseverity":1685,"dies":1686,"oscle":1687,"Ġnear":1688,"Ġmetast":1689,"Ġather":1690,"Ġhazy":1691,"Ġatheroscle":1692,"Ġdisten":1693,"sus":1694,"gan":1695,"Ġthorax":1696,"Ġhard":1697,"Ġversus":1698,"Ġswan":1699,"ma":1700,"Ġsecondary":1701,"Ġph":1702,"Ġ6":1703,"Ġshi":1704,"ubated":1705,"Ġshift":1706,"Ġnec":1707,"oma":1708,"Ġpresence":1709,"read":1710,"uc":1711,"Ġshows":1712,"Ġdeg":1713,"ight":1714,"Ġaccompanied":1715,"Ġlong":1716,"Ġvisible":1717,"Ġreflects":1718,"comp":1719,"Ġinv":1720,"Ġfully":1721,"Ġhist":1722,"oral":1723,"Ġhistory":1724,"Ġel":1725,"Ġdeformity":1726,"Ġpasses":1727,"Ġdense":1728,"Ġbefore":1729,"Ġsupine":1730,"Ġlocation":1731,"Ġfield":1732,"Ġworse":1733,"Ġdegree":1734,"Ġlines":1735,"Ġ.":1736,"Ġdil":1737,"ganz":1738,"Ġobscured":1739,"Ġgran":1740,"Ġneck":1741,"ware":1742,"Ġonly":1743,"Ġatherosclerotic":1744,"Ġhetero":1745,"Ġgranul":1746,"Ġpredomin":1747,"ness":1748,"over":1749,"Ġpresum":1750,"ful":1751,"Ġconsider":1752,"Ġheterogen":1753,"inct":1754,"opd":1755,"Ġpectoral":1756,"Ġcompletely":1757,"ined":1758,"Ġhardware":1759,"itone":1760,"Ġall":1761,"Ġreplac":1762,"Ġperic":1763,"Ġcopd":1764,"bhoff":1765,"Ġdobbhoff":1766,"Ġcorrect":1767,"gmental":1768,"Ġcorrelation":1769,"Ġinvol":1770,"Ġparticularly":1771,"Ġmedial":1772,"ages":1773,"Ġevaluated":1774,"Ġcontinues":1775,"Ġpul":1776,"Ġtw":1777,"Ġparenchyma":1778,"Ġheterogeneous":1779,"Ġextending":1780,"Ġimages":1781,"Ġconfluent":1782,"Ġdiscover":1783,"ides":1784,"Ġtwo":1785,"Ġmain":1786,"Ġaspect":1787,"Ġdiscovery":1788,"Ġling":1789,"Ġeither":1790,"Ġfib":1791,"ame":1792,"Ġminor":1793,"Ġinfer":1794,"Ġsame":1795,"Ġcompl":1796,"we":1797,"like":1798,"Ġhel":1799,"Ġindist":1800,"distribution":1801,"Ġhelp":1802,"Ġindistinct":1803,"phal":1804,"Ġsinus":1805,"Ġpericardial":1806,"Ġdist":1807,"ust":1808,"ler":1809,"rahilar":1810,"Ġinferior":1811,"Ġsubsegmental":1812,"Ġrecommendation":1813,"Ġdeveloped":1814,"alysis":1815,"Ġind":1816,"Ġcomplication":1817,"________":1818,"int":1819,"Ġfollowing":1820,"umeral":1821,"Ġinspiration":1822,"Ġcaus":1823,"Ġexce":1824,"cing":1825,"ator":1826,"Ġmm":1827,"Ġfissure":1828,"peritone":1829,"Ġdevelopment":1830,"Ġsmaller":1831,"Ġclinically":1832,"pl":1833,"Ġne":1834,"Ġperiph":1835,"Ġrepe":1836,"ge":1837,"Ġcourses":1838,"Ġmal":1839,"Ġded":1840,"Ġdedicated":1841,"rosis":1842,"ger":1843,"Ġx":1844,"ctomy":1845,"Ġpreced":1846,"Ġseveral":1847,"unded":1848,"Ġresult":1849,"Ġadditional":1850,"Ġpreceding":1851,"Ġredistribution":1852,"crib":1853,"Ġinfiltrates":1854,"cribed":1855,"erex":1856,"Ġrounded":1857,"Ġrepresenting":1858,"Ġhyperex":1859,"oulder":1860,"ology":1861,"Ġshoulder":1862,"Ġheal":1863,"pansion":1864,"Ġsurgery":1865,"Ġlymphad":1866,"Ġthroughout":1867,"Ġone":1868,"Ġfail":1869,"Ġpositioned":1870,"Ġrepeat":1871,"Ġlymphadenopathy":1872,"zed":1873,"Ġ10":1874,"ervical":1875,"Ġax":1876,"Ġcervical":1877,"clusion":1878,"Ġmulti":1879,"pread":1880,"Ġwides":1881,"Ġunf":1882,"Ġwidespread":1883,"Ġfailure":1884,"Ġprojec":1885,"Ġhelpful":1886,"oun":1887,"Ġlimit":1888,"Ġangles":1889,"Ġexag":1890,"Ġexagger":1891,"Ġrais":1892,"Ġgen":1893,"Ġscoliosis":1894,"rat":1895,"Ġimproving":1896,"omediastinum":1897,"view":1898,"pirat":1899,"vin":1900,"Ġpneumomediastinum":1901,"piratory":1902,"resp":1903,"Ġunfol":1904,"Ġconvin":1905,"inal":1906,"uration":1907,"Ġconvincing":1908,"Ġcorresp":1909,"Ġenti":1910,"Ġpulled":1911,"Ġhigh":1912,"ris":1913,"def":1914,"Ġ8":1915,"Ġup":1916,"eath":1917,"Ġevident":1918,"esophageal":1919,"mun":1920,"ome":1921,"Ġnewly":1922,"Ġconfig":1923,"Ġconfiguration":1924,"Ġinvolving":1925,"ext":1926,"Ġimaging":1927,"Ġpron":1928,"ucen":1929,"Ġill":1930,"Ġjust":1931,"ula":1932,"Ġrecently":1933,"io":1934,"Ġnext":1935,"Ġesophageal":1936,"Ġscan":1937,"ounced":1938,"ose":1939,"Ġpronounced":1940,"lec":1941,"defined":1942,"Ġclavicle":1943,"ronchial":1944,"Ġinflated":1945,"Ġentire":1946,"Ġcommun":1947,"Ġdescribed":1948,"arac":1949,"Ġ11":1950,"Ġreview":1951,"Ġopacifications":1952,"Ġrotation":1953,"Ġgastric":1954,"olar":1955,"ap":1956,"Ġlucen":1957,"Ġge":1958,"Ġcharac":1959,"Ġapic":1960,"oint":1961,"Ġ0":1962,"Ġhyperinflation":1963,"icd":1964,"lat":1965,"Ġclearly":1966,"timal":1967,"Ġplaced":1968,"Ġloop":1969,"Ġpredominant":1970,"Ġworris":1971,"Ġworrisome":1972,"Ġjoint":1973,"Ġstu":1974,"Ġstudies":1975,"Ġreplacement":1976,"Ġatrial":1977,"Ġhilum":1978,"tem":1979,"Ġconclusion":1980,"Ġhealed":1981,"ization":1982,"tern":1983,"Ġinfrahilar":1984,"Ġplacements":1985,"Ġtra":1986,"owel":1987,"Ġspec":1988,"Ġcomplications":1989,"Ġ7":1990,"qui":1991,"Ġventi":1992,"ameter":1993,"ente":1994,"Ġrefer":1995,"Ġmight":1996,"Ġabs":1997,"expanded":1998,"Ġbowel":1999,"Ġdiameter":2000,"Ġcoron":2001,"Ġgas":2002,"Ġprojection":2003,"Ġspecific":2004,"Ġlonger":2005,"Ġgast":2006,"Ġwidened":2007,"rh":2008,"veolar":2009,"Ġsuspic":2010,"Ġgastro":2011,"Ġexcept":2012,"Ġinspiratory":2013,"Ġcharacteri":2014,"av":2015,"Ġribs":2016,"Ġflat":2017,"Ġrotated":2018,"dra":2019,"current":2020,"Ġpoor":2021,"draw":2022,"Ġwithdraw":2023,"Ġplate":2024,"Ġcoronary":2025,"Ġalveolar":2026,"Ġprogression":2027,"section":2028,"Ġflatten":2029,"pen":2030,"orrh":2031,"upright":2032,"Ġdilated":2033,"rach":2034,"iled":2035,"Ġ9":2036,"rect":2037,"Ġdiaphragms":2038,"Ġhead":2039,"Ġapices":2040,"phalic":2041,"Ġhemorrh":2042,"Ġperib":2043,"cei":2044,"aque":2045,"cephalic":2046,"agn":2047,"urg":2048,"Ġbrach":2049,"level":2050,"Ġhemorrhage":2051,"Ġpag":2052,"the":2053,"Ġmit":2054,"Ġmitral":2055,"Ġdistended":2056,"let":2057,"Ġlucency":2058,"ies":2059,"ues":2060,"Ġmalign":2061,"lign":2062,"Ġalign":2063,"tes":2064,"ypical":2065,"Ġmarkedly":2066,"Ġremaining":2067,"Ġpaged":2068,"itive":2069,"Ġprogressed":2070,"ray":2071,"Ġmultilevel":2072,"Ġtissues":2073,"Ġcarinal":2074,"iocephalic":2075,"ber":2076,"Ġobli":2077,"Ġgo":2078,"Ġmarg":2079,"osition":2080,"vicular":2081,"ween":2082,"Ġop":2083,"Ġbetween":2084,"Ġfoc":2085,"Ġreposition":2086,"Ġdeformities":2087,"aken":2088,"Ġbia":2089,"ancy":2090,"Ġbronchial":2091,"Ġspace":2092,"Ġbiapical":2093,"Ġmetastatic":2094,"Ġbrachiocephalic":2095,"Ġnotably":2096,"Ġbronchi":2097,"ised":2098,"Ġcolle":2099,"ulation":2100,"Ġregions":2101,"Ġentirely":2102,"ank":2103,"Ġplease":2104,"adow":2105,"Ġmargin":2106,"ious":2107,"sc":2108,"Ġcleared":2109,"Ġfibrosis":2110,"Ġoste":2111,"Ġshadow":2112,"Ġrecei":2113,"Ġsit":2114,"Ġdiffusely":2115,"uch":2116,"Ġfat":2117,"round":2118,"lavicular":2119,"Ġy":2120,"Ġmuch":2121,"Ġtre":2122,"Ġpresumed":2123,"Ġsuggested":2124,"Ġfrank":2125,"Ġneed":2126,"venous":2127,"eas":2128,"Ġperibronchial":2129,"Ġmalignancy":2130,"Ġav":2131,"Ġremainder":2132,"Ġbones":2133,"Ġvag":2134,"Ġtension":2135,"Ġreceived":2136,"Ġindistinctness":2137,"Ġthy":2138,"Ġser":2139,"Ġlingula":2140,"Ġlaterally":2141,"Ġdiagn":2142,"Ġhumeral":2143,"Ġben":2144,"roid":2145,"Ġadenopathy":2146,"Ġadvised":2147,"ically":2148,"Ġvena":2149,"Ġgranuloma":2150,"Ġ12":2151,"opaque":2152,"Ġcava":2153,"Ġgastroesophageal":2154,"Ġcollection":2155,"ternal":2156,"Ġpositions":2157,"Ġaside":2158,"Ġabsence":2159,"Ġspecifically":2160,"ici":2161,"umer":2162,"Ġthyroid":2163,"Ġresults":2164,"Ġextubated":2165,"Ġgener":2166,"Ġsuspected":2167,"atment":2168,"Ġwithdrawn":2169,"zyg":2170,"Ġpartial":2171,"Ġazyg":2172,"Ġexpl":2173,"Ġdoes":2174,"Ġradiopaque":2175,"Ġhypertension":2176,"ms":2177,"Ġappropriately":2178,"du":2179,"Ġtransvenous":2180,"etermin":2181,"Ġdefin":2182,"Ġperipheral":2183,"Ġfields":2184,"Ġcongestive":2185,"uring":2186,"Ġintubated":2187,"Ġposteriorly":2188,"Ġobstr":2189,"Ġbronchus":2190,"Ġelong":2191,"Ġvague":2192,"Ġhad":2193,"Ġspinal":2194,"demon":2195,"Ġhemidiaphragms":2196,"Ġlum":2197,"Ġabdomin":2198,"Ġrelate":2199,"complete":2200,"Ġunfolded":2201,"Ġreferring":2202,"Ġdated":2203,"Ġsuch":2204,"Ġbronchiect":2205,"Ġdict":2206,"Ġabdominal":2207,"Ġrightward":2208,"Ġcorrespond":2209,"Ġbibasal":2210,"Ġmas":2211,"Ġes":2212,"Ġwed":2213,"eterminate":2214,"Ġpredominantly":2215,"Ġtaken":2216,"Ġdirect":2217,"ques":2218,"Ġhilus":2219,"way":2220,"yond":2221,"Ġbeyond":2222,"ubation":2223,"Ġtreatment":2224,"Ġlocal":2225,"Ġorogastric":2226,"Ġcoursing":2227,"ipp":2228,"diaphragmatic":2229,"ipple":2230,"Ġnipple":2231,"Ġleftward":2232,"ially":2233,"Ġhyd":2234,"Ġobscuration":2235,"Ġcoiled":2236,"Ġbronchiectasis":2237,"Ġinc":2238,"Ġdecomp":2239,"Ġcorrelate":2240,"peritoneum":2241,"Ġfocus":2242,"Ġshort":2243,"Ġpneumoperitoneum":2244,"Ġem":2245,"olumbar":2246,"side":2247,"Ġthoracolumbar":2248,"Ġflattening":2249,"Ġincluded":2250,"Ġindeterminate":2251,"Ġoptimal":2252,"Ġextrem":2253,"Ġhydro":2254,"vention":2255,"Ġeff":2256,"surg":2257,"Ġairway":2258,"Ġdiagnosis":2259,"Ġaccentuated":2260,"Ġhours":2261,"trac":2262,"ek":2263,"ocum":2264,"Ġacco":2265,"iab":2266,"Ġdocum":2267,"Ġdistribution":2268,"emin":2269,"pecially":2270,"surgical":2271,"Ġventilation":2272,"ailable":2273,"Ġincident":2274,"tered":2275,"Ġespecially":2276,"Ġaccentuate":2277,"Ġsut":2278,"Ġfusion":2279,"Ġphone":2280,"tectomy":2281,"position":2282,"Ġexaggerated":2283,"Ġmeas":2284,"Ġphys":2285,"ground":2286,"Ġoverli":2287,"Ġaerated":2288,"Ġbackground":2289,"Ġloops":2290,"Ġavailable":2291,"Ġraises":2292,"Ġdecompens":2293,"Ġbeneath":2294,"Ġdensities":2295,"eralized":2296,"Ġabout":2297,"Ġsubdiaphragmatic":2298,"Ġconfir":2299,"Ġtraum":2300,"Ġbre":2301,"term":2302,"Ġgranulom":2303,"Ġfore":2304,"lead":2305,"Ġinlet":2306,"Ġending":2307,"Ġhyperexpansion":2308,"Ġpros":2309,"Ġpath":2310,"Ġforeign":2311,"Ġsee":2312,"Ġpattern":2313,"Ġfull":2314,"othorax":2315,"Ġdistention":2316,"Ġatypical":2317,"Ġdevi":2318,"ha":2319,"Ġdays":2320,"Ġbronchogra":2321,"Ġsitu":2322,"most":2323,"ventional":2324,"cedure":2325,"Ġveins":2326,"Ġma":2327,"Ġlesions":2328,"cer":2329,"sewh":2330,"Ġparts":2331,"Ġelsewh":2332,"Ġelsewhere":2333,"Ġazygos":2334,"Ġdictation":2335,"Ġincomplete":2336,"Ġsuggestion":2337,"eared":2338,"Ġconcurrent":2339,"Ġreticular":2340,"Ġpla":2341,"Ġbi":2342,"uff":2343,"isten":2344,"Ġ(":2345,"ations":2346,"Ġsuspicious":2347,"Ġvia":2348,"Ġsite":2349,"Ġeven":2350,"haps":2351,"Ġperhaps":2352,"Ġascending":2353,"Ġexplain":2354,"Ġcurrently":2355,"Ġconfirm":2356,"Ġbronchograms":2357,"ribu":2358,"Ġdepen":2359,"racheal":2360,"Ġdecompensation":2361,"Ġdou":2362,"Ġman":2363,"ple":2364,"Ġett":2365,"ones":2366,"spec":2367,"Ġreviewed":2368,"oid":2369,"Ġcuff":2370,"Ġpacing":2371,"Ġbreast":2372,"Ġoc":2373,"estion":2374,"Ġquestion":2375,"equ":2376,"specific":2377,"ning":2378,"ester":2379,"Ġbodies":2380,"Ġarteri":2381,"illary":2382,"Ġconventional":2383,"Ġweek":2384,"ician":2385,"Ġyester":2386,"Ġyesterday":2387,"Ġdemin":2388,"ases":2389,"Ġresection":2390,"entesis":2391,"lung":2392,"Ġevaluate":2393,"Ġarteries":2394,"Ġlocated":2395,"Ġconve":2396,"Ġrather":2397,"Ġscat":2398,"illa":2399,"Ġappeared":2400,"iably":2401,"Ġobscuring":2402,"Ġlies":2403,"Ġaxilla":2404,"Ġincompletely":2405,"Ġpresumably":2406,"Ġaxillary":2407,"Ġdialysis":2408,"Ġoff":2409,"Ġinser":2410,"uous":2411,"Ġdifferential":2412,"Ġclavicular":2413,"________________":2414,"Ġelongation":2415,"Ġretrac":2416,"Ġzones":2417,"Ġgood":2418,"Ġatten":2419,"Ġbul":2420,"Ġwhere":2421,"Ġdrains":2422,"Ġsul":2423,"Ġdemonst":2424,"Ġsulc":2425,"peritoneal":2426,"Ġphysician":2427,"Ġclose":2428,"Ġir":2429,"Ġparat":2430,"Ġsy":2431,"pective":2432,"Ġredemon":2433,"ether":2434,"Ġparatracheal":2435,"Ġcommunicated":2436,"Ġappreciably":2437,"Ġske":2438,"Ġconspic":2439,"Ġrespective":2440,"Ġintraperitoneal":2441,"Ġlumbar":2442,"Ġwire":2443,"letal":2444,"Ġirre":2445,"xt":2446,"pneum":2447,"Ġorig":2448,"Ġcho":2449,"Ġirregular":2450,"Ġsided":2451,"Ġcharacterized":2452,"Ġscattered":2453,"Ġwhether":2454,"Ġskeletal":2455,"Ġinj":2456,"Ġexternal":2457,"Ġresolving":2458,"Ġoutside":2459,"Ġsens":2460,"Ġbest":2461,"ily":2462,"Ġcurv":2463,"Ġdobhoff":2464,"Ġobscures":2465,"Ġlingular":2466,"Ġhyperexpanded":2467,"Ġseverely":2468,"Ġartif":2469,"otic":2470,"Ġsix":2471,"Ġoblique":2472,"rom":2473,"Ġpleu":2474,"Ġseries":2475,"itis":2476,"Ġdex":2477,"Ġmassive":2478,"Ġmarker":2479,"Ġevent":2480,"lecys":2481,"Ġdextro":2482,"Ġorigin":2483,"Ġprocedure":2484,"Ġshar":2485,"uctive":2486,"pite":2487,"Ġcholecys":2488,"Ġaicd":2489,"Ġsinuses":2490,"Ġnoting":2491,"Ġterminate":2492,"Ġdespite":2493,"Ġartifact":2494,"Ġalmost":2495,"lective":2496,"Ġfund":2497,"Ġeti":2498,"nel":2499,"Ġsharp":2500,"fluid":2501,"Ġobvious":2502,"Ġcholecystectomy":2503,"Ġce":2504,"Ġsegment":2505,"Ġwedge":2506,"Ġplatelike":2507,"ging":2508,"Ġread":2509,"Ġcta":2510,"Ġfundus":2511,"leno":2512,"Ġmasses":2513,"Ġgleno":2514,"Ġtrauma":2515,"Ġaccess":2516,"py":2517,"Ġweeks":2518,"Ġdeviation":2519,"Ġmetastases":2520,"Ġdiaphragmatic":2521,"Ġreflective":2522,"Ġexams":2523,"Ġcontr":2524,"aint":2525,"orted":2526,"Ġmidlung":2527,"lower":2528,"yph":2529,"Ġdetail":2530,"ite":2531,"Ġalignment":2532,"Ġscle":2533,"ird":2534,"dent":2535,"Ġnonspecific":2536,"Ġkyph":2537,"Ġcontrast":2538,"ry":2539,"annel":2540,"hed":2541,"Ġlargely":2542,"Ġchin":2543,"Ġfaint":2544,"Ġcollaps":2545,"Ġtoward":2546,"Ġfullness":2547,"quired":2548,"Ġconspicuous":2549,"terial":2550,"Ġage":2551,"Ġtracheal":2552,"Ġmedially":2553,"Ġsat":2554,"ented":2555,"ervation":2556,"fact":2557,"Ġsep":2558,"Ġnearly":2559,"xation":2560,"Ġsatis":2561,"Ġsatisfact":2562,"Ġthird":2563,"Ġlobectomy":2564,"Ġcollapsed":2565,"Ġcommunication":2566,"Ġrepositioned":2567,"Ġdependent":2568,"verse":2569,"Ġinfusion":2570,"Ġheight":2571,"mpt":2572,"pid":2573,"strated":2574,"mptom":2575,"jor":2576,"humeral":2577,"Ġsuperiorly":2578,"Ġmajor":2579,"lamm":2580,"ophy":2581,"Ġemb":2582,"Ġproper":2583,"Ġcorresponds":2584,"Ġsatisfactory":2585,"Ġsulcus":2586,"Ġnode":2587,"rill":2588,"eur":2589,"Ġobservation":2590,"Ġsymptom":2591,"iber":2592,"Ġhemo":2593,"ibrill":2594,"vening":2595,"Ġextreme":2596,"ibrillator":2597,"eurys":2598,"Ġprogressive":2599,"lling":2600,"Ġosteophy":2601,"Ġnond":2602,"Ġapproach":2603,"Ġplaques":2604,"rating":2605,"Ġcaliber":2606,"Ġfour":2607,"Ġadditionally":2608,"cum":2609,"Ġcoil":2610,"Ġreport":2611,"ury":2612,"istended":2613,"Ġcatheters":2614,"Ġinjury":2615,"ord":2616,"Ġfir":2617,"Ġcoar":2618,"Ġcaused":2619,"Ġgra":2620,"Ġfirst":2621,"Ġredu":2622,"Ġclearing":2623,"allic":2624,"Ġradiation":2625,"Ġeffort":2626,"Ġactive":2627,"Ġmetallic":2628,"Ġincidental":2629,"oon":2630,"Ġadequ":2631,"Ġcavit":2632,"cul":2633,"Ġtuber":2634,"Ġball":2635,"Ġglenohumeral":2636,"Ġband":2637,"Ġlobar":2638,"Ġcongested":2639,"Ġraising":2640,"Ġsheath":2641,"Ġballoon":2642,"Ġcolon":2643,"Ġfixation":2644,"Ġtransverse":2645,"Ġtheir":2646,"Ġoverinf":2647,"Ġdefibrillator":2648,"Ġeventration":2649,"Ġstructure":2650,"Ġmeasuring":2651,"Ġoverlies":2652,"ression":2653,"Ġsilhouetting":2654,"Ġnodes":2655,"rac":2656,"Ġpast":2657,"welling":2658,"Ġsupervening":2659,"Ġindwelling":2660,"ributed":2661,"Ġsymptoms":2662,"cement":2663,"itus":2664,"pneumothorax":2665,"Ġappearing":2666,"Ġsys":2667,"Ġreported":2668,"Ġtubercul":2669,"Ġsuprac":2670,"Ġdocument":2671,"atation":2672,"clear":2673,"Ġsystem":2674,"Ġetiology":2675,"bitus":2676,"Ġdoub":2677,"Ġsixth":2678,"Ġadvancement":2679,"Ġapparently":2680,"Ġminu":2681,"Ġacrom":2682,"Ġdilatation":2683,"aped":2684,"Ġsupraclavicular":2685,"Ġunclear":2686,"expansion":2687,"Ġdefinitive":2688,"Ġsutures":2689,"Ġdextrosc":2690,"Ġaneurys":2691,"erect":2692,"Ġseven":2693,"Ġgenerator":2694,"Ġaccount":2695,"Ġinflamm":2696,"Ġdextroscoliosis":2697,"lass":2698,"Ġfibrotic":2699,"Ġground":2700,"Ġdoubt":2701,"Ġcardiophrenic":2702,"Ġremote":2703,"Ġpleura":2704,"Ġindicative":2705,"king":2706,"Ġradiographically":2707,"Ġhydropneumothorax":2708,"troph":2709,"ump":2710,"severe":2711,"oclavicular":2712,"scar":2713,"Ġrespectively":2714,"asty":2715,"Ġresul":2716,"Ġ15":2717,"ymmetry":2718,"ile":2719,"Ġmere":2720,"Ġsymmetric":2721,"Ġfif":2722,"Ġinfilt":2723,"Ġmerely":2724,"Ġdemonstrating":2725,"Ġwar":2726,"Ġfifth":2727,"Ġensure":2728,"ulmonic":2729,"scarring":2730,"Ġarterial":2731,"Ġpostsurgical":2732,"Ġtowards":2733,"Ġpathology":2734,"Ġfilms":2735,"Ġasymmetrical":2736,"Ġcephal":2737,"Ġsk":2738,"Ġhumer":2739,"osc":2740,"use":2741,"ectomy":2742,"tous":2743,"Ġcross":2744,"Ġdemineralized":2745,"Ġresulting":2746,"allow":2747,"Ġtips":2748,"Ġsubsequently":2749,"Ġconvex":2750,"Ġmate":2751,"Ġseventh":2752,"Ġbone":2753,"sized":2754,"Ġreplaced":2755,"tical":2756,"Ġpoorly":2757,"Ġmaterial":2758,"Ġpump":2759,"pass":2760,"Ġbypass":2761,"Ġindicated":2762,"Ġredemonstrated":2763,"Ġann":2764,"Ġradiod":2765,"Ġreac":2766,"Ġasymmetry":2767,"Ġhumerus":2768,"Ġwhile":2769,"Ġperiphery":2770,"pleural":2771,"Ġobstructive":2772,"Ġgraft":2773,"Ġindicate":2774,"Ġstab":2775,"Ġadequate":2776,"Ġcorrespon":2777,"Ġunfolding":2778,"Ġclavicles":2779,"Ġaligned":2780,"glass":2781,"Ġemphysematous":2782,"Ġscanning":2783,"dialysis":2784,"Ġhemodialysis":2785,"Ġcorresponding":2786,"ioclavicular":2787,"Ġstably":2788,"Ġacromioclavicular":2789,"standing":2790,"less":2791,"iness":2792,"Ġhaz":2793,"Ġobstru":2794,"thetic":2795,"Ġwhose":2796,"Ġdetect":2797,"Ġjoints":2798,"Ġminutes":2799,"Ġprosthetic":2800,"Ġhaziness":2801,"Ġexaminations":2802,"positioned":2803,"curred":2804,"Ġlimiting":2805,"Ġcausing":2806,"Ġremarkable":2807,"Ġshunt":2808,"Ġsensitive":2809,"ep":2810,"ind":2811,"sh":2812,"Ġshallow":2813,"Ġthoracentesis":2814,"ption":2815,"Ġ-":2816,"Ġattention":2817,"ventric":2818,"toma":2819,"Ġintro":2820,"Ġextubation":2821,"ventricular":2822,"Ġplethor":2823,"stem":2824,"Ġhypertroph":2825,"Ġgenerally":2826,"Ġmainstem":2827,"pe":2828,"Ġintubation":2829,"Ġquite":2830,"Ġnotable":2831,"Ġskin":2832,"Ġhema":2833,"Ġpad":2834,"Ġoverinflation":2835,"Ġaltern":2836,"Ġdisplacement":2837,"Ġform":2838,"Ġdiscre":2839,"Ġplethora":2840,"arc":2841,"ropl":2842,"port":2843,"Ġsuspicion":2844,"channel":2845,"ensity":2846,"Ġextremely":2847,"ole":2848,"certain":2849,"shaped":2850,"Ġthen":2851,"ogen":2852,"Ġincludes":2853,"Ġalternative":2854,"ors":2855,"Ġconsolidative":2856,"Ġbased":2857,"Ġicd":2858,"Ġcurvature":2859,"Ġdiscrete":2860,"pon":2861,"Ġgranulomas":2862,"Ġlord":2863,"Ġanalysis":2864,"air":2865,"Ġdeline":2866,"Ġcontin":2867,"Ġparam":2868,"Ġcuffing":2869,"Ġmak":2870,"loc":2871,"Ġesophagogastric":2872,"Ġr":2873,"Ġcontusion":2874,"Ġosteophytes":2875,"Ġcage":2876,"Ġdefinition":2877,"Ġairways":2878,"Ġretraction":2879,"Ġhypertrophic":2880,"aortic":2881,"Ġpl":2882,"Ġthey":2883,"Ġrepositioning":2884,"Ġhematoma":2885,"Ġtor":2886,"Ġinsertion":2887,"Ġoverla":2888,"Ġlordotic":2889,"Ġchain":2890,"Ġlimitations":2891,"row":2892,"optimal":2893,"Ġdefined":2894,"Ġcontinue":2895,"Ġfourth":2896,"Ġsubp":2897,"Ġrecurrent":2898,"Ġshadows":2899,"opl":2900,"arrow":2901,"lor":2902,"Ġatt":2903,"atous":2904,"Ġpneumonic":2905,"Ġsubpulmonic":2906,"Ġbasis":2907,"Ġuncertain":2908,"Ġtuberculosis":2909,"esis":2910,"Ġsuboptimal":2911,"Ġtorso":2912,"bular":2913,"Ġsharply":2914,"Ġwhat":2915,"Ġfew":2916,"amber":2917,"Ġaccentuates":2918,"Ġnarrow":2919,"Ġek":2920,"Ġunderg":2921,"Ġru":2922,"Ġekg":2923,"vocal":2924,"quivocal":2925,"sy":2926,"Ġsuprahilar":2927,"medi":2928,"Ġinferiorly":2929,"Ġstri":2930,"Ġdistension":2931,"Ġembol":2932,"Ġsclerotic":2933,"Ġduring":2934,"Ġhypo":2935,"ob":2936,"Ġborders":2937,"Ġnur":2938,"Ġtherefore":2939,"ranted":2940,"Ġwarranted":2941,"Ġiniti":2942,"Ġcardio":2943,"Ġimpression":2944,"ished":2945,"Ġindicating":2946,"vers":2947,"Ġhole":2948,"Ġgase":2949,"oscop":2950,"roplasty":2951,"Ġgaseous":2952,"Ġnor":2953,"ca":2954,"iduc":2955,"Ġnecess":2956,"Ġfiduc":2957,"Ġgranulomatous":2958,"Ġundergone":2959,"Ġobstruction":2960,"Ġfiducial":2961,"Ġstents":2962,"Ġprovider":2963,"Ġalternatively":2964,"Ġhr":2965,"Ġrespon":2966,"Ġfissural":2967,"Ġcer":2968,"Ġfav":2969,"Ġneeds":2970,"atory":2971,"Ġards":2972,"Ġbiop":2973,"Ġaneurysm":2974,"fil":2975,"Ġportions":2976,"Ġdimin":2977,"Ġinclude":2978,"Ġpain":2979,"lex":2980,"Ġnondistended":2981,"Ġradiodensity":2982,"Ġinteri":2983,"Ġdu":2984,"Ġinterim":2985,"usual":2986,"Ġcephalization":2987,"Ġrapid":2988,"filled":2989,"pro":2990,"Ġindication":2991,"Ġpredominance":2992,"umerous":2993,"Ġnumerous":2994,"Ġfar":2995,"Ġpneumonitis":2996,"Ġhabitus":2997,"inflated":2998,"edic":2999,"Ġcancer":3000,"Ġpotential":3001,"zation":3002,"Ġheav":3003,"Ġkyphosis":3004,"Ġparamediastinal":3005,"Ġmostly":3006,"Ġprosth":3007,"Ġhemidiaphragmatic":3008,"Ġstron":3009,"Ġcause":3010,"Ġcoils":3011,"Ġdelineated":3012,"large":3013,"Ġtechnical":3014,"Ġaccentuating":3015,"Ġcharacterization":3016,"ghth":3017,"Ġeighth":3018,"Ġtri":3019,"Ġdifferent":3020,"Ġneo":3021,"uresis":3022,"oden":3023,"Ġcontain":3024,"Ġdiminished":3025,"Ġconfluence":3026,"Ġconfirmed":3027,"lateral":3028,"Ġvar":3029,"Ġtract":3030,"Ġscap":3031,"arcoid":3032,"text":3033,"ace":3034,"Ġbeca":3035,"Ġenter":3036,"Ġbecause":3037,"Ġthree":3038,"Ġexception":3039,"Ġreduced":3040,"aer":3041,"Ġcontext":3042,"Ġsarcoid":3043,"Ġdown":3044,"Ġdecreasing":3045,"Ġchronicity":3046,"gent":3047,"Ġmor":3048,"Ġbiopsy":3049,"Ġpositional":3050,"Ġstrong":3051,"ying":3052,"Ġaccounting":3053,"Ġlast":3054,"Ġnormally":3055,"Ġradiography":3056,"penet":3057,"lim":3058,"Ġinfar":3059,"Ġcoarse":3060,"Ġtravers":3061,"Ġtransesophageal":3062,"Ġgeneralized":3063,"entered":3064,"Ġcentered":3065,"Ġmalpositioned":3066,"Ġrest":3067,"aerated":3068,"Ġble":3069,"Ġdefinitely":3070,"Ġfollowed":3071,"Ġbiventricular":3072,"Ġpet":3073,"Ġdiuresis":3074,"Ġcombined":3075,"Ġjuxt":3076,"other":3077,"Ġimmedi":3078,"Ġmarkers":3079,"Ġunderpenet":3080,"Ġanteriorly":3081,"Ġvalv":3082,"Ġacquired":3083,"Ġpartly":3084,"Ġdating":3085,"Ġupon":3086,"Ġcir":3087,"Ġdocumented":3088,"Ġalread":3089,"Ġflattened":3090,"Ġalready":3091,"rated":3092,"Ġtypical":3093,"Ġcoexisting":3094,"Ġinserted":3095,"lement":3096,"terolateral":3097,"Ġepic":3098,"Ġago":3099,"Ġretracted":3100,"erved":3101,"Ġreach":3102,"Ġrequired":3103,"Ġepicardial":3104,"timeter":3105,"Ġthoracostomy":3106,"Ġconsideration":3107,"Ġshoulders":3108,"Ġduoden":3109,"Ġpri":3110,"Ġretros":3111,"Ġsuture":3112,"eding":3113,"rative":3114,"Ġdisloc":3115,"Ġports":3116,"Ġinflammation":3117,"Ġinitial":3118,"Ġround":3119,"Ġresponsible":3120,"best":3121,"Ġpull":3122,"Ġexplained":3123,"Ġprim":3124,"ash":3125,"chamber":3126,"Ġam":3127,"Ġelement":3128,"Ġpoint":3129,"lum":3130,"Ġasbest":3131,"Ġpoin":3132,"Ġinfiltrative":3133,"yopathy":3134,"Ġcardiomyopathy":3135,"Ġlevels":3136,"arily":3137,"Ġflex":3138,"pping":3139,"ribut":3140,"Ġosteop":3141,"Ġfe":3142,"Ġsignificance":3143,"Ġjuxta":3144,"Ġpleur":3145,"Ġaccompanying":3146,"Ġduodenum":3147,"Ġpy":3148,"Ġchronically":3149,"iter":3150,"Ġmuc":3151,"Ġfel":3152,"Ġ16":3153,"lumen":3154,"Ġfelt":3155,"ner":3156,"entation":3157,"placed":3158,"Ġ13":3159,"Ġprosthesis":3160,"Ġsurro":3161,"Ġgoiter":3162,"Ġcavitary":3163,"Ġosteopen":3164,"con":3165,"dis":3166,"Ġanother":3167,"Ġpleurx":3168,"Ġten":3169,"Ġdissection":3170,"Ġmanif":3171,"ot":3172,"Ġlocalized":3173,"Ġthera":3174,"Ġwind":3175,"Ġdistributed":3176,"Ġwindow":3177,"Ġcontinuous":3178,"dominal":3179,"Ġconfigurational":3180,"Ġori":3181,"Ġwide":3182,"chond":3183,"urring":3184,"abdominal":3185,"Ġarth":3186,"Ġoccurred":3187,"Ġtherapy":3188,"Ġcondition":3189,"Ġcommon":3190,"Ġaccum":3191,"ogenic":3192,"Ġpatholog":3193,"oscopy":3194,"cav":3195,"Ġperm":3196,"Ġpylor":3197,"bo":3198,"Ġincidentally":3199,"Ġeach":3200,"ulus":3201,"Ġmove":3202,"Ġcall":3203,"Ġseque":3204,"Ġextremity":3205,"Ġoverlie":3206,"Ġhypoinflated":3207,").":3208,"Ġasbestos":3209,"Ġrepair":3210,"Ġstreaks":3211,"Ġsequela":3212,"duc":3213,"vity":3214,"Ġimpl":3215,"________________________________":3216,"Ġdislocation":3217,"flow":3218,"Ġcp":3219,"junction":3220,"Ġsecu":3221,"Ġabut":3222,"vis":3223,"Ġexpos":3224,"Ġextra":3225,"Ġconjunction":3226,"theless":3227,"Ġlongstanding":3228,"Ġnarrowing":3229,"Ġke":3230,"ocentesis":3231,"mul":3232,"Ġraise":3233,"Ġwedging":3234,"oplas":3235,"Ġsized":3236,"Ġpriors":3237,"Ġlimitation":3238,"Ġplain":3239,"Ġsurroun":3240,"art":3241,"ergent":3242,"Ġcalcific":3243,"Ġoutflow":3244,"Ġtransp":3245,"Ġnever":3246,"Ġmanner":3247,"Ġbeing":3248,"Ġnecessary":3249,"Ġreques":3250,"itivity":3251,"Ġpectus":3252,"Ġsarcoidosis":3253,"Ġrequested":3254,"Ġpersisting":3255,"Ġstern":3256,"Ġfunction":3257,"Ġventilated":3258,"Ġsepar":3259,"ty":3260,"Ġequivocal":3261,"idering":3262,"Ġrefle":3263,"Ġdetection":3264,"board":3265,"app":3266,"Ġconsidering":3267,"eralization":3268,"Ġinvolv":3269,"Ġstability":3270,"Ġmakes":3271,"Ġexposure":3272,"cm":3273,"Ġcys":3274,"aryn":3275,"Ġdash":3276,"Ġedge":3277,"Ġoccu":3278,"Ġarm":3279,"Ġstimul":3280,"Ġdashboard":3281,"cent":3282,"Ġog":3283,"Ġenlarging":3284,"Ġindicates":3285,"Ġtraverses":3286,"Ġmetastasis":3287,"Ġformation":3288,"Ġretrosternal":3289,"Ġpus":3290,"Ġconsolidated":3291,"Ġkin":3292,"Ġrelates":3293,"Ġpointing":3294,"Ġsurrounding":3295,"Ġcare":3296,"Ġnin":3297,"Ġexaggerating":3298,"Ġheads":3299,"Ġnurse":3300,"Ġkeep":3301,"yed":3302,"Ġstimulator":3303,"Ġninth":3304,"Ġmust":3305,"Ġretic":3306,"Ġunusual":3307,"atosis":3308,"Ġhiatus":3309,"Ġdifference":3310,"ize":3311,"Ġdemineralization":3312,"Ġkeeping":3313,"Ġcoars":3314,"umor":3315,"Ġmy":3316,"Ġloculation":3317,"Ġshowed":3318,"land":3319,"Ġcertain":3320,"Ġcosto":3321,"Ġconveyed":3322,"Ġcommunications":3323,"xr":3324,"Ġcxr":3325,"Ġobserved":3326,"stration":3327,"Ġcrosses":3328,"Ġsclerosis":3329,"Ġmanifest":3330,"arynx":3331,"Ġsitting":3332,"Ġquestionable":3333,"Ġbleeding":3334,"Ġpushed":3335,"inear":3336,"ought":3337,"Ġsubpleural":3338,"Ġirregularity":3339,"Ġstripe":3340,"emergent":3341,"Ġpersistently":3342,"Ġhyperlu":3343,"Ġ14":3344,"Ġcauses":3345,"Ġtumor":3346,"Ġcavity":3347,"Ġhealing":3348,"ism":3349,"Ġtb":3350,"esophag":3351,"Ġthoracocentesis":3352,"Ġthought":3353,"hole":3354,"ired":3355,"Ġshown":3356,"Ġclip":3357,"Ġglo":3358,"Ġprojected":3359,"Ġupward":3360,"Ġintroduc":3361,"Ġnevertheless":3362,"Ġvisualization":3363,"Ġsensitivity":3364,"Ġdetails":3365,"Ġelect":3366,"ilinear":3367,"Ġannular":3368,"Ġpylorus":3369,"-___":3370,"ital":3371,"Ġsple":3372,"Ġcurvilinear":3373,"mid":3374,"sp":3375,"Ġwill":3376,"cumulation":3377,"esophagus":3378,"bing":3379,"uation":3380,"Ġtracking":3381,"Ġannulus":3382,"ound":3383,"ifted":3384,"rected":3385,"Ġcri":3386,"pre":3387,"Ġexist":3388,"Ġshifted":3389,"Ġcardiothoracic":3390,"spine":3391,"ok":3392,"Ġinflammatory":3393,"Ġintroducer":3394,"onia":3395,"Ġpedic":3396,"Ġdeterm":3397,"Ġimpos":3398,"Ġcomponents":3399,"Ġdetermine":3400,"Ġimpossible":3401,"oned":3402,"Ġfragm":3403,"odular":3404,"Ġoverlapping":3405,"Ġpedicle":3406,"cin":3407,"mit":3408,"Ġfact":3409,"Ġposterolateral":3410,"Ġlesser":3411,"Ġmeasures":3412,"Ġreduction":3413,"ling":3414,"Ġivc":3415,"Ġfissures":3416,"Ġdouble":3417,"chondral":3418,"Ġplu":3419,"Ġerect":3420,"Ġdesired":3421,"Ġembolism":3422,"Ġscapula":3423,"omatosis":3424,"Ġmotion":3425,"Ġforward":3426,"Ġteam":3427,"Ġ09":3428,"distended":3429,"Ġtoo":3430,"Ġasymmetrically":3431,"Ġelongated":3432,"Ġdone":3433,"Ġevol":3434,"Ġhighly":3435,"Ġwet":3436,"Ġsty":3437,"arency":3438,"Ġcarcin":3439,"Ġcen":3440,"Ġlater":3441,"Ġpneumonectomy":3442,"Ġinform":3443,"Ġregard":3444,"Ġstabil":3445,"Ġcritical":3446,"Ġaround":3447,"right":3448,"Ġvp":3449,"ardium":3450,"sel":3451,"Ġplug":3452,"Ġextend":3453,"Ġtransparency":3454,"Ġsternum":3455,"Ġstylet":3456,"Ġobscure":3457,"Ġvari":3458,"Ġ17":3459,"Ġradiology":3460,"Ġbronchoscopy":3461,"Ġintrodu":3462,"tium":3463,"Ġfinal":3464,"Ġaccumulation":3465,"Ġmanifestation":3466,"Ġfilter":3467,"Ġthin":3468,"Ġnature":3469,"Ġalone":3470,"Ġliver":3471,"Ġhemothorax":3472,"ĠĠĠ":3473,"Ġneoplas":3474,"Ġemboli":3475,"Ġmd":3476,"Ġfoci":3477,"Ġserious":3478,"ood":3479,"Ġitsel":3480,"Ġinfiltration":3481,"Ġitself":3482,"Ġthus":3483,"Ġtubing":3484,"Ġinterpre":3485,"ape":3486,"Ġcircum":3487,"isplaced":3488,"Ġfeas":3489,"Ġsurface":3490,"Ġ08":3491,"Ġlumen":3492,"Ġinterstitium":3493,"Ġfractured":3494,"Ġtelephoneon":3495,"Ġfeasible":3496,"Ġlooped":3497,"Ġattribut":3498,"Ġimplant":3499,"nant":3500,"olateral":3501,"Ġremnant":3502,"Ġredemonstration":3503,"Ġattributable":3504,"..":3505,"Ġpel":3506,"Ġret":3507,"rence":3508,"Ġtraced":3509,"Ġcentimeter":3510,"Ġcomment":3511,"Ġspic":3512,"Ġreflected":3513,"Ġkyphotic":3514,"Ġnondisplaced":3515,"Ġchannel":3516,"Ġbore":3517,"Ġtem":3518,"Ġscre":3519,"Ġtotal":3520,"Ġconsiderable":3521,"osp":3522,"Ġsecure":3523,"Ġspiculated":3524,"Ġlook":3525,"ium":3526,"til":3527,"Ġobliqu":3528,"Ġunderpenetration":3529,"Ġstabilization":3530,"arding":3531,"angular":3532,"Ġblood":3533,"Ġvalvular":3534,"nt":3535,"Ġdish":3536,"Ġcorrelated":3537,"Ġsidehole":3538,"Ġdemonstration":3539,"Ġcostochondral":3540,"Ġretur":3541,"Ġq":3542,"inc":3543,"Ġseating":3544,"paces":3545,"Ġcompare":3546,"Ġpreoperative":3547,"Ġbaseline":3548,"urgent":3549,"Ġfragment":3550,"tions":3551,"Ġheavily":3552,"Ġimmediately":3553,"cies":3554,"Ġorder":3555,"Ġradiolog":3556,"Ġregarding":3557,"Ġ05":3558,"Ġvertebra":3559,"Ġplaque":3560,"Ġrenal":3561,"ually":3562,"Ġhaze":3563,"Ġmorph":3564,"Ġabutting":3565,"Ġul":3566,"Ġdecu":3567,"Ġaccentuation":3568,"likely":3569,"Ġenters":3570,"Ġevolving":3571,"Ġdecubitus":3572,"iary":3573,"there":3574,"Ġdirected":3575,"Ġabscess":3576,"inary":3577,"sing":3578,"ason":3579,"etric":3580,"Ġthickened":3581,"ailed":3582,"Ġdep":3583,"Ġcontribu":3584,"Ġcoal":3585,"Ġvertebroplasty":3586,"Ġobliquity":3587,"Ġlack":3588,"ries":3589,"Ġreason":3590,"Ġcontaining":3591,"Ġextrapleural":3592,"Ġesophagectomy":3593,"Ġcavitation":3594,"lous":3595,"otomy":3596,"Ġanti":3597,"Ġcoinc":3598,"Ġrecommendations":3599,"Ġexaggerate":3600,"Ġbulla":3601,"Ġscrew":3602,"Ġable":3603,"ange":3604,"obstr":3605,"ive":3606,"tis":3607,"Ġcough":3608,"Ġretained":3609,"Ġconsequ":3610,"Ġsited":3611,"Ġnei":3612,"Ġbullous":3613,"Ġsplen":3614,"Ġrequi":3615,"Ġmonth":3616,"itoneal":3617,"Ġexplan":3618,"Ġinvolvement":3619,"Ġconsequence":3620,"Ġaff":3621,"Ġdistortion":3622,"Ġseptic":3623,"Ġinfarction":3624,"cedural":3625,"Ġlymphang":3626,"Ġsecre":3627,"Ġresiding":3628,"mitted":3629,"Ġcentimeters":3630,"Ġneither":3631,"tig":3632,"Ġwithdrawal":3633,"istence":3634,"Ġreturn":3635,"obstructive":3636,"Ġbil":3637,"Ġgrow":3638,"Ġseptal":3639,"Ġneoesophagus":3640,"Ġcoales":3641,"ucent":3642,"Ġpelvis":3643,"Ġflow":3644,"Ġdet":3645,"Ġshape":3646,"Ġpathologic":3647,"Ġexplanation":3648,"Ġlip":3649,"Ġdefinitively":3650,"Ġinformation":3651,"Ġunlikely":3652,"Ġblurring":3653,"Ġruled":3654,"unted":3655,"Ġopacified":3656,"Ġnodularity":3657,"Ġmastectomy":3658,"Ġattributed":3659,"Ġexists":3660,"bronchial":3661,"Ġ,":3662,"Ġect":3663,"Ġhosp":3664,"Ġblunted":3665,"Ġartifactual":3666,"Ġtriangular":3667,"Ġhospital":3668,"dal":3669,"Ġty":3670,"Ġdeep":3671,"itic":3672,"peric":3673,"Ġcorrel":3674,"Ġresultant":3675,"Ġneeded":3676,"Ġpage":3677,"Ġvs":3678,"itu":3679,"Ġpersistence":3680,"cency":3681,"Ġaneurysmal":3682,"Ġosteopenia":3683,"Ġkink":3684,"bas":3685,"situ":3686,"Ġazygous":3687,"Ġoverlap":3688,"acu":3689,"Ġstrongly":3690,"Ġdetailed":3691,"Ġinn":3692,"oper":3693,"Ġsuspect":3694,"Ġjuxtahilar":3695,"Ġtype":3696,"Ġanch":3697,"Ġrecurred":3698,"Ġ___-":3699,"overed":3700,"Ġprimarily":3701,"Ġsecretions":3702,"Ġpen":3703,"Ġtrue":3704,"Ġrotator":3705,"stomy":3706,"Ġlucencies":3707,"Ġyear":3708,"Ġtraumatic":3709,"Ġadvancing":3710,"Ġlying":3711,"Ġaspects":3712,"Ġcoiling":3713,"Ġmorphology":3714,"Ġmig":3715,"atent":3716,"assess":3717,"Ġarthroplasty":3718,"Ġcertainly":3719,".___":3720,"opharynx":3721,"Ġentered":3722,"Ġcharacterize":3723,"Ġdeposition":3724,"Ġmillim":3725,"Ġlymphangitic":3726,"test":3727,"ish":3728,"isted":3729,"iltr":3730,"Ġech":3731,"Ġmist":3732,"infiltr":3733,"Ġsymmetrically":3734,"Ġreaccumulation":3735,"Ġintroduction":3736,"upper":3737,"Ġsuc":3738,"atum":3739,"Ġresides":3740,"Ġbiliary":3741,"Ġmistaken":3742,"iding":3743,"Ġdetermin":3744,"ogn":3745,"Ġonce":3746,"Ġsuccess":3747,"Ġslow":3748,"Ġsubmitted":3749,"Ġhal":3750,"Ġcomparable":3751,"Ġfold":3752,"iotic":3753,"Ġmake":3754,"Ġaccounts":3755,"Ġ;":3756,"lectasis":3757,"Ġcentrally":3758,"Ġaccur":3759,"Ġlucent":3760,"Ġprelim":3761,"Ġattenuation":3762,"Ġmaking":3763,"appear":3764,"infiltrate":3765,"des":3766,"tation":3767,"Ġdest":3768,"Ġheavy":3769,"Ġantib":3770,"Ġhalf":3771,"Ġbronchitis":3772,"Ġpreliminary":3773,"Ġantibiotic":3774,"'t":3775,"Ġlocations":3776,"Ġdestru":3777,"cage":3778,"Ġus":3779,"Ġov":3780,"Ġtun":3781,"Ġtree":3782,"Ġrecogn":3783,"Ġribcage":3784,"Ġcontribute":3785,"Ġcostal":3786,"currence":3787,"Ġexcav":3788,"Ġrespiratory":3789,"Ġflexed":3790,"Ġmillimetric":3791,"Ġisland":3792,"Ġpneumoperic":3793,"Ġimprove":3794,"Ġ04":3795,"Ġelectro":3796,"Ġexcavatum":3797,"Ġpneumopericardium":3798,"Ġnone":3799,"Ġme":3800,"Ġdiagnos":3801,"related":3802,"Ġtric":3803,"Ġlev":3804,"Ġscout":3805,"Ġfilled":3806,"Ġrange":3807,"Ġorientation":3808,"Ġwater":3809,"Ġtuberculous":3810,"known":3811,"aring":3812,"acer":3813,"Ġbub":3814,"Ġ18":3815,"Ġeffect":3816,"Ġplugging":3817,"Ġaffect":3818,"erve":3819,"atter":3820,"Ġpresentation":3821,"Ġperipher":3822,"Ġovoid":3823,"Ġbubble":3824,"uspid":3825,"neled":3826,"izing":3827,"Ġatherosclerosis":3828,"Ġopaque":3829,"Ġoffic":3830,"Ġcoinciding":3831,"Ġtunneled":3832,"Ġapart":3833,"Ġnaso":3834,"Ġconfirmation":3835,"Ġtricuspid":3836,"ats":3837,"Ġrule":3838,"Ġmucous":3839,"Ġperipherally":3840,"tra":3841,"Ġreassess":3842,"ressed":3843,"Ġsimilarly":3844,"Ġsideport":3845,"Ġanat":3846,"Ġantr":3847,"Ġprobe":3848,"Ġspread":3849,"Ġsplenic":3850,"based":3851,"Ġantrum":3852,"Ġsparing":3853,"Ġfollows":3854,"Ġcell":3855,"xic":3856,"Ġdepic":3857,"Ġexpansion":3858,"Ġconsiderations":3859,"Ġinfarct":3860,"Ġunknown":3861,"ocardi":3862,"Ġdensely":3863,"icient":3864,"Ġsymmetrical":3865,"Ġinterpretation":3866,"10":3867,"nam":3868,"tras":3869,"Ġhyperlucency":3870,"Ġradiologist":3871,"unct":3872,"radi":3873,"Ġsuff":3874,"testinal":3875,"fe":3876,"Ġring":3877,"Ġlatter":3878,"Ġ24":3879,"enteric":3880,"Ġultras":3881,"),":3882,"Ġbare":3883,"Ġresident":3884,"appearing":3885,"Ġultrasound":3886,"Ġbarely":3887,"atelectasis":3888,"Ġexisting":3889,"opneum":3890,"Ġprec":3891,"Ġmargins":3892,"Ġdeviated":3893,"Ġglobular":3894,"Ġtoxic":3895,"vex":3896,"Ġnonemergent":3897,"Ġdepending":3898,"Ġpleuro":3899,"Ġsa":3900,"Ġspaces":3901,"Ġmic":3902,"Ġwid":3903,"Ġnonurgent":3904,"ju":3905,"Ġvisualize":3906,"Ġtelephoned":3907,"jugular":3908,"Ġpe":3909,"Ġpunct":3910,"rid":3911,"Ġbar":3912,"veal":3913,"Ġtransjugular":3914,"Ġdistinct":3915,"Ġtemp":3916,"radiation":3917,"Ġuse":3918,"Ġune":3919,"Ġinterspace":3920,"Ġclar":3921,"Ġreadily":3922,"traum":3923,"Ġwidth":3924,"old":3925,"Ġlob":3926,"itation":3927,"Ġtubular":3928,"Ġwho":3929,"Ġmorning":3930,"Ġectatic":3931,"12":3932,"Ġrequ":3933,"Ġlytic":3934,"oplasty":3935,"Ġunequivocal":3936,"Ġbed":3937,"anent":3938,"Ġimpac":3939,"procedural":3940,"Ġpermanent":3941,"Ġnasoenteric":3942,"matic":3943,"Ġreveal":3944,"Ġ20":3945,"Ġtracheob":3946,"Ġthoracotomy":3947,"procedure":3948,"Ġprimary":3949,"Ġoriented":3950,"Ġechocardi":3951,"Ġprecise":3952,"Ġmed":3953,"Ġtriple":3954,"Ġreticul":3955,"traumatic":3956,"Ġfair":3957,"ayed":3958,"Ġboard":3959,"Ġgreat":3960,"Ġshowing":3961,"Ġlipomatosis":3962,"Ġpunctate":3963,"ley":3964,"left":3965,"Ġvats":3966,"Ġcann":3967,"Ġtoxicity":3968,"Ġdors":3969,"Ġshe":3970,"Ġdilation":3971,"Ġcollections":3972,"Ġcephalad":3973,"Ġcyst":3974,"Ġseriously":3975,"Ġsufficient":3976,"Ġsmo":3977,"Ġattem":3978,"Ġfocally":3979,"umerable":3980,"Ġinnumerable":3981,"end":3982,"Ġhor":3983,"Ġventricul":3984,"sectional":3985,"Ġrapidly":3986,"Ġcystic":3987,"Ġpercutaneous":3988,"Ġfavoring":3989,"Ġsides":3990,"Ġnerve":3991,"Ġden":3992,"Ġcardiogenic":3993,"Ġcallus":3994,"Ġcareful":3995,"Ġreticulon":3996,"Ġgastrostomy":3997,"Ġcarcinoma":3998,"Ġrequire":3999,"Ġfairly":4000,"Ġdorsal":4001,"scribed":4002,"Ġour":4003,"Ġflu":4004,"Ġreexpansion":4005,"Ġbenign":4006,"Ġtempor":4007,"Ġreticulonodular":4008,"Ġrecurrence":4009,"Ġrecor":4010,"izontal":4011,"Ġpassing":4012,"Ġoblite":4013,"Ġosteophyte":4014,"Ġcolonic":4015,"Ġimmediate":4016,"Ġoccupy":4017,"Ġneoplasm":4018,"Ġtent":4019,"omogen":4020,"Ġdramatic":4021,"Ġcoalescent":4022,"Ġunequivocally":4023,"Ġhorizontal":4024,"Ġidentify":4025,"Ġleading":4026,"oscoliosis":4027,"operitoneal":4028,"Ġaccurately":4029,"Ġdeno":4030,"Ġtemporary":4031,"uish":4032,"Ġlatent":4033,"Ġinclusion":4034,"ances":4035,"Ġdys":4036,"Ġrepresentative":4037,"Ġtracheobronchial":4038,"Ġrecords":4039,"Ġexacer":4040,"Ġdiscon":4041,"ologies":4042,"Ġconsiderably":4043,"Ġapicolateral":4044,"Ġwarrant":4045,"Ġscrews":4046,"pulmonary":4047,"Ġradio":4048,"Ġviral":4049,"Ġrough":4050,"Ġquestioned":4051,"Ġoverinflated":4052,"Ġunderpenetrated":4053,"Ġventriculoperitoneal":4054,"Ġtenting":4055,"Ġexacerb":4056,"ored":4057,"Ġstem":4058,"Ġendobronchial":4059,"Ġextension":4060,"Ġperibronch":4061,"Ġsituation":4062,"Ġroughly":4063,"iod":4064,"Ġmen":4065,"Ġdisting":4066,"Ġdid":4067,"Ġportably":4068,"Ġbronchopneum":4069,"Ġdiscovered":4070,"Ġ07":4071,"demonstrated":4072,"Ġ--":4073,"Ġosteopenic":4074,"Ġpermits":4075,"lin":4076,"svc":4077,"alle":4078,"Ġseem":4079,"Ġintravascular":4080,"Ġetiologies":4081,"Ġcoarsened":4082,"acute":4083,"Ġmigrated":4084,"arone":4085,"Ġdictated":4086,"Ġamiod":4087,"omogeneous":4088,"Ġamiodarone":4089,"oing":4090,"solid":4091,"Ġpeg":4092,"Ġbrid":4093,"Ġacro":4094,"Ġscapular":4095,"Ġfever":4096,"Ġmonths":4097,"Ġnum":4098,"Ġher":4099,"Ġreactive":4100,"Ġslowly":4101,"Ġacross":4102,"Ġhour":4103,"Ġorgan":4104,"Ġradiodense":4105,"Ġbarium":4106,"Ġdistinguish":4107,"eval":4108,"istic":4109,"Ġepi":4110,"pies":4111,"Ġsuperimposition":4112,"Ġarchite":4113,"Ġindentation":4114,"Ġstriking":4115,"Ġfavor":4116,"Ġoccupies":4117,"Ġarchitect":4118,"Ġintestinal":4119,"Ġexpan":4120,"gressive":4121,"Ġsulci":4122,"Ġnecessarily":4123,"Ġsuccessful":4124,"Ġnumber":4125,"ses":4126,"through":4127,"Ġsum":4128,"Ġshaped":4129,"Ġhigher":4130,"Ġreaction":4131,"Ġdetecting":4132,"Ġvalves":4133,"Ġreticulation":4134,"Ġcorrelates":4135,"Ġcran":4136,"Ġhand":4137,"Ġdiss":4138,"Ġpara":4139,"pylor":4140,"Ġdepicted":4141,"Ġbronchopneumonia":4142,"Ġsumm":4143,"ency":4144,"Ġbro":4145,"Ġorth":4146,"Ġprocesses":4147,"Ġdrained":4148,"Ġphysical":4149,"Ġcommonly":4150,"Ġpenet":4151,"Ġyears":4152,"Ġbridging":4153,"ament":4154,"Ġspurring":4155,"Ġassist":4156,"Ġatrio":4157,"pyema":4158,"Ġoccupying":4159,"pyloric":4160,"going":4161,"portion":4162,"Ġusual":4163,"Ġneg":4164,"Ġongoing":4165,"consolid":4166,"tead":4167,"Ġhomogeneous":4168,"Ġsequ":4169,"Ġsegmental":4170,"Ġvir":4171,"Ġpack":4172,"issural":4173,"Ġcrowded":4174,"moderately":4175,"Ġhypopharynx":4176,"Ġlooks":4177,"plate":4178,"Ġhyperd":4179,"Ġolder":4180,"tinu":4181,"Ġiab":4182,"Ġsay":4183,"tiated":4184,"Ġaggressive":4185,"cavoatrial":4186,"Ġdestruction":4187,"Ġorthop":4188,"consolidation":4189,"Ġiabp":4190,"bore":4191,"Ġlv":4192,"Ġsubacute":4193,"Ġendplate":4194,"Ġperivascular":4195,"dynam":4196,"Ġgeneral":4197,"Ġmyel":4198,"Ġanatom":4199,"Ġdiscontinu":4200,"ip":4201,"Ġtak":4202,"ronic":4203,"Ġinstead":4204,"Ġdetectable":4205,"Ġlevoscoliosis":4206,"Ġrequest":4207,"Ġdissemin":4208,"Ġorthopedic":4209,"gre":4210,"nd":4211,"than":4212,"acterial":4213,"Ġlie":4214,"Ġlig":4215,"rug":4216,"atest":4217,"Ġker":4218,"Ġangulation":4219,"Ġreturned":4220,"dedicated":4221,"Ġparas":4222,"Ġdiscord":4223,"centimeter":4224,"Ġneut":4225,"Ġempyema":4226,"Ġsummation":4227,"Ġnegative":4228,"greater":4229,"ale":4230,"Ġhow":4231,"chdal":4232,"Ġprodu":4233,"Ġsiz":4234,"Ġairless":4235,"Ġobtain":4236,"tically":4237,"Ġdistally":4238,"Ġcurled":4239,"Ġimplants":4240,"Ġrecognized":4241,"Ġaffecting":4242,"Ġcore":4243,"tioned":4244,"Ġcardiovascular":4245,"Ġoral":4246,"Ġunilateral":4247,"Ġunex":4248,"Ġdiscern":4249,"pneumonia":4250,"pidural":4251,"loculated":4252,"convex":4253,"chdalek":4254,"ject":4255,"Ġepidural":4256,"Ġdrug":4257,"Ġstra":4258,"Ġparalle":4259,"Ġhemodynam":4260,"Ġkerley":4261,"ci":4262,"Ġbig":4263,"Ġacutely":4264,"ography":4265,"Ġbochdalek":4266,"Ġnurses":4267,"Ġfavors":4268,"Ġsequelae":4269,"Ġqual":4270,"Ġusing":4271,"Ġepig":4272,"Ġhous":4273,"Ġfac":4274,"Ġcomple":4275,"mension":4276,"Ġscars":4277,"Ġtend":4278,"ej":4279,"ulating":4280,"Ġdimension":4281,"Ġsubcentimeter":4282,"Ġcarries":4283,"Ġpredominating":4284,"Ġbulging":4285,"Ġligament":4286,"ejun":4287,"effusion":4288,"pinal":4289,"Ġthose":4290,"Ġcontig":4291,"Ġtur":4292,"lip":4293,"Ġrespect":4294,"Ġmonitor":4295,"Ġcorrectly":4296,"Ġtreated":4297,"Ġdownward":4298,"Ġseparately":4299,"Ġsafe":4300,"Ġatrioventricular":4301,"Ġspond":4302,"Ġpostobstructive":4303,"Ġnotified":4304,"cends":4305,"Ġrestric":4306,"Ġreaches":4307,"Ġpoints":4308,"Ġvirt":4309,"Ġspondy":4310,"Ġreal":4311,"Ġdepos":4312,"Ġasth":4313,"Ġsubstantiated":4314,"Ġmalignant":4315,"Ġdextroconvex":4316,"Ġtenth":4317,"Ġ?":4318,"Ġoval":4319,"Ġbes":4320,"Ġsure":4321,"Ġgiving":4322,"Ġfibro":4323,"Ġprojectional":4324,"Ġparaspinal":4325,"Ġcontiguous":4326,"igh":4327,"oti":4328,"ties":4329,"Ġmagn":4330,"Ġfolded":4331,"Ġanchors":4332,"Ġ#":4333,"Ġdomin":4334,"Ġchamber":4335,"Ġpositive":4336,"Ġscale":4337,"Ġcaroti":4338,"Ġquan":4339,"Ġcover":4340,"Ġexaggeration":4341,"Ġreplacements":4342,"Ġglob":4343,"Ġquality":4344,"han":4345,"parenchy":4346,"Ġcase":4347,"cting":4348,"Ġpreexisting":4349,"Ġtell":4350,"Ġcharacter":4351,"Ġbesides":4352,"parenchymal":4353,"of":4354,"cule":4355,"Ġpostoperatively":4356,"Ġellip":4357,"Ġimpaction":4358,"Ġhouse":4359,"Ġhis":4360,"Ġentering":4361,"Ġlobulated":4362,"Ġbigger":4363,"Ġasthma":4364,"Ġ________________________________":4365,"Ġconcei":4366,"Ġbeh":4367,"ify":4368,"Ġgland":4369,"Ġcalled":4370,"______":4371,"______________":4372,"Ġoptimally":4373,"Ġcontains":4374,"______________________________________________":4375,"Ġqa":4376,"Ġbedside":4377,"Ġdisseminated":4378,"Ġ______________________________________________________________________________":4379,"Ġconceiv":4380,"ysi":4381,"Ġintrac":4382,"Ġbb":4383,"Ġseed":4384,"Ġbecom":4385,"resol":4386,"ogram":4387,"Ġile":4388,"Ġfive":4389,"Ġmultiloculated":4390,"Ġcoarsening":4391,"Ġvariation":4392,"Ġvariant":4393,"Ġmedical":4394,"Ġcarotid":4395,"Ġbehind":4396,"altered":4397,"Ġunaltered":4398,"Ġlargest":4399,"Ġdenser":4400,"Ġavr":4401,"Ġcompletion":4402,"Ġsha":4403,"tebral":4404,"latory":4405,"Ġcrossing":4406,"Ġembolus":4407,"Ġseems":4408,"Ġturn":4409,"uries":4410,"Ġpm":4411,"Ġradiol":4412,"Ġoss":4413,"ysis":4414,"amp":4415,"timated":4416,"pture":4417,"Ġocc":4418,"Ġinjuries":4419,"Ġcirc":4420,"Ġhyperlucent":4421,"Ġexacerbation":4422,"Ġsizable":4423,"Ġelliptical":4424,"Ġshaft":4425,"fer":4426,"Ġasci":4427,"Ġexisted":4428,"Ġrepres":4429,"Ġregurg":4430,"Ġcortical":4431,"Ġprogressing":4432,"Ġventilatory":4433,"artment":4434,"Ġdepartment":4435,"Ġbullae":4436,"Ġdominant":4437,"Ġascites":4438,"Ġregurgitation":4439,"lay":4440,"Ġcontent":4441,"Ġacce":4442,"Ġmasslike":4443,"Ġplan":4444,"Ġmicron":4445,"Ġsheet":4446,"Ġmyeloma":4447,"Ġileus":4448,"uge":4449,"Ġec":4450,"Ġanterolateral":4451,"atures":4452,"Ġpauc":4453,"Ġtran":4454,"cardiogenic":4455,"Ġregional":4456,"Ġsupporting":4457,"distributed":4458,"Ġthoraco":4459,"Ġproperly":4460,"oscopic":4461,"Ġreaching":4462,"Ġcarcinomatosis":4463,"Ġcannula":4464,"Ġpaucity":4465,"cence":4466,"ĠĊ":4467,"Ġcv":4468,"Ġoper":4469,"aspiration":4470,"Ġexcludes":4471,"Ġhep":4472,"Ġflexure":4473,"Ġvertebrae":4474,"Ġoffice":4475,"Ġglobal":4476,"hanced":4477,"inter":4478,"Ġpse":4479,"ild":4480,"Ġexact":4481,"Ġimport":4482,"Ġfragments":4483,"Ġpseud":4484,"Ġterm":4485,"neath":4486,"Ġur":4487,"clus":4488,"Ġclus":4489,"Ġunderneath":4490,"Ġphysi":4491,"Ġinvolve":4492,"Ġglenoid":4493,"Ġbands":4494,"Ġnarrowed":4495,"Ġgrown":4496,"Ġkinked":4497,"Ġrepresented":4498,"fissural":4499,"Ġisin":4500,"Ġhuge":4501,"Ġcontribution":4502,"Ġcontribut":4503,"Ġosseus":4504,"Ġpole":4505,"Ġdescends":4506,"Ġavoid":4507,"clusive":4508,"acted":4509,"Ġclos":4510,"Ġadequately":4511,"Ġneoplastic":4512,"Ġlvad":4513,"cir":4514,"rome":4515,"uity":4516,"Ġopp":4517,"Ġlatest":4518,"Ġaband":4519,"Ġobject":4520,"strates":4521,"Ġips":4522,"Ġrods":4523,"lobular":4524,"Ġsynd":4525,"Ġformations":4526,"Ġdeposits":4527,"Ġsyndrome":4528,"Ġredistributed":4529,"Ġ___%":4530,"Ġinterf":4531,"Ġuppermost":4532,"Ġcalcium":4533,"Ġintrafissural":4534,"Ġtechnically":4535,"iciency":4536,"Ġobstructing":4537,"Ġkinking":4538,"Ġdetermined":4539,"Ġtaking":4540,"Ġabandoned":4541,"Ġipsilateral":4542,"tu":4543,"Ġnp":4544,"estig":4545,"Ġatelectases":4546,"Ġappearances":4547,"utine":4548,"Ġcordis":4549,"Ġroutine":4550,"Ġfilling":4551,"Ġinvestig":4552,"Ġconvexity":4553,"Ġfactors":4554,"Ġdiagnostic":4555,"Ġmentioned":4556,"evalu":4557,"Ġvirtually":4558,"11":4559,"Ġou":4560,"Ġuntil":4561,"Ġcontacted":4562,"Ġclamp":4563,"Ġdifferenti":4564,"Ġproximally":4565,"Ġattending":4566,"Ġminute":4567,"displaced":4568,"oth":4569,"Ġact":4570,"Ġsten":4571,"Ġbran":4572,"Ġacuity":4573,"sile":4574,"Ġadj":4575,"Ġcaring":4576,"Ġextended":4577,"Ġyet":4578,"Ġconspicuity":4579,"Ġexpansile":4580,"Ġconceivably":4581,"Ġbranch":4582,"ged":4583,"Ġsubjacent":4584,"ective":4585,"Ġremained":4586,"Ġmind":4587,"avr":4588,"Ġcollected":4589,"cumscribed":4590,"Ġseparation":4591,"circumscribed":4592,".,":4593,"cal":4594,"itary":4595,"Ġdefect":4596,"Ġrelayed":4597,"Ġvagal":4598,"Ġlocalize":4599,"Ġelectrode":4600,"Ġthoracoabdominal":4601,"iation":4602,"Ġflo":4603,"Ġgall":4604,"sient":4605,"infec":4606,"Ġfolds":4607,"lobar":4608,"Ġdirectly":4609,"Ġpathological":4610,"Ġneutral":4611,"Ġtransient":4612,"Ġinten":4613,"Ġfl":4614,"Ġseal":4615,"Ġmilder":4616,"Ġmidportion":4617,"Ġngt":4618,"Ġstenting":4619,"Ġmainly":4620,"Ġbandlike":4621,"Ġinvolves":4622,"Ġelectronic":4623,"Ġflowing":4624,"Ġouter":4625,"Ġlap":4626,"rop":4627,"derness":4628,"Ġvisc":4629,"Ġiv":4630,"Ġexaggerates":4631,"Ġemail":4632,"Ġelectrodes":4633,"Ġfacility":4634,"Ġaccept":4635,"ording":4636,"Ġtermination":4637,"inflamm":4638,"Ġaccording":4639,"Ġpossibil":4640,"mailed":4641,"Ġmucus":4642,"Ġtenderness":4643,"Ġechocardiography":4644,"Ġusually":4645,"Ġcovering":4646,"function":4647,"othoracic":4648,"Ġ'":4649,"Ġbat":4650,"Ġunless":4651,"Ġsites":4652,"iform":4653,"Ġinterposition":4654,"Ġ19":4655,"Ġwork":4656,"Ġposttraumatic":4657,"Ġperiod":4658,"Ġ06":4659,"demonstrates":4660,"Ġlocalizing":4661,"Ġprogressively":4662,"Ġinitially":4663,"Ġanchor":4664,"Ġattempt":4665,"Ġobliteration":4666,"Ġacceptable":4667,"tly":4668,"Ġmri":4669,"Ġtavr":4670,"Ġconne":4671,"ardiac":4672,"pacity":4673,"seal":4674,"sip":4675,"Ġarms":4676,"Ġcollect":4677,"Ġeight":4678,"Ġdramatically":4679,"Ġmagnified":4680,"Ġpossibilities":4681,"desis":4682,"pted":4683,"Ġsits":4684,"Ġconclusive":4685,"Ġdec":4686,"Ġdispl":4687,"Ġsublu":4688,"Ġagainst":4689,"Ġjejun":4690,"Ġmassively":4691,"Ġtraversing":4692,"distal":4693,"Ġsequen":4694,"Ġcontents":4695,"Ġurgent":4696,"tre":4697,"Ġbacterial":4698,"anted":4699,"Ġhemop":4700,"Ġvertically":4701,"Ġlymphoma":4702,"Ġosteo":4703,"Ġcervic":4704,"Ġsecured":4705,"Ġfactor":4706,"tysis":4707,"Ġris":4708,"rection":4709,"Ġpulmonic":4710,"Ġfine":4711,"icu":4712,"itud":4713,"Ġbeg":4714,"Ġposted":4715,"Ġsubtly":4716,"Ġheights":4717,"Ġabuts":4718,"Ġradiolucen":4719,"Ġhepatic":4720,"Ġimportant":4721,"Ġinterface":4722,"Ġcollecting":4723,"Ġhemoptysis":4724,"cp":4725,"Ġnsip":4726,"accumulation":4727,"Ġclearance":4728,"ortun":4729,"Ġscans":4730,"Ġregressed":4731,"Ġintravenous":4732,"stances":4733,"Ġcombines":4734,"Ġbulk":4735,"Ġuseful":4736,"Ġdiscordance":4737,"Ġcontributing":4738,"Ġsequential":4739,"aff":4740,"isition":4741,"Ġep":4742,"rable":4743,"Ġunable":4744,"vertebral":4745,"Ġmodal":4746,"Ġradiographdemonstrates":4747,"Ġaccoun":4748,"Ġdiameters":4749,"Ġcircumstances":4750,"Ġcervicothoracic":4751,"Ġaccounted":4752,"Ġbulge":4753,"Ġimplanted":4754,"Ġclarify":4755,"Ġepigastric":4756,"inflammatory":4757,"cys":4758,"Ġamon":4759,"Ġamen":4760,"Ġway":4761,"ock":4762,"Ġintervention":4763,"Ġsubc":4764,"Ġalongside":4765,"Ġinspirational":4766,"Ġ03":4767,"Ġserial":4768,"Ġeffac":4769,"Ġkyphoplasty":4770,"Ġmucoid":4771,"Ġsmooth":4772,"Ġdenote":4773,"Ġwarrants":4774,"Ġanatomic":4775,"ighted":4776,"Ġbecome":4777,"Ġpseudo":4778,"ropathy":4779,"Ġamong":4780,"Ġamenable":4781,"dated":4782,"xed":4783,"arth":4784,"oration":4785,"opath":4786,"Ġweighted":4787,"Ġperson":4788,"Ġbroncho":4789,"Ġvertical":4790,"Ġpredominately":4791,"Ġrepeated":4792,"Ġeffective":4793,"Ġreading":4794,"Ġfeatures":4795,"Ġdepression":4796,"Ġfloor":4797,"Ġmarginated":4798,"positioning":4799,"Ġexplains":4800,"Ġbullet":4801,"Ġpleurodesis":4802,"Ġcluster":4803,"Ġepis":4804,"sures":4805,"Ġ/":4806,"riding":4807,"ritis":4808,"rays":4809,"ource":4810,"Ġprefer":4811,"Ġendogastric":4812,"Ġ21":4813,"Ġhaving":4814,"Ġcts":4815,"Ġpreserved":4816,"Ġpressures":4817,"Ġneph":4818,"Ġbreath":4819,"Ġmany":4820,"Ġvarious":4821,"Ġarthropathy":4822,"Ġarchitectural":4823,"Ġbattery":4824,"treatment":4825,"fusion":4826,"mild":4827,"Ġsent":4828,"Ġsick":4829,"Ġfem":4830,"Ġstation":4831,"Ġlongitud":4832,"Ġthyroidectomy":4833,"Ġconcurrently":4834,"Ġwhereas":4835,"Ġmyc":4836,"Ġtemper":4837,"Ġstenosis":4838,"gra":4839,"Ġpcp":4840,"usted":4841,"ralateral":4842,"Ġleak":4843,"Ġcartil":4844,"Ġtrack":4845,"Ġupdated":4846,"Ġmandi":4847,"Ġmajority":4848,"Ġthink":4849,"Ġparalleling":4850,"Ġrisk":4851,"Ġsickle":4852,"oce":4853,"pir":4854,"uted":4855,"Ġpur":4856,"arinal":4857,"Ġste":4858,"Ġsource":4859,"asia":4860,"mall":4861,"icial":4862,"Ġpneumocys":4863,"Ġuniform":4864,"Ġcontralateral":4865,"Ġaortopulmonary":4866,"Ġidi":4867,"Ġmask":4868,"Ġdocumentation":4869,"Ġparamedi":4870,"Ġembolization":4871,"Ġperibronchovascular":4872,"resolution":4873,"Ġactually":4874,"Ġtemperature":4875,"Ġpneumocystis":4876,"hy":4877,"Ġemailed":4878,"Ġhol":4879,"Ġ23":4880,"odys":4881,"Ġdecompensated":4882,"Ġwaterseal":4883,"Ġdysfunction":4884,"Ġmicronodular":4885,"Ġjejunum":4886,"opathic":4887,"Ġmandible":4888,"Ġidiopathic":4889,"ken":4890,"small":4891,"Ġmi":4892,"omegaly":4893,"Ġstate":4894,"Ġaspir":4895,"Ġimmun":4896,"Ġperitoneal":4897,"Ġ22":4898,"Ġtraction":4899,"Ġnoncardiogenic":4900,"Ġosteodys":4901,"Ġestimated":4902,"Ġsegments":4903,"trophy":4904,"Ġ--___":4905,"Ġseparate":4906,"Ġradiolucency":4907,"Ġlongitudinal":4908,"Ġosteodystrophy":4909,"den":4910,"ef":4911,"par":4912,"rium":4913,"Ġta":4914,"atoce":4915,"Ġintermedi":4916,"Ġperit":4917,"Ġfinally":4918,"Ġdeficiency":4919,"Ġresolve":4920,"Ġmonitored":4921,"more":4922,"Ġlocalization":4923,"Ġaccessed":4924,"Ġskinf":4925,"lines":4926,"Ġpenetration":4927,"Ġcharacteristic":4928,"tube":4929,"Ġparamedian":4930,"licated":4931,"eses":4932,"Ġappend":4933,"Ġevidenced":4934,"Ġcap":4935,"Ġcaval":4936,"Ġlight":4937,"Ġmoreover":4938,"Ġcontinuing":4939,"Ġcurve":4940,"Ġnondedicated":4941,"Ġprostheses":4942,"Ġordering":4943,"described":4944,"Ġgreatly":4945,"Ġbroken":4946,"Ġossification":4947,"tin":4948,"ua":4949,"Ġeas":4950,"oca":4951,"Ġglass":4952,"Ġpostradiation":4953,"Ġprovide":4954,"Ġofficer":4955,"Ġfluor":4956,"Ġorganizing":4957,"Ġtendin":4958,"Ġrestricted":4959,"Ġspondylo":4960,"Ġsubcarinal":4961,"eper":4962,"mediastinal":4963,"asties":4964,"Ġbif":4965,"aneurys":4966,"Ġcomplex":4967,"Ġregression":4968,"Ġmediport":4969,"Ġresidua":4970,"ologic":4971,"Ġpharynx":4972,"Ġ00":4973,"Ġreaccum":4974,"Ġgrafting":4975,"roplasties":4976,"Ġpulling":4977,"Ġgrowing":4978,"infection":4979,"Ġfemoral":4980,"Ġcartilage":4981,"Ġperitracheal":4982,"Ġappendage":4983,"aneurysm":4984,",,":4985,"Ġdeeper":4986,"ostosis":4987,"sign":4988,"Ġlayer":4989,"Ġreflection":4990,"Ġproduce":4991,"Ġbegin":4992,"Ġaspirated":4993,"Ġskinfold":4994,"Ġspondylotic":4995,"wh":4996,"Ġent":4997,"Ġpan":4998,"enhanced":4999,"Ġcongen":5000,"Ġstaff":5001,"estab":5002,"Ġcontact":5003,"ificant":5004,"identified":5005,"Ġexample":5006,"Ġacqu":5007,"catheter":5008,"Ġdiscussion":5009,"stance":5010,"Ġobliques":5011,"Ġmeasure":5012,"Ġperibronchi":5013,"Ġoperative":5014,"Ġdifferentiate":5015,"significant":5016,"establ":5017,"su":5018,"Ġestabl":5019,"Ġcc":5020,"Ġoften":5021,"Ġpneumatoce":5022,"Ġprost":5023,"ained":5024,"Ġwhite":5025,"Ġporta":5026,"Ġcentralized":5027,"Ġdiscuss":5028,"oliotic":5029,"Ġsituated":5030,"Ġrupture":5031,"Ġbleb":5032,"Ġgallst":5033,"Ġpseudoaneurysm":5034,"Ġpneumatocele":5035,"Ġoropharynx":5036,"Ġuncomp":5037,"arge":5038,"Ġinterlobar":5039,"urc":5040,"Ġverb":5041,"Ġrelating":5042,"Ġdistance":5043,"Ġbenef":5044,"appeared":5045,"Ġechocardiogram":5046,"Ġinclusions":5047,"Ġoccult":5048,"Ġpreferably":5049,"Ġacquisition":5050,"Ġuncomplicated":5051,"zing":5052,"Ġinsignificant":5053,"Ġeg":5054,"Ġmiss":5055,"Ġhd":5056,"Ġmidthoracic":5057,"Ġaden":5058,"Ġsimul":5059,"Ġwalls":5060,"plained":5061,"Ġsuboptimally":5062,"Ġcircumstance":5063,"Ġreassessment":5064,"evaluated":5065,"Ġsubluxation":5066,"Ġmodality":5067,"hyd":5068,"Ġholds":5069,"Ġperibronchiolar":5070,"iscule":5071,"Ġriding":5072,"Ġreally":5073,"Ġcompens":5074,"Ġpresently":5075,"Ġinterspaces":5076,"venti":5077,"Ġminiscule":5078,"Ġmaintained":5079,"Ġbronchiol":5080,"Ġfaintly":5081,"Ġcavitated":5082,"Ġupwards":5083,"Ġcranial":5084,"Ġunexplained":5085,"Ġbifurc":5086,"Ġcongenital":5087,"Ġverbally":5088,"ctive":5089,"ply":5090,"tit":5091,"Ġinges":5092,"aning":5093,"Ġcommin":5094,"ticip":5095,"Ġresor":5096,"Ġpostprocedural":5097,"Ġ(___":5098,"romised":5099,"Ġgrad":5100,"indeterminate":5101,"Ġcertainty":5102,"Ġrequires":5103,"Ġattempted":5104,"eve":5105,"long":5106,"roma":5107,"inoma":5108,"Ġthem":5109,"Ġfung":5110,"osed":5111,"Ġevacu":5112,"clage":5113,"Ġintervally":5114,"Ġassum":5115,"Ġsimply":5116,"Ġsoon":5117,"Ġsupra":5118,"avitary":5119,"Ġcerclage":5120,"Ġretrospect":5121,"Ġloculations":5122,"Ġreveals":5123,"Ġobliterating":5124,"Ġhyperdense":5125,"Ġintermedius":5126,"Ġbeginning":5127,"ticipated":5128,"pm":5129,"tosis":5130,"Ġer":5131,"thing":5132,"ulature":5133,"ocarc":5134,"valve":5135,"Ġhyperostosis":5136,"Ġdistorted":5137,"Ġreferrable":5138,"Ġconfirms":5139,"Ġflexion":5140,"Ġhemodynamic":5141,"Ġhemodynamically":5142,"Ġintracavitary":5143,"Ġcomminuted":5144,"ocarcinoma":5145,"Ġequi":5146,"Ġwax":5147,"Ġtam":5148,"pped":5149,"Ġpatients":5150,"Ġkn":5151,"Ġpresented":5152,"Ġrelax":5153,"ologist":5154,"Ġdistort":5155,"Ġobliter":5156,"Ġclosely":5157,"ponade":5158,"proximal":5159,"Ġarchitecture":5160,"Ġunexpected":5161,"Ġtamponade":5162,"year":5163,"Ġcres":5164,"Ġcut":5165,"Ġcovered":5166,"Ġtoge":5167,"Ġproved":5168,"Ġexclusion":5169,"ostal":5170,"gency":5171,"Ġapproximate":5172,"vasculature":5173,"Ġfeature":5174,"Ġsmoking":5175,"Ġintended":5176,"Ġtogether":5177,"ls":5178,"ves":5179,"zone":5180,"Ġ\"":5181,"Ġcy":5182,"ario":5183,"enario":5184,"Ġmim":5185,"Ġanticipated":5186,"itant":5187,"Ġorific":5188,"Ġprocedural":5189,"Ġrefe":5190,"Ġscenario":5191,"ability":5192,"Ġkne":5193,"Ġpericardi":5194,"Ġexceeding":5195,"Ġ02":5196,"Ġbrachy":5197,"Ġduct":5198,"chondroma":5199,"Ġpyloric":5200,"Ġinterpreted":5201,"Ġdestructive":5202,"Ġclamped":5203,"titution":5204,"Ġrelaxation":5205,"Ġide":5206,"asion":5207,"Ġconcom":5208,"Ġlen":5209,"Ġredi":5210,"Ġlik":5211,"Ġdirection":5212,"Ġperforation":5213,"Ġamounts":5214,"Ġventil":5215,"Ġservic":5216,"Ġobviously":5217,"Ġcircumscribed":5218,"Ġtotally":5219,"Ġdiagnosed":5220,"Ġhyperdensity":5221,"Ġquantif":5222,"Ġecmo":5223,"Ġorifice":5224,"Ġconcomitant":5225,"Ġicu":5226,"Ġpow":5227,"Ġsolid":5228,"titial":5229,"ested":5230,"pacemaker":5231,"Ġenough":5232,"Ġexpiratory":5233,"Ġcomparing":5234,"Ġadmin":5235,"Ġscoliotic":5236,"Ġentity":5237,"Ġobliquely":5238,"Ġcontusions":5239,"Ġreached":5240,"Ġpointed":5241,"Ġintroduced":5242,"Ġdetermination":5243,"Ġradiopacity":5244,"Ġcirculation":5245,"Ġbronchovasculature":5246,"Ġeasily":5247,"Ġbifurcation":5248,"Ġpower":5249,"off":5250,"uro":5251,"ergency":5252,"Ġloose":5253,"Ġstap":5254,"Ġ___;":5255,"Ġabru":5256,"Ġinterc":5257,"tract":5258,"Ġdiscl":5259,"Ġdisappeared":5260,"dles":5261,"Ġpericardium":5262,"Ġraised":5263,"Ġexplaining":5264,"Ġhypox":5265,"Ġpeer":5266,"laying":5267,"calc":5268,"Ġeffacement":5269,"Ġadenocarcinoma":5270,"hydration":5271,"Ġingested":5272,"Ġfungal":5273,"Ġevacuated":5274,"Ġventilator":5275,"Ġservice":5276,"Ġabrupt":5277,"ins":5278,"Ġpatent":5279,"ission":5280,"Ġmr":5281,"Ġmus":5282,"Ġexchanged":5283,"Ġcomparisons":5284,"posed":5285,"Ġpool":5286,"clavicular":5287,"Ġtransbronchial":5288,"Ġshifting":5289,"Ġmalposition":5290,"Ġgoing":5291,"Ġmanifested":5292,"Ġreasonably":5293,"Ġcorrelating":5294,"Ġmigration":5295,"Ġsuccessive":5296,"Ġcorevalve":5297,"Ġstrad":5298,"Ġquanti":5299,"Ġworkup":5300,"Ġconnected":5301,"Ġnephro":5302,"Ġexceedingly":5303,"Ġstaple":5304,"Ġintercostal":5305,"bi":5306,"cular":5307,"Ġmat":5308,"rilobular":5309,"Ġenchondroma":5310,"lla":5311,"ruption":5312,"ominate":5313,"Ġcentrilobular":5314,"Ġintrapulmonary":5315,"Ġearliest":5316,"Ġlooping":5317,"Ġemergency":5318,"Ġresections":5319,"Ġrun":5320,"Ġresponse":5321,"Ġcvl":5322,"Ġosteoarth":5323,"Ġtracks":5324,"Ġbrachycephalic":5325,"apical":5326,"co":5327,"his":5328,"Ġach":5329,"Ġface":5330,"Ġfound":5331,"Ġsometim":5332,"Ġdisplacing":5333,"Ġveil":5334,"Ġtechnologist":5335,"Ġswallow":5336,"Ġ01":5337,"Ġmean":5338,"Ġvisceral":5339,"ocaval":5340,"Ġknee":5341,"back":5342,"tment":5343,"Ġmax":5344,"used":5345,"Ġwider":5346,"Ġretract":5347,"Ġviewed":5348,"Ġcompartment":5349,"Ġhemithoraces":5350,"Ġinstitution":5351,"dered":5352,"Ġprojections":5353,"Ġscatter":5354,"visual":5355,"Ġtake":5356,"Ġbronchiolitis":5357,"thorac":5358,"Ġinterventional":5359,"Ġinterposed":5360,"Ġworsen":5361,"Ġanymore":5362,"Ġacromio":5363,"Ġcranially":5364,"Ġpenetrated":5365,"Ġcircular":5366,"Ġprostate":5367,"patient":5368,"set":5369,"stitial":5370,"rectomy":5371,"Ġpal":5372,"Ġcou":5373,"astic":5374,"ilic":5375,"ram":5376,"Ġund":5377,"Ġdehis":5378,"Ġexpect":5379,"Ġevening":5380,"Ġintervertebral":5381,"cluded":5382,"Ġatriocaval":5383,"Ġunderinflated":5384,"Ġrod":5385,"Ġpassed":5386,"Ġoptim":5387,"Ġocclusion":5388,"Ġcomments":5389,"Ġradiologic":5390,"Ġinnominate":5391,"Ġfluct":5392,"Ġcompensatory":5393,"copd":5394,"Ġcre":5395,"Ġwaning":5396,"omedi":5397,"umb":5398,"Ġtail":5399,"male":5400,"emarc":5401,"Ġstated":5402,"versed":5403,"Ġimping":5404,"Ġsimple":5405,"Ġnodulation":5406,"Ġworst":5407,"Ġcorac":5408,"Ġsupported":5409,"Ġadvance":5410,"Ġappreciate":5411,"Ġheterogenous":5412,"Ġfemale":5413,"Ġtransparent":5414,"Ġused":5415,"Ġcarefully":5416,"Ġbroad":5417,"Ġdiscontinued":5418,"Ġclosure":5419,"Ġpooling":5420,"Ġdehiscence":5421,"eity":5422,"Ġaware":5423,"eness":5424,"emia":5425,"Ġproble":5426,"ocon":5427,"Ġintervening":5428,"existed":5429,"Ġapically":5430,"Ġessential":5431,"Ġphrenic":5432,"ustment":5433,"demonstration":5434,"Ġreasonable":5435,"Ġanatomy":5436,"Ġspondyl":5437,"Ġphysiologic":5438,"Ġlapar":5439,"Ġresorption":5440,"Ġwaxing":5441,"Ġhypoxia":5442,"Ġquantity":5443,"Ġsometimes":5444,"bd":5445,"ym":5446,"Ġcry":5447,"Ġinte":5448,"Ġagent":5449,"Ġoblong":5450,"ortication":5451,"Ġassessing":5452,"pose":5453,"Ġrelation":5454,"Ġassociation":5455,"Ġbronchiectatic":5456,"Ġspleen":5457,"Ġlipoma":5458,"Ġpleuroparenchymal":5459,"Ġdecortication":5460,"Ġbulky":5461,"Ġfluctu":5462,"Ġcrypt":5463,"hem":5464,"vr":5465,"alled":5466,"Ġpock":5467,"Ġdeli":5468,"opulmonic":5469,"Ġmaybe":5470,"Ġaortopulmonic":5471,"Ġtext":5472,"Ġtransfusion":5473,"Ġneuro":5474,"Ġreadj":5475,"Ġultim":5476,"Ġsplenomegaly":5477,"Ġectasia":5478,"Ġlevocon":5479,"Ġparahilar":5480,"Ġphysiology":5481,"Ġeffectively":5482,"Ġmycob":5483,"Ġmuscle":5484,"Ġosteoarthritis":5485,"Ġacromiohumeral":5486,"Ġpocket":5487,"Ġpt":5488,"Ġbur":5489,"Ġrim":5490,"chest":5491,"oss":5492,"Ġnormalized":5493,"Ġadd":5494,"Ġ30":5495,"total":5496,"Ġheterogeneity":5497,"Ġdelineation":5498,"Ġaccumulating":5499,"Ġcoarseness":5500,"Ġobtaining":5501,"Ġfibrosing":5502,"Ġaccordingly":5503,"Ġdisplayed":5504,"Ġquantify":5505,"ynam":5506,"Ġiden":5507,"onic":5508,"inoph":5509,"Ġsac":5510,"Ġeos":5511,"chan":5512,"physema":5513,"Ġenc":5514,"sected":5515,"Ġadded":5516,"istration":5517,"Ġendovascular":5518,"Ġsurve":5519,"Ġgive":5520,"Ġconform":5521,"Ġdecompressed":5522,"Ġbronchogram":5523,"Ġmanub":5524,"Ġbulb":5525,"Ġsystemic":5526,"feren":5527,"Ġclarification":5528,"Ġmenis":5529,"ortunately":5530,"Ġcryptogenic":5531,"Ġlevoconvex":5532,"ynamic":5533,"Ġeosinoph":5534,"cus":5535,"Ġcolum":5536,"Ġinstr":5537,"usc":5538,"idne":5539,"Ġlobular":5540,"Ġlocule":5541,"Ġordered":5542,"Ġconsisting":5543,"Ġalte":5544,"Ġsubtotal":5545,"Ġpostop":5546,"vered":5547,"Ġblunt":5548,"Ġmetal":5549,"ducing":5550,"appro":5551,"Ġlobulation":5552,"Ġsafely":5553,"Ġseeds":5554,"interstitial":5555,"Ġadministration":5556,"Ġdelivered":5557,",.":5558,"dg":5559,"elling":5560,"ode":5561,"thy":5562,"inity":5563,"tizing":5564,"Ġmvr":5565,"acuation":5566,"omp":5567,"icinity":5568,"Ġvicinity":5569,"rotizing":5570,"ched":5571,"Ġsegm":5572,"Ġmoved":5573,"udal":5574,"Ġdisch":5575,"Ġmidclavicular":5576,"Ġhemidi":5577,"Ġrecord":5578,"Ġspan":5579,"Ġprac":5580,"Ġkidne":5581,"genic":5582,"Ġnecrotizing":5583,"Ġunfortunately":5584,"Ġmarginally":5585,"duoden":5586,"Ġpads":5587,"Ġaccurate":5588,"Ġmechan":5589,"Ġrequesting":5590,"Ġmixed":5591,"Ġlayers":5592,"Ġreference":5593,"Ġnephrostomy":5594,"Ġcolumn":5595,"Ġalteration":5596,"aicd":5597,"focal":5598,"ts":5599,"ines":5600,"tice":5601,"Ġnine":5602,"Ġbra":5603,"emphysema":5604,"Ġbeli":5605,"ress":5606,"Ġsuction":5607,"Ġevacuation":5608,"Ġspared":5609,"Ġsplaying":5610,"Ġroot":5611,"Ġcurved":5612,"Ġlymphatic":5613,"Ġtimes":5614,"defibrillator":5615,"Ġgastroduoden":5616,"Ġshortness":5617,"Ġinformed":5618,"Ġgrowth":5619,"Ġpending":5620,"Ġoccasion":5621,"Ġplane":5622,"Ġdisplay":5623,"Ġepisode":5624,"Ġreaccumulated":5625,"Ġideal":5626,"Ġspondylosis":5627,"Ġeosinophilic":5628,"Ġgastroduodenal":5629,"ella":5630,"heart":5631,"ptal":5632,"Ġreli":5633,"Ġresected":5634,"phrenic":5635,"Ġonline":5636,"Ġonset":5637,"Ġgu":5638,"ectasis":5639,"Ġadm":5640,"Ġtear":5641,"inflation":5642,"ensitive":5643,"Ġdegener":5644,"Ġprominently":5645,"Ġtranslu":5646,"develop":5647,"Ġrepeating":5648,"entectomy":5649,"Ġthym":5650,"Ġcurves":5651,"Ġnursing":5652,"Ġcostodiaphragmatic":5653,"Ġnonetheless":5654,"Ġinvestigation":5655,"Ġimmunoc":5656,"Ġcrescen":5657,"uscitation":5658,"Ġsegmentectomy":5659,"cab":5660,"ortive":5661,"Ġisout":5662,"Ġcondu":5663,"Ġreverse":5664,"Ġtoler":5665,"Ġunit":5666,"Ġunde":5667,"Ġexpiration":5668,"ocy":5669,"ographic":5670,"Ġoverlay":5671,"Ġcaps":5672,"Ġcapture":5673,"Ġdisruption":5674,"Ġdiver":5675,"Ġresuscitation":5676,"Ġhair":5677,"Ġsupportive":5678,"Ġroom":5679,"Ġinsuff":5680,"Ġinsensitive":5681,"Ġmarginal":5682,"Ġirregularly":5683,"Ġdelineate":5684,"Ġdiscontinuity":5685,"Ġinvestigated":5686,"Ġbranching":5687,"grade":5688,"Ġtailored":5689,"Ġultimately":5690,"Ġimmunocomp":5691,"cabg":5692,"--___":5693,"Ġthrom":5694,"aled":5695,"tiv":5696,"Ġinad":5697,"omal":5698,"Ġans":5699,"Ġvent":5700,"rot":5701,"Ġord":5702,"imum":5703,"ata":5704,"Ġintermit":5705,"Ġprevascular":5706,"ticul":5707,"Ġterminal":5708,"Ġintersiti":5709,"Ġexcluding":5710,"Ġbronchoscopic":5711,"Ġquery":5712,"Ġherniation":5713,"illance":5714,"curring":5715,"Ġinferolateral":5716,"Ġmamm":5717,"Ġoccluded":5718,"Ġsystems":5719,"Ġrn":5720,"Ġtooth":5721,"Ġcontributes":5722,"Ġcoalescence":5723,"lining":5724,"Ġturned":5725,"Ġecg":5726,"Ġcloser":5727,"Ġadjusted":5728,"sued":5729,"ventilated":5730,"Ġcouple":5731,"Ġoptimized":5732,"Ġidentical":5733,"Ġsurveillance":5734,"Ġinadver":5735,"Ġintermittent":5736,"uk":5737,"align":5738,"Ġsen":5739,"edema":5740,"Ġwound":5741,"omies":5742,"Ġleuk":5743,"Ġrect":5744,"Ġsection":5745,"Ġcardiomediastinum":5746,"ope":5747,"ograft":5748,"Ġperif":5749,"Ġendograft":5750,"Ġinterstial":5751,"Ġexamined":5752,"Ġevaluating":5753,"Ġhere":5754,"Ġdraining":5755,"Ġcurls":5756,"Ġoutlining":5757,"Ġcrowd":5758,"time":5759,"odes":5760,"Ġallows":5761,"Ġnecrosis":5762,"Ġabsent":5763,"operic":5764,"Ġrevealing":5765,"evaluation":5766,"Ġanatomical":5767,"Ġparallel":5768,"Ġopposed":5769,"Ġepisodes":5770,"Ġknow":5771,"Ġretracting":5772,"Ġadmission":5773,"Ġunderes":5774,"Ġcaptured":5775,"post":5776,"xy":5777,"Ġcbd":5778,"ising":5779,"Ġnotice":5780,"Ġbreak":5781,"Ġdemarc":5782,"Ġleav":5783,"Ġred":5784,"Ġcardia":5785,"Ġstage":5786,"oses":5787,"Ġ___-___":5788,"Ġproxim":5789,"Ġcapping":5790,"Ġintral":5791,"Ġassym":5792,"Ġparase":5793,"Ġangi":5794,"Ġangulated":5795,"Ġcompressed":5796,"Ġconfident":5797,"lot":5798,"Ġherniated":5799,"Ġosteophytic":5800,"Ġcavitating":5801,"Ġhypertrophy":5802,"Ġunusually":5803,"Ġecho":5804,"Ġmicro":5805,"Ġsuccessfully":5806,"Ġsequence":5807,"Ġpancre":5808,"Ġestablished":5809,"Ġwhiteout":5810,"Ġmatch":5811,"Ġmycobacterial":5812,"Ġmeniscus":5813,"Ġspanning":5814,"Ġbelieve":5815,"Ġimmunocompromised":5816,"Ġventral":5817,"Ġordinary":5818,"Ġleaves":5819,"Ġproximity":5820,"Ġparaseptal":5821,"kn":5822,"ned":5823,"pel":5824,"sup":5825,"vent":5826,"wing":5827,"Ġpn":5828,"Ġthelower":5829,"enth":5830,"Ġlacer":5831,"ustif":5832,"Ġfoss":5833,"Ġvary":5834,"astrium":5835,"change":5836,"Ġenhanced":5837,"Ġascertain":5838,"Ġget":5839,"Ġpertin":5840,"Ġjustif":5841,"Ġconsistently":5842,"Ġvasculitis":5843,"Ġeleventh":5844,"Ġsettings":5845,"operatively":5846,"hood":5847,"Ġswelling":5848,"uck":5849,"Ġbile":5850,"Ġpullback":5851,"Ġarthroplasties":5852,"Ġcysts":5853,"interval":5854,"Ġopportun":5855,"Ġgallstones":5856,"Ġdistorts":5857,"Ġmimic":5858,"Ġdiscloses":5859,"omedial":5860,"Ġhemidiaph":5861,"Ġcrescentic":5862,"tivation":5863,"Ġintersitial":5864,"Ġfossa":5865,"Ġpertinent":5866,"bronch":5867,"fib":5868,"he":5869,"pa":5870,"uction":5871,"intestinal":5872,"Ġput":5873,"Ġsymmetry":5874,"Ġisol":5875,"Ġmorg":5876,"anding":5877,"Ġfdg":5878,"Ġrecess":5879,"Ġchem":5880,"chronic":5881,"Ġcomprom":5882,"Ġexcre":5883,"seen":5884,"Ġinflation":5885,"ected":5886,"Ġclinician":5887,"Ġbronchogenic":5888,"Ġreliably":5889,"Ġijv":5890,"Ġoutpatient":5891,"Ġtranspl":5892,"Ġtranscatheter":5893,"Ġallowances":5894,"Ġcomplicated":5895,"Ġrul":5896,"Ġelements":5897,"Ġwidely":5898,"Ġcircumferen":5899,"Ġdetermining":5900,"Ġepigastrium":5901,"Ġviscus":5902,"Ġmissed":5903,"Ġgradual":5904,"Ġmanubrium":5905,"Ġinadvertent":5906,"15":5907,"cri":5908,"jejun":5909,"volum":5910,"teral":5911,"tell":5912,"Ġmes":5913,"Ġmural":5914,"uminal":5915,"ropen":5916,"itz":5917,"osite":5918,"lectomy":5919,"Ġconstell":5920,"valent":5921,"Ġspur":5922,"cardia":5923,"Ġparac":5924,"Ġcavities":5925,"Ġroof":5926,"Ġpectoralis":5927,"Ġindeed":5928,"apy":5929,"Ġtrapped":5930,"Ġtreitz":5931,"Ġhydrothorax":5932,"pneumo":5933,"Ġreportedly":5934,"Ġreactivation":5935,"Ġrv":5936,"Ġsecurely":5937,"tility":5938,"Ġneutropen":5939,"Ġfibrous":5940,"Ġclamping":5941,"Ġfluoroscopic":5942,"Ġblebs":5943,"Ġbeneficial":5944,"Ġsimultaneous":5945,"visualization":5946,"Ġreadjusted":5947,"Ġmechanical":5948,"Ġtolerate":5949,"Ġthromb":5950,"rotated":5951,"Ġtransplant":5952,"wi":5953,"alveolar":5954,"alectasis":5955,"Ġpi":5956,"Ġthecavoatrial":5957,"asm":5958,"Ġindi":5959,"Ġmess":5960,"early":5961,"Ġconse":5962,"Ġdeb":5963,"Ġproducing":5964,"Ġatalectasis":5965,"agic":5966,"Ġinfra":5967,"Ġjud":5968,"izes":5969,"taining":5970,"Ġvisib":5971,"Ġsurp":5972,"Ġgroup":5973,"Ġthickenings":5974,"undant":5975,"Ġphase":5976,"Ġnecrotic":5977,"Ġcoronal":5978,"Ġbreasts":5979,"Ġirregularities":5980,"Ġapproaching":5981,"cave":5982,"Ġaccumulated":5983,"Ġdiscordancy":5984,"Ġobjects":5985,"Ġadjustment":5986,"Ġtendinopathy":5987,"Ġstraddles":5988,"biop":5989,"Ġmeantime":5990,"Ġproblem":5991,"Ġunderestimated":5992,"Ġlaceration":5993,"Ġcircumferential":5994,"Ġmessage":5995,"bl":5996,"col":5997,"ias":5998,"Ġtil":5999,"orph":6000,"dity":6001,"Ġtape":6002,"anz":6003,"Ġdam":6004,"ette":6005,"Ġpredis":6006,"Ġoverhydration":6007,"Ġganz":6008,"adder":6009,"Ġsuperolateral":6010,"Ġinfections":6011,"Ġmultin":6012,"Ġdesign":6013,"Ġvertebroplasties":6014,"osclerosis":6015,"Ġinvolved":6016,"Ġpulse":6017,"agni":6018,"Ġdecompression":6019,"Ġhydropneumo":6020,"Ġoriginal":6021,"Ġartifacts":6022,"Ġdoubtful":6023,"Ġentertained":6024,"Ġintracardiac":6025,"Ġossific":6026,"Ġequivalent":6027,"ocytosis":6028,"Ġvarying":6029,"Ġopportunistic":6030,"Ġisolated":6031,"Ġexcreted":6032,"volume":6033,"Ġconstellation":6034,"biopsy":6035,"Ġmultinodular":6036,"sub":6037,"ture":6038,"ute":6039,"yps":6040,"third":6041,"Ġlate":6042,"Ġinability":6043,"Ġeq":6044,"uloplasty":6045,"aneous":6046,"Ġfash":6047,"Ġ___=":6048,"Ġprof":6049,"derly":6050,"Ġreside":6051,"Ġsuperinfection":6052,"Ġnodal":6053,"Ġhypers":6054,"Ġelderly":6055,"Ġxray":6056,"pendent":6057,"Ġdocuments":6058,"oplasma":6059,"Ġsternoclavicular":6060,"Ġkinks":6061,"Ġpeak":6062,"Ġcannul":6063,"Ġexacerbated":6064,"Ġstraigh":6065,"Ġmicronod":6066,"Ġstep":6067,"Ġgallstone":6068,"Ġrunning":6069,"Ġalterations":6070,"Ġbrain":6071,"Ġtranslucency":6072,"Ġperifissural":6073,"Ġmorgagni":6074,"Ġsurpris":6075,"Ġtapered":6076,"ypsin":6077,"Ġfashion":6078,"glot":6079,"oking":6080,"rd":6081,"tom":6082,"Ġter":6083,"inction":6084,"acia":6085,"Ġanulus":6086,"Ġstages":6087,"Ġstanding":6088,"pha":6089,"ewise":6090,"Ġmiliary":6091,"Ġsizeable":6092,"Ġablation":6093,"Ġinterlobular":6094,"creased":6095,"trypsin":6096,"Ġsubchondral":6097,"Ġ25":6098,"Ġresem":6099,"Ġrecon":6100,"Ġbronchosp":6101,"Ġvisually":6102,"ensitivity":6103,"Ġdistinction":6104,"Ġheading":6105,"Ġfavored":6106,"Ġdislocated":6107,"Ġsurrounded":6108,"Ġpermit":6109,"Ġevolution":6110,"Ġcoincides":6111,"Ġreassessed":6112,"Ġhorizontally":6113,"Ġparaesophageal":6114,"Ġtakes":6115,"evaluate":6116,"Ġmycoplasma":6117,"Ġestablish":6118,"Ġbenefit":6119,"Ġeros":6120,"Ġredirected":6121,"Ġlikewise":6122,"calcified":6123,"Ġptx":6124,"Ġsaccular":6125,"Ġreliable":6126,"with":6127,"colla":6128,"Ġhydropneumothoraces":6129,"Ġ___=___":6130,"Ġhypersensitivity":6131,"Ġstraighten":6132,"glottic":6133,"ather":6134,"bed":6135,"gth":6136,"iable":6137,"mia":6138,"pment":6139,"rand":6140,"ycom":6141,"Ġiss":6142,"omatous":6143,"ffy":6144,"neumonic":6145,"ctomies":6146,"Ġlooking":6147,"rest":6148,"Ġcompan":6149,"Ġproportion":6150,"Ġexp":6151,"Ġexchange":6152,"light":6153,"Ġalpha":6154,"Ġsubglottic":6155,"eck":6156,"Ġsplin":6157,"oneycom":6158,"Ġbot":6159,"Ġparap":6160,"Ġversion":6161,"ensities":6162,"pection":6163,"Ġhiv":6164,"Ġventricles":6165,"Ġinspection":6166,"Ġdisplaces":6167,"Ġcount":6168,"Ġdegra":6169,"Ġvaried":6170,"Ġamorph":6171,"Ġasbestosis":6172,"vision":6173,"Ġsideholes":6174,"Ġantitrypsin":6175,"Ġrings":6176,"Ġdistinctly":6177,"endum":6178,"Ġfluffy":6179,"Ġachi":6180,"Ġlaparoscopic":6181,"Ġdiverticul":6182,"Ġnoticeable":6183,"Ġconfidently":6184,"pelvis":6185,"Ġdamage":6186,"Ġsplinting":6187,"Ġparapneumonic":6188,"polar":6189,"rance":6190,"vole":6191,"Ġti":6192,"thesis":6193,"retro":6194,"Ġthemid":6195,"Ġcement":6196,"Ġsol":6197,"orated":6198,"Ġovere":6199,"Ġoxy":6200,"Ġlll":6201,"Ġhoneycom":6202,"ice":6203,"charac":6204,"Ġ___).":6205,"houette":6206,"Ġedematous":6207,"Ġsilhouetted":6208,"tention":6209,"Ġure":6210,"Ġdistrac":6211,"alyzed":6212,"Ġsubphrenic":6213,"Ġmidzone":6214,"Ġadynamic":6215,"Ġtrun":6216,"Ġaortosclerosis":6217,"Ġpicture":6218,"Ġarising":6219,"Ġdiscoid":6220,"Ġgreatest":6221,"Ġconfined":6222,"Ġconfused":6223,"Ġtraceable":6224,"Ġincreasingly":6225,"Ġtransfer":6226,"Ġentirety":6227,"ways":6228,"Ġlocalizes":6229,"Ġacromion":6230,"containing":6231,"Ġextrathoracic":6232,"Ġmyoc":6233,"Ġwarranting":6234,"Ġdistinguishing":6235,"Ġcvp":6236,"Ġentry":6237,"Ġgradually":6238,"Ġequipment":6239,"Ġcompartments":6240,"Ġaddendum":6241,"Ġinstrum":6242,"Ġguid":6243,"Ġassymetric":6244,"supine":6245,"Ġvisibility":6246,"Ġmicronodule":6247,"Ġamorphous":6248,"Ġoverex":6249,"Ġoxygen":6250,"dant":6251,"man":6252,"pne":6253,"sied":6254,"walled":6255,"aries":6256,"Ġinh":6257,"ili":6258,"ilated":6259,"uly":6260,"Ġantero":6261,"Ġfall":6262,"Ġreexpanded":6263,"Ġretention":6264,"Ġcheck":6265,"Ġstar":6266,"Ġstrand":6267,"Ġsill":6268,"Ġintersection":6269,"lihood":6270,"Ġoverd":6271,"trins":6272,"Ġcaudal":6273,"aged":6274,"Ġlikelihood":6275,"Ġmidesophagus":6276,"irds":6277,"peri":6278,"Ġidentifiable":6279,"Ġconcerned":6280,"Ġdifficulty":6281,"Ġoutline":6282,"Ġprogress":6283,"hot":6284,"pectomy":6285,"Ġphd":6286,"Ġpreceded":6287,"Ġgenu":6288,"Ġgeographic":6289,"eterminant":6290,"Ġshortly":6291,"Ġemergent":6292,"istention":6293,"ribute":6294,"Ġosteophytosis":6295,"Ġreports":6296,"Ġbiopsied":6297,"type":6298,"Ġabscesses":6299,"Ġaffected":6300,"Ġsaid":6301,"Ġclarified":6302,"Ġimpacted":6303,"Ġproduct":6304,"Ġrestriction":6305,"Ġfibrothorax":6306,"when":6307,"Ġentrance":6308,"Ġmeasured":6309,"Ġobliterates":6310,"Ġpericarditis":6311,"Ġimpinging":6312,"Ġburden":6313,"Ġblunts":6314,"Ġpractically":6315,"omalacia":6316,"Ġrectangular":6317,"Ġjustified":6318,"Ġsurprising":6319,"Ġbronchospasm":6320,"collapse":6321,"domen":6322,"ire":6323,"mass":6324,"shot":6325,"rees":6326,"Ġpill":6327,"Ġcvc":6328,"Ġla":6329,"unds":6330,"Ġfist":6331,"Ġconce":6332,"Ġreoc":6333,"Ġreversed":6334,"teristic":6335,"Ġconsist":6336,"Ġcompromised":6337,"Ġexcur":6338,"Ġrapi":6339,"Ġprepyloric":6340,"trache":6341,"Ġincreases":6342,"Ġalways":6343,"Ġabnormally":6344,"antage":6345,"Ġnotch":6346,"ectable":6347,"Ġsimulating":6348,"Ġthickness":6349,"Ġadvantage":6350,"Ġcurving":6351,"static":6352,"Ġnonvisualization":6353,"rachiocephalic":6354,"Ġinjectable":6355,"Ġcontained":6356,"Ġvaric":6357,"otherapy":6358,"Ġtypically":6359,"Ġruptured":6360,"Ġcutaneous":6361,"Ġredirection":6362,"Ġlikley":6363,"Ġmaximum":6364,"Ġpalsy":6365,"Ġcoracoclavicular":6366,"Ġansw":6367,"uckle":6368,"Ġsimultaneously":6369,"Ġsolitary":6370,"Ġtransferred":6371,"Ġmicronodules":6372,"Ġoverexpanded":6373,"pnea":6374,"trinsic":6375,"Ġgenuine":6376,"Ġexcursion":6377,"brachiocephalic":6378,"mail":6379,"pnel":6380,"sha":6381,"wor":6382,"increased":6383,"eds":6384,"Ġopen":6385,"Ġowing":6386,"active":6387,"ull":6388,"Ġfla":6389,"Ġdome":6390,"rapnel":6391,"Ġreevaluated":6392,"Ġchanging":6393,"Ġpregn":6394,"Ġaltered":6395,"Ġenlarge":6396,"strate":6397,"Ġportal":6398,"Ġinterstital":6399,"Ġtrach":6400,"Ġscope":6401,"Ġarg":6402,"Ġaorticopulmonary":6403,"Ġemphas":6404,"Ġblastic":6405,"Ġanything":6406,"Ġcurling":6407,"Ġesophagram":6408,"Ġnotewor":6409,"Ġmale":6410,"Ġentities":6411,"Ġneedle":6412,"Ġhydrostatic":6413,"Ġoffer":6414,"Ġaccessory":6415,"Ġplates":6416,"oplastic":6417,"oked":6418,"Ġfragmented":6419,"Ġrecognition":6420,"opneumothorax":6421,"Ġmicu":6422,"Ġdiscernible":6423,"Ġdefects":6424,"Ġgallbl":6425,"Ġuniformly":6426,"Ġmissing":6427,"Ġlength":6428,"Ġlocules":6429,"Ġkidney":6430,"Ġconduction":6431,"Ġinsufficiency":6432,"volemia":6433,"Ġhoneycombing":6434,"characteristic":6435,"Ġrapidity":6436,"shaft":6437,"Ġnoteworthy":6438,"Ġgallbladder":6439,"!!":6440,"by":6441,"del":6442,"density":6443,"night":6444,"sternal":6445,"top":6446,"Ġrh":6447,"Ġ!!":6448,"Ġau":6449,"Ġfather":6450,"Ġcong":6451,"Ġlea":6452,"rous":6453,"Ġstat":6454,"imin":6455,"Ġopacif":6456,"Ġproced":6457,"Ġasper":6458,"udent":6459,"Ġpreclud":6460,"Ġprevent":6461,"Ġprocessed":6462,"Ġgir":6463,"Ġsliver":6464,"noon":6465,"Ġposture":6466,"Ġparalysis":6467,"Ġprudent":6468,"Ġpacs":6469,"psis":6470,"Ġpreservation":6471,"posterior":6472,"recent":6473,"uber":6474,"Ġafternoon":6475,"Ġdegrees":6476,"Ġelimin":6477,"Ġrotational":6478,"Ġreferable":6479,"Ġgastrojejun":6480,"Ġwithdrawing":6481,"Ġevenly":6482,"Ġreporting":6483,"Ġhemat":6484,"Ġeffects":6485,"Ġdepicts":6486,"Ġinfarcts":6487,"Ġprecisely":6488,"Ġopposite":6489,"Ġflash":6490,"argeted":6491,"Ġpericardiocentesis":6492,"alignment":6493,"Ġdemarcated":6494,"Ġcompromise":6495,"Ġreconstr":6496,"Ġtrunk":6497,"Ġprocedures":6498,"Ġasperg":6499,"hes":6500,"hep":6501,"oin":6502,"orem":6503,"po":6504,"techn":6505,"les":6506,"Ġsched":6507,"isms":6508,"Ġinner":6509,"Ġmediastin":6510,"ritic":6511,"united":6512,"diuresis":6513,"Ġtargeted":6514,"Ġrevision":6515,"ental":6516,"olic":6517,"teromedial":6518,"osu":6519,"Ġunrelated":6520,"pacer":6521,"Ġ___)":6522,"atology":6523,"Ġexcess":6524,"Ġappli":6525,"Ġuip":6526,"trast":6527,"Ġmidshaft":6528,"Ġinflow":6529,"Ġshrapnel":6530,"Ġpersisted":6531,"Ġpaid":6532,"Ġadhes":6533,"Ġvasculatures":6534,"Ġsuperf":6535,"Ġtorturous":6536,"mented":6537,"Ġinst":6538,"quently":6539,"Ġperformance":6540,"Ġdistends":6541,"Ġmultilobar":6542,"Ġtrapping":6543,"available":6544,"Ġyo":6545,"Ġdictating":6546,"Ġsyn":6547,"Ġsymptomatology":6548,"severely":6549,"Ġrf":6550,"Ġrll":6551,"contrast":6552,"Ġarthritis":6553,"Ġdenotes":6554,"Ġassistant":6555,"Ġtendon":6556,"Ġworked":6557,"Ġfluoroscopy":6558,"ventilation":6559,"thoracentesis":6560,"hemorrh":6561,"Ġbulbous":6562,"appropriate":6563,"fibrosis":6564,"healed":6565,"Ġparacardiac":6566,"Ġindirect":6567,"Ġdesigned":6568,"retrocardiac":6569,"Ġgastrojejunostomy":6570,"Ġaspergill":6571,"hepatic":6572,"Ġschedule":6573,"form":6574,"point":6575,"Ġavascular":6576,"Ġpin":6577,"leural":6578,"tia":6579,"Ġlav":6580,"ercing":6581,"Ġever":6582,"Ġmel":6583,"ush":6584,"aned":6585,"Ġhid":6586,"Ġunavailable":6587,"Ġseated":6588,"Ġsept":6589,"Ġsepsis":6590,"Ġmot":6591,"Ġfocality":6592,"achy":6593,"Ġweight":6594,"minimal":6595,"clock":6596,"iring":6597,"Ġshin":6598,"Ġpresents":6599,"Ġspon":6600,"Ġintraaortic":6601,"Ġproven":6602,"poses":6603,"Ġitem":6604,"Ġobserve":6605,"Ġhypoplastic":6606,"Ġinvoked":6607,"Ġtraversed":6608,"Ġattendant":6609,"Ġdependently":6610,"Ġresulted":6611,"Ġformed":6612,"Ġtripolar":6613,"Ġdenoting":6614,"Ġorganized":6615,"Ġorganisms":6616,"Ġbecomes":6617,"Ġradiolucent":6618,"Ġclustered":6619,"Ġattempts":6620,"Ġnephrectomy":6621,"Ġpurpose":6622,"Ġreaccumulating":6623,"Ġknuckle":6624,"Ġmimick":6625,"Ġmaximal":6626,"Ġpalp":6627,"Ġcoracoid":6628,"Ġfluctuating":6629,"Ġneurogenic":6630,"developing":6631,"Ġpancreatic":6632,"Ġpiercing":6633,"Ġtilted":6634,"Ġcompanion":6635,"Ġbottom":6636,"Ġureteral":6637,"Ġmyocardial":6638,"Ġfistula":6639,"Ġyoung":6640,"Ġlavage":6641,"fi":6642,"lom":6643,"med":6644,"uated":6645,"thirds":6646,"alasia":6647,"titu":6648,"entioned":6649,"asive":6650,"Ġlad":6651,"Ġinse":6652,"Ġinappropriate":6653,"Ġbr":6654,"Ġbic":6655,"anoma":6656,"Ġcardial":6657,"Ġcardioperic":6658,"Ġsto":6659,"Ġseiz":6660,"iment":6661,"ety":6662,"ewel":6663,"Ġappar":6664,"opleural":6665,"Ġmod":6666,"Ġoverly":6667,"Ġgun":6668,"Ġgut":6669,"uture":6670,"Ġdiaph":6671,"Ġjewel":6672,"Ġothers":6673,"Ġham":6674,"Ġtruly":6675,"Ġpostinflammatory":6676,"Ġcanal":6677,"Ġsomething":6678,"Ġimproves":6679,"Ġaforem":6680,"Ġthoracoplasty":6681,"Ġsemiupright":6682,"Ġgastrointestinal":6683,"Ġhemorrhagic":6684,"Ġgoes":6685,"Ġreceive":6686,"Ġhydration":6687,"trophic":6688,"Ġannuloplasty":6689,"Ġoccup":6690,"Ġantibiotics":6691,"Ġdiagnoses":6692,"Ġdenoted":6693,"Ġtendency":6694,"Ġplanes":6695,"infectious":6696,"Ġflank":6697,"parable":6698,"Ġcycle":6699,"coiled":6700,"Ġachalasia":6701,"Ġdischarge":6702,"Ġsends":6703,"Ġintraluminal":6704,"Ġcannulates":6705,"Ġterms":6706,"Ġdiverticulum":6707,"Ġdistracted":6708,"Ġconglom":6709,"technique":6710,"osupp":6711,"Ġadhesion":6712,"Ġsuperficial":6713,"Ġscheduled":6714,"Ġmelanoma":6715,"Ġhidden":6716,"Ġspontaneous":6717,"Ġmimicking":6718,"Ġinseparable":6719,"Ġcardiopericardial":6720,"Ġjewelry":6721,"Ġaforementioned":6722,"Ġconglomer":6723,"20":6724,"eum":6725,"ml":6726,"went":6727,"onary":6728,"Ġpne":6729,"Ġther":6730,"articular":6731,"arcom":6732,"ision":6733,"Ġlarynx":6734,"Ġmedic":6735,"rit":6736,"Ġhick":6737,"new":6738,"Ġrevers":6739,"cetoma":6740,"Ġlowest":6741,"Ġsight":6742,"ewire":6743,"Ġbasolateral":6744,"ife":6745,"arged":6746,"egally":6747,"Ġreplete":6748,"Ġshil":6749,"Ġrecumb":6750,"Ġintraparenchymal":6751,"Ġjunctions":6752,"Ġunderwent":6753,"Ġtracheomalacia":6754,"Ġ48":6755,"Ġdescri":6756,"pectoral":6757,"overtebral":6758,"Ġexceeds":6759,"Ġbrachial":6760,"Ġlumpectomy":6761,"Ġmanag":6762,"Ġhumeri":6763,"Ġhypoventilation":6764,"Ġconditions":6765,"Ġpathologies":6766,"Ġseparated":6767,"Ġogt":6768,"Ġmycetoma":6769,"Ġmanifestations":6770,"previous":6771,"Ġreturning":6772,"Ġpreoperatively":6773,"Ġrecognize":6774,"Ġrevealed":6775,"Ġdyspnea":6776,"Ġstraight":6777,"Ġrestrictive":6778,"resolved":6779,"Ġplana":6780,"Ġcontributions":6781,"Ġdifferentiation":6782,"Ġsmoothly":6783,"Ġimmunosupp":6784,"which":6785,"Ġdistorting":6786,"Ġmammary":6787,"Ġneutropenic":6788,"Ġguidewire":6789,"Ġlabe":6790,"trachea":6791,"Ġexcessive":6792,"Ġstool":6793,"Ġapparatus":6794,"Ġgunshot":6795,"Ġoccupied":6796,"arcoma":6797,"Ġmedicine":6798,"Ġhickman":6799,"dling":6800,"dden":6801,"iasis":6802,"uct":6803,"Ġumb":6804,"thiasis":6805,"Ġadi":6806,"onec":6807,"Ġpate":6808,"Ġcable":6809,"ister":6810,"ispy":6811,"Ġissued":6812,"Ġnotic":6813,"Ġinver":6814,"oman":6815,"Ġfuture":6816,"Ġvol":6817,"rob":6818,"rogenic":6819,"Ġreidentified":6820,"Ġchond":6821,"ember":6822,"Ġnormalization":6823,"resis":6824,"Ġsudden":6825,"Ġcardiomegally":6826,"atrogenic":6827,"Ġenh":6828,"ogast":6829,"idence":6830,"oping":6831,"Ġradiating":6832,"lithiasis":6833,"ecal":6834,"Ġhemiarth":6835,"Ġhypervolemia":6836,"Ġcostovertebral":6837,"Ġlinearly":6838,"Ġiatrogenic":6839,"Ġrow":6840,"Ġ45":6841,"Ġoutlet":6842,"Ġinvasive":6843,"Ġheterogeneously":6844,"Ġindeterminant":6845,"Ġpager":6846,"berkn":6847,"Ġchole":6848,"Ġsymptomatic":6849,"Ġcardioesophageal":6850,"Ġholes":6851,"Ġimplantable":6852,"Ġremnants":6853,"Ġdepressed":6854,"basal":6855,"appearance":6856,"Ġdystrophic":6857,"Ġsubluxed":6858,"Ġosteoly":6859,"gram":6860,"Ġtendinitis":6861,"Ġobliterated":6862,"Ġstraddling":6863,"Ġruns":6864,"Ġdischarged":6865,"Ġcapsule":6866,"Ġintermittently":6867,"Ġleukocytosis":6868,"Ġangiography":6869,"Ġspurs":6870,"Ġconsists":6871,"oining":6872,"Ġmediastinoscopy":6873,"Ġrfa":6874,"onecrosis":6875,"berknife":6876,"af":6877,"bil":6878,"eved":6879,"yne":6880,"inous":6881,"isthesis":6882,"Ġnight":6883,"erior":6884,"Ġinade":6885,"Ġmis":6886,"rity":6887,"Ġwispy":6888,"ometer":6889,"Ġchalle":6890,"Ġlost":6891,"Ġconstr":6892,"Ġdeterior":6893,"Ġsigm":6894,"Ġpneumonias":6895,"lig":6896,"Ġdislo":6897,"aging":6898,"agged":6899,"Ġinflu":6900,"Ġimpella":6901,"Ġhemithoracic":6902,"Ġsinister":6903,"Ġterminated":6904,"Ġclot":6905,"Ġprom":6906,"tled":6907,"Ġcorrob":6908,"Ġblur":6909,"motility":6910,"Ġfix":6911,"Ġrotary":6912,"Ġheterotop":6913,"Ġcomplaint":6914,"Ġdistress":6915,"Ġosteotomy":6916,"Ġosteonecrosis":6917,"Ġoccurring":6918,"Ġquestions":6919,"Ġsharpness":6920,"Ġaccessible":6921,"Ġtuberosity":6922,"Ġdoubted":6923,"Ġmaterials":6924,"Ġrml":6925,"Ġstrict":6926,"Ġcenter":6927,"Ġreasons":6928,"Ġhospitalization":6929,"Ġdysmotility":6930,"Ġreticulations":6931,"Ġmyelomatous":6932,"Ġdiscernable":6933,"Ġbranches":6934,"Ġsimulates":6935,"Ġcyberknife":6936,"Ġoccasionally":6937,"Ġdisplays":6938,"Ġdegenerate":6939,"Ġinstrumentation":6940,"Ġoverdistention":6941,"perihilar":6942,"Ġreconstruction":6943,"Ġrecumbent":6944,"Ġhemiarthroplasty":6945,"Ġinadequ":6946,"Ġchallen":6947,"Ġsigmoid":6948,"Ġheterotopic":6949,".)":6950,"dged":6951,"grity":6952,"ioca":6953,"ncy":6954,"ptive":6955,"vas":6956,"Ġaway":6957,"although":6958,"Ġpas":6959,"Ġpulmon":6960,"Ġcr":6961,"Ġsag":6962,"Ġspacer":6963,"orally":6964,"astia":6965,"eries":6966,"Ġmac":6967,"Ġmember":6968,"Ġwalled":6969,"Ġanast":6970,"Ġanalyzed":6971,"Ġtachy":6972,"Ġconvers":6973,"Ġleg":6974,"Ġrecurring":6975,"monia":6976,"Ġcharge":6977,"ittal":6978,"pher":6979,"Ġconstitu":6980,"ressing":6981,"Ġopaciti":6982,"Ġprove":6983,"Ġprotr":6984,"Ġatelec":6985,"Ġatlectasis":6986,"Ġmildy":6987,"Ġascends":6988,"gestion":6989,"Ġgyne":6990,"Ġdispar":6991,"Ġperia":6992,"larged":6993,"Ġsubsternal":6994,"ection":6995,"rupted":6996,"Ġpresenting":6997,"Ġidentifies":6998,"Ġspot":6999,"izable":7000,"Ġremodel":7001,"Ġsupple":7002,"Ġscaring":7003,"Ġip":7004,"Ġextensively":7005,"Ġcoex":7006,"dicular":7007,"stable":7008,"ological":7009,"comastia":7010,"Ġpredominate":7011,"Ġreplacing":7012,"Ġreviewing":7013,"Ġcoronaries":7014,"Ġbronchiolar":7015,"Ġattenuated":7016,"Ġartificial":7017,"Ġoriginating":7018,"Ġresponded":7019,"Ġstronger":7020,"Ġelementary":7021,"Ġextravas":7022,"Ġfunctional":7023,"Ġfunctioning":7024,"Ġrequiring":7025,"Ġmedication":7026,"Ġparavertebral":7027,"Ġvirtue":7028,"Ġexactly":7029,"Ġflagged":7030,"Ġconnection":7031,"Ġtendinosis":7032,"where":7033,"Ġmeasurement":7034,"Ġpneumatoceles":7035,"Ġassuming":7036,"Ġsupradiaphragmatic":7037,"Ġdisclose":7038,"visualized":7039,"Ġintegrity":7040,"Ġconforms":7041,"Ġdegeneration":7042,"Ġsectional":7043,"Ġmimics":7044,"Ġchemotherapy":7045,"Ġerosive":7046,"Ġachieve":7047,"Ġstarting":7048,"Ġsillou":7049,"Ġreoccurrence":7050,"ullary":7051,"Ġpregnancy":7052,"Ġshilhouette":7053,"Ġmanagement":7054,"Ġpatency":7055,"Ġenhance":7056,"ogastrectomy":7057,"Ġcholelithiasis":7058,"Ġsagittal":7059,"Ġanastom":7060,"Ġconversation":7061,"Ġdisparity":7062,"Ġremodeling":7063,"00":7064,"ares":7065,"gi":7066,"gastric":7067,"layed":7068,"me":7069,"ng":7070,"suc":7071,"vised":7072,"Ġaa":7073,"ons":7074,"rel":7075,"Ġcop":7076,"Ġsarcoma":7077,"orn":7078,"Ġbent":7079,"Ġtral":7080,"Ġreint":7081,"Ġrevised":7082,"Ġpneumobil":7083,"Ġunresolved":7084,"Ġunsuc":7085,"bectomy":7086,"Ġconsult":7087,"Ġdev":7088,"Ġpostero":7089,"ifying":7090,"Ġprepectoral":7091,"cessful":7092,"aying":7093,"Ġaliment":7094,"Ġdisorder":7095,"Ġperpen":7096,"rical":7097,"Ġinfuse":7098,"nod":7099,"Ġspe":7100,"pancy":7101,"Ġassisting":7102,"Ġpostprocedure":7103,"Ġpartic":7104,"Ġtest":7105,"Ġbronchopulmonary":7106,"Ġresiduals":7107,"Ġesophagogastrectomy":7108,"ranial":7109,"Ġnonrotated":7110,"Ġpectorally":7111,"Ġpresume":7112,"Ġtwel":7113,"Ġindu":7114,"Ġtraverse":7115,"Ġnipples":7116,"Ġoccurrence":7117,"Ġevents":7118,"Ġnonde":7119,"Ġnondilated":7120,"Ġdocumenting":7121,"Ġcephalized":7122,"Ġdiscrepancy":7123,"Ġvariable":7124,"Ġpelvic":7125,"Ġcorrelative":7126,"Ġrecognizable":7127,"Ġaffects":7128,"Ġpleuropulmonary":7129,"Ġrequisition":7130,"Ġcranioca":7131,"Ġdissemination":7132,"Ġstrain":7133,"Ġdownwards":7134,"Ġoperation":7135,"Ġimportance":7136,"Ġinvestigate":7137,"Ġmodalities":7138,"Ġpursued":7139,"Ġ(___,":7140,"Ġassumed":7141,"Ġcreating":7142,"Ġkidneys":7143,"Ġredundant":7144,"Ġmatches":7145,"Ġequal":7146,"Ġpills":7147,"Ġconceal":7148,"Ġrheum":7149,"Ġleaving":7150,"Ġmottled":7151,"Ġbicon":7152,"Ġseizure":7153,"Ġnoticed":7154,"Ġconstruct":7155,"Ġchallenging":7156,"Ġgynecomastia":7157,"Ġperiaortic":7158,"Ġpneumobilia":7159,"Ġunsuccessful":7160,"Ġalimentary":7161,"Ġperpendicular":7162,"fth":7163,"listhesis":7164,"mark":7165,"thick":7166,"Ġaid":7167,"artoma":7168,"tex":7169,"lection":7170,"Ġspi":7171,"Ġsqu":7172,"enlarged":7173,"Ġnoon":7174,"errant":7175,"acy":7176,"ila":7177,"Ġfo":7178,"Ġfailed":7179,"Ġconcav":7180,"Ġdynamic":7181,"rol":7182,"ouch":7183,"Ġload":7184,"iton":7185,"Ġ___'":7186,"imaging":7187,"Ġprofusion":7188,"Ġones":7189,"Ġabundant":7190,"Ġaberrant":7191,"tensive":7192,"owled":7193,"Ġpreexisted":7194,"Ġoverriding":7195,"Ġcapacity":7196,"Ġremission":7197,"Ġwhe":7198,"Ġended":7199,"Ġsligh":7200,"Ġpair":7201,"Ġidentification":7202,"aber":7203,"Ġackn":7204,"Ġarrest":7205,"Ġcorrected":7206,"Ġcortex":7207,"inferior":7208,"possible":7209,"Ġbordering":7210,"Ġcoll":7211,"Ġrelations":7212,"Ġobserv":7213,"cencies":7214,"Ġfixed":7215,"Ġinvasion":7216,"Ġgranular":7217,"Ġpericardiac":7218,"Ġcomplic":7219,"Ġmalalignment":7220,"Ġreceiving":7221,"Ġtreat":7222,"Ġvaguely":7223,"Ġcuffed":7224,"pneumon":7225,"Ġpleuritic":7226,"Ġeventrated":7227,"Ġgrav":7228,"Ġradiodensities":7229,"Ġgrafts":7230,"Ġrise":7231,"Ġoverlaps":7232,"Ġundergo":7233,"Ġbleed":7234,"congestion":7235,"Ġpathologically":7236,"Ġreturns":7237,"Ġpenum":7238,"Ġsufficiently":7239,"Ġdisconne":7240,"Ġexpanding":7241,"Ġdiscontinuities":7242,"Ġmagnification":7243,"Ġconceivable":7244,"Ġplanned":7245,"Ġactual":7246,"Ġadjoining":7247,"Ġbegun":7248,"Ġpurposes":7249,"Ġprostatic":7250,"Ġ(___)":7251,"Ġlenticular":7252,"calcification":7253,"biventricular":7254,"Ġsimplest":7255,"hemothorax":7256,"Ġencas":7257,"Ġthymic":7258,"opericardium":7259,"Ġhemidiaphgram":7260,"Ġmesh":7261,"Ġresemble":7262,"Ġstraightening":7263,"uberant":7264,"Ġmodest":7265,"Ġhamartoma":7266,"Ġdescription":7267,"previously":7268,"Ġlabeled":7269,"Ġsupplemented":7270,"Ġtrali":7271,"Ġspeak":7272,"Ġtwelfth":7273,"Ġinduced":7274,"Ġnondependent":7275,"Ġbiconcave":7276,"thickening":7277,"Ġacknowled":7278,"eresis":7279,"hip":7280,"tte":7281,"vement":7282,"Ġpor":7283,"Ġsaber":7284,"orily":7285,"tible":7286,"Ġms":7287,"Ġbit":7288,"diagn":7289,"omediastinal":7290,"Ġanteromedial":7291,"Ġtal":7292,"Ġtren":7293,"Ġfre":7294,"Ġdon":7295,"Ġpleure":7296,"Ġren":7297,"Ġcardiop":7298,"Ġchila":7299,"Ġstran":7300,"Ġpneumoth":7301,"oste":7302,"beit":7303,"Ġcome":7304,"Ġdehydration":7305,"atoid":7306,"Ġextrinsic":7307,"Ġexuberant":7308,"Ġappe":7309,"arer":7310,"Ġclearer":7311,"verteb":7312,"Ġclears":7313,"Ġoverdistended":7314,"trans":7315,"Ġalbeit":7316,"Ġdiffusion":7317,"Ġsubject":7318,"Ġmidtrachea":7319,"Ġhemopericardium":7320,"llate":7321,"Ġshor":7322,"Ġsignify":7323,"Ġassure":7324,"Ġposttreatment":7325,"Ġ36":7326,"Ġunders":7327,"Ġemphasis":7328,"Ġconfines":7329,"Ġconfidence":7330,"Ġsounds":7331,"Ġquick":7332,"Ġhip":7333,"Ġfurthermore":7334,"Ġtechni":7335,"dependent":7336,"idental":7337,"Ġnoncalcified":7338,"Ġmalpositioning":7339,"Ġhighlight":7340,"Ġabsol":7341,"Ġbibasalar":7342,"Ġgranulomata":7343,"Ġmanip":7344,"Ġoccur":7345,"Ġsclero":7346,"Ġkyphoscoliosis":7347,"Ġcollapsing":7348,"Ġsatisfactorily":7349,"Ġreduces":7350,"Ġattribute":7351,"Ġcontinuously":7352,"Ġexposures":7353,"Ġsternoman":7354,"desm":7355,"ridement":7356,"Ġ--?":7357,"Ġdiscontinuation":7358,"Ġintracranial":7359,"Ġturns":7360,"Ġcontributory":7361,"Ġdecided":7362,"Ġurgently":7363,"Ġbronchoalveolar":7364,"Ġstellate":7365,"Ġmasked":7366,"Ġimpinges":7367,"Ġintralo":7368,"Ġangiogram":7369,"Ġdebridement":7370,"Ġprofound":7371,"Ġissues":7372,"Ġanswer":7373,"Ġemphasized":7374,"Ġsyndesm":7375,"Ġpiercings":7376,"Ġconglomerate":7377,"Ġreintubated":7378,"Ġrheumatoid":7379,"Ġspiral":7380,"Ġrelationship":7381,"Ġacknowledged":7382,"Ġpleurex":7383,"Ġstranding":7384,"ake":7385,"bling":7386,"cine":7387,"ered":7388,"gger":7389,"iph":7390,"oke":7391,"put":7392,"tog":7393,"vulus":7394,"this":7395,"lent":7396,"Ġsl":7397,"Ġspher":7398,"orrect":7399,"Ġolig":7400,"Ġlam":7401,"Ġnomin":7402,"Ġnothing":7403,"Ġintest":7404,"diti":7405,"ulate":7406,"Ġtarg":7407,"Ġfus":7408,"Ġformal":7409,"Ġfli":7410,"Ġdd":7411,"Ġvac":7412,"outh":7413,"ents":7414,"emic":7415,"iting":7416,"itous":7417,"Ġsta":7418,"Ġstump":7419,"anger":7420,"Ġunch":7421,"Ġselective":7422,"Ġproce":7423,"Ġascribed":7424,"Ġcontrol":7425,"atitis":7426,"Ġinterruption":7427,"Ġlowermost":7428,"Ġupt":7429,"Ġutility":7430,"Ġoverlaying":7431,"Ġovernight":7432,"ached":7433,"Ġaltog":7434,"Ġlift":7435,"Ġdiast":7436,"Ġmidway":7437,"Ġhemiab":7438,"Ġintervals":7439,"Ġ28":7440,"Ġresp":7441,"Ġrecorder":7442,"renced":7443,"arence":7444,"Ġspines":7445,"luc":7446,"Ġconcerns":7447,"Ġcortic":7448,"eld":7449,"Ġverge":7450,"Ġunderinflation":7451,"Ġfolding":7452,"Ġpoly":7453,"amediastinal":7454,"Ġdopp":7455,"Ġanywhere":7456,"wards":7457,"athyroid":7458,"teria":7459,"Ġaccompanies":7460,"Ġpresumptive":7461,"Ġindole":7462,"ountered":7463,"Ġspecial":7464,"icians":7465,"Ġeman":7466,"Ġdeviating":7467,"Ġconfirming":7468,"Ġreactions":7469,"Ġformer":7470,"Ġstrip":7471,"Ġdiminish":7472,"aeration":7473,"Ġkept":7474,"Ġsurrounds":7475,"Ġequivocally":7476,"arynge":7477,"Ġposterolaterally":7478,"Ġinterpret":7479,"Ġdepth":7480,"Ġcoughing":7481,"Ġcoalescing":7482,"pericardial":7483,"Ġmeans":7484,"itational":7485,"Ġexpander":7486,"Ġproduced":7487,"Ġfacing":7488,"resolving":7489,"interventional":7490,"Ġassumes":7491,"Ġreferenced":7492,"Ġideally":7493,"inser":7494,"Ġtakeoff":7495,"thoracotomy":7496,"Ġlaparotomy":7497,"Ġmuscles":7498,"Ġencountered":7499,"Ġpancreatitis":7500,"Ġgetting":7501,"Ġchemo":7502,"Ġequally":7503,"Ġprofile":7504,"Ġresembling":7505,"Ġproportional":7506,"iliar":7507,"Ġchecked":7508,"Ġvarices":7509,"Ġappliances":7510,"Ġcables":7511,"Ġvolvulus":7512,"after":7513,"Ġcorroborated":7514,"Ġcomplaints":7515,"Ġstricture":7516,"Ġpassive":7517,"Ġtachycardia":7518,"Ġatelecat":7519,"Ġipf":7520,"Ġcraniocaudal":7521,"Ġconcavity":7522,"Ġgravitational":7523,"Ġtalc":7524,"Ġappearence":7525,"Ġabsolute":7526,"Ġsternomanub":7527,"iphoid":7528,"Ġspherical":7529,"Ġoligemia":7530,"Ġlamine":7531,"Ġnominal":7532,"Ġtarget":7533,"Ġaltogether":7534,"Ġhemiabdomen":7535,"Ġindolent":7536,"hette":7537,"iv":7538,"opacity":7539,"ptible":7540,"stent":7541,"slight":7542,"uru":7543,"Ġild":7544,"Ġpaying":7545,"Ġpuru":7546,"Ġccu":7547,"teric":7548,"tectomies":7549,"Ġstero":7550,"Ġsicu":7551,"oratory":7552,"Ġname":7553,"Ġom":7554,"ences":7555,"Ġeluc":7556,"rimin":7557,"Ġbow":7558,"unchanged":7559,"dient":7560,"omaly":7561,"Ġanomaly":7562,"Ġfood":7563,"icit":7564,"nectomy":7565,"ctor":7566,"ctasis":7567,"ters":7568,"anging":7569,"osternal":7570,"ceptible":7571,"resh":7572,"Ġattest":7573,"atric":7574,"Ġextrac":7575,"Ġability":7576,"Ġmoder":7577,"Ġintern":7578,"Ġforms":7579,"Ġgap":7580,"Ġdisposition":7581,"gmented":7582,"Ġhemopneumothorax":7583,"ronodular":7584,"cluding":7585,"atively":7586,"Ġcloth":7587,"omyel":7588,"vicle":7589,"Ġinfective":7590,"istinal":7591,"Ġretroperitoneal":7592,"Ġretrolisthesis":7593,"ards":7594,"Ġprominant":7595,"Ġka":7596,"Ġkub":7597,"Ġbronchopleural":7598,"Ġelevate":7599,"Ġcord":7600,"Ġcostosternal":7601,"Ġstandpoint":7602,"Ġrole":7603,"clavicle":7604,"Ġ40":7605,"ĠĠĠĠ":7606,"Ġinside":7607,"Ġcooper":7608,"timate":7609,"Ġarches":7610,"Ġtransmit":7611,"Ġperforated":7612,"Ġnoncontrast":7613,"Ġhypod":7614,"Ġfibronodular":7615,"wered":7616,"Ġxiphoid":7617,"extubation":7618,"Ġfrankly":7619,"Ġavid":7620,"Ġmastectomies":7621,"Ġincorrect":7622,"Ġgranulomatosis":7623,"Ġpathogen":7624,"Ġdepend":7625,"Ġmanometer":7626,"lungs":7627,"Ġchoice":7628,"Ġoriginates":7629,"Ġgrade":7630,"Ġgradient":7631,"Ġtorsion":7632,"Ġembolic":7633,"Ġstabilized":7634,"Ġvariations":7635,"ocarditis":7636,"Ġtracheobronch":7637,"Ġvirus":7638,"Ġproduces":7639,"Ġchambers":7640,"Ġtransiently":7641,"Ġeffacing":7642,"Ġmix":7643,"Ġassume":7644,"Ġswallowing":7645,"Ġpockets":7646,"Ġconduit":7647,"Ġinsufficient":7648,"aligned":7649,"Ġneutropenia":7650,"Ġthrombosis":7651,"Ġconsequent":7652,"Ġdebris":7653,"Ġissue":7654,"Ġexpressed":7655,"iliac":7656,"Ġanteroposterior":7657,"Ġflail":7658,"Ġaugmented":7659,"Ġgirdles":7660,"ushing":7661,"Ġdiaphysis":7662,"Ġfixations":7663,"Ġconstitute":7664,"Ġprotrud":7665,"Ġcoexistent":7666,"Ġextravasation":7667,"Ġfrequently":7668,"Ġtechniques":7669,"Ġsyndesmophy":7670,"Ġfusiform":7671,"Ġflipped":7672,"Ġcorticated":7673,"Ġemanating":7674,"aryngeal":7675,"Ġsternomanubrial":7676,"Ġpurulent":7677,"Ġelucid":7678,"deg":7679,"demarc":7680,"for":7681,"kin":7682,"lind":7683,"oesophageal":7684,"ucted":7685,"Ġ>":7686,"inar":7687,"Ġpp":7688,"Ġtheright":7689,"Ġcic":7690,"arterial":7691,"Ġsle":7692,"istered":7693,"tivity":7694,"Ġlab":7695,"Ġmouth":7696,"Ġbun":7697,"raluminal":7698,"uma":7699,"ghorn":7700,"idual":7701,"Ġconed":7702,"Ġconcave":7703,"Ġduration":7704,"Ġdental":7705,"rauma":7706,"Ġreimaging":7707,"emb":7708,"itate":7709,"Ġorph":7710,"Ġbeam":7711,"impro":7712,"Ġdelayed":7713,"etry":7714,"Ġasy":7715,"Ġedges":7716,"ograms":7717,"see":7718,"uemonia":7719,"Ġendocarditis":7720,"ectly":7721,"Ġstructural":7722,"Ġapproved":7723,"Ġretrograde":7724,"quing":7725,"abdomen":7726,"Ġintraoperative":7727,"Ġpatch":7728,"infrahilar":7729,"Ġsupports":7730,"posi":7731,"Ġnotifications":7732,"Ġpacemakers":7733,"Ġadvis":7734,"Ġoutlines":7735,"Ġ55":7736,"Ġdifferentiated":7737,"Ġcovers":7738,"Ġextraluminal":7739,"Ġvalue":7740,"Ġperfusion":7741,"Ġperfectly":7742,"Ġelse":7743,"intubation":7744,"Ġcommunic":7745,"theli":7746,"Ġaligns":7747,"duced":7748,"etermined":7749,"surgery":7750,"Ġplaquing":7751,"Ġbiatrial":7752,"Ġbullectomy":7753,"Ġdemonstrable":7754,"Ġcephalic":7755,"Ġapproaches":7756,"Ġcavitations":7757,"Ġobstructed":7758,"Ġrpo":7759,"Ġrugger":7760,"Ġaneurysmatic":7761,"Ġduodenal":7762,"dish":7763,"otrauma":7764,"Ġsplenectomy":7765,"Ġcriteria":7766,"Ġcoalition":7767,"Ġmillimeter":7768,"Ġbubbles":7769,"Ġbarotrauma":7770,"Ġdeposit":7771,"Ġ#___":7772,"Ġhepat":7773,"Ġstented":7774,"Ġconclusively":7775,"Ġeffaced":7776,"super":7777,"Ġcrescent":7778,"Ġcylind":7779,"Ġundetermined":7780,"Ġproblems":7781,"Ġinteres":7782,"Ġinterest":7783,"Ġfluctuations":7784,"Ġtexture":7785,"Ġreadjustment":7786,"development":7787,"Ġpna":7788,"Ġpredispose":7789,"Ġerosion":7790,"Ġstraightened":7791,"Ġdegraded":7792,"Ġdegrades":7793,"Ġtill":7794,"Ġstrands":7795,"Ġsurprisingly":7796,"Ġprecludes":7797,"Ġeliminated":7798,"hemorrhage":7799,"Ġseptum":7800,"Ġinversus":7801,"Ġosteolytic":7802,"Ġdislodged":7803,"Ġinfluen":7804,"Ġdevise":7805,"nodular":7806,"pneumonectomy":7807,"Ġresembles":7808,"Ġporcine":7809,"Ġstaghorn":7810,"Ġuptake":7811,"Ġrespond":7812,"Ġsteroid":7813,"omyelitis":7814,"Ġkaposi":7815,"Ġcooperate":7816,"demarcated":7817,"Ġorphaned":7818,"Ġcylindrical":7819,"ais":7820,"bted":7821,"bowel":7822,"date":7823,"fic":7824,"face":7825,"ipi":7826,"ites":7827,"ovenous":7828,"oalveolar":7829,"otheli":7830,"pin":7831,"tric":7832,"wors":7833,"Ġ\\":7834,"rella":7835,"Ġpfi":7836,"Ġtheupper":7837,"tiocytosis":7838,"enomen":7839,"enker":7840,"ers":7841,"Ġintimal":7842,"Ġintrinsic":7843,"Ġmental":7844,"accum":7845,"Ġbal":7846,"Ġbac":7847,"Ġwa":7848,"omf":7849,"umonary":7850,"Ġtom":7851,"Ġhear":7852,"Ġhide":7853,"Ġfu":7854,"Ġfit":7855,"Ġflor":7856,"Ġfused":7857,"Ġpneumatosis":7858,"Ġwiring":7859,"Ġdata":7860,"Ġvom":7861,"Ġvast":7862,"oubted":7863,"Ġreevaluation":7864,"Ġtool":7865,"Ġloos":7866,"chase":7867,"Ġuncom":7868,"Ġunco":7869,"bet":7870,"Ġcoming":7871,"Ġprote":7872,"Ġsilhou":7873,"ocys":7874,"derma":7875,"very":7876,"atives":7877,"tended":7878,"Ġpreop":7879,"Ġprevi":7880,"Ġprevertebral":7881,"Ġoverdis":7882,"Ġdispro":7883,"Ġ___.___":7884,"Ġlimb":7885,"Ġbutt":7886,"aphrenic":7887,"persed":7888,"Ġthorough":7889,"Ġthoraces":7890,"ibasilar":7891,"note":7892,"Ġplaces":7893,"size":7894,"Ġinterspersed":7895,"Ġidentifying":7896,"Ġcarry":7897,"Ġcarinatum":7898,"expan":7899,"Ġprominences":7900,"abolic":7901,"Ġpacking":7902,"Ġprovides":7903,"Ġaspirations":7904,"Ġresolves":7905,"Ġelevating":7906,"Ġlocally":7907,"Ġcavo":7908,"ximately":7909,"Ġdiscrimin":7910,"Ġstim":7911,"Ġquo":7912,"Ġzenker":7913,"Ġfill":7914,"Ġhernias":7915,"Ġdeformed":7916,"Ġcolectomy":7917,"Ġquadrants":7918,"Ġmetabolic":7919,"Ġindications":7920,"Ġnotes":7921,"Ġaccompl":7922,"Ġmineralization":7923,"Ġminimum":7924,"Ġphenomen":7925,"Ġconfluenting":7926,"Ġmalfunction":7927,"Ġlymphaden":7928,"Ġfails":7929,"Ġtravel":7930,"Ġgot":7931,"Ġsitus":7932,"Ġestimate":7933,"Ġdeviates":7934,"Ġredemonstrate":7935,"Ġsharper":7936,"mptomatic":7937,"Ġadequacy":7938,"ogenous":7939,"Ġhypotension":7940,"Ġdifferently":7941,"Ġjuxtaphrenic":7942,"Ġfevers":7943,"Ġcallous":7944,"Ġpush":7945,"Ġhyperlucencies":7946,"Ġfragmentation":7947,"lingular":7948,"selves":7949,"Ġvariety":7950,"Ġaccumulations":7951,"Ġscreening":7952,"Ġobliqued":7953,"Ġmorphological":7954,"basilar":7955,"Ġnasointestinal":7956,"Ġspreading":7957,"Ġimpact":7958,"Ġmedistinal":7959,"Ġsmoker":7960,"Ġradioopaque":7961,"Ġsizes":7962,"Ġturning":7963,"Ġradiolucencies":7964,"Ġbreathing":7965,"Ġpurchase":7966,"Ġtaper":7967,"Ġpanco":7968,"Ġsimulate":7969,"Ġbronchioloalveolar":7970,"Ġresorbed":7971,"Ġthemselves":7972,"Ġadministered":7973,"Ġundoubted":7974,"omedially":7975,"Ġconforming":7976,"Ġanswered":7977,"Ġpnuemonia":7978,"Ġhemidiaphram":7979,"bronchograms":7980,"Ġmesotheli":7981,"Ġjudging":7982,"Ġsuperolaterally":7983,"subtle":7984,"Ġachieved":7985,"Ġanswering":7986,"Ġopacifies":7987,"Ġgirdle":7988,"Ġinstinct":7989,"hemorrhagic":7990,"Ġpalpable":7991,"Ġbrushing":7992,"Ġadhesions":7993,"Ġimmunosuppression":7994,"Ġumbrella":7995,"Ġchondroid":7996,"Ġdeterioration":7997,"Ġprompt":7998,"Ġanastomosis":7999,"Ġparticles":8000,"Ġdisconnected":8001,"vertebroplasty":8002,"Ġmanipulation":8003,"Ġscleroderma":8004,"Ġddx":8005,"Ġdiminishing":8006,"Ġbowing":8007,"Ġppd":8008,"Ġcicatric":8009,"Ġasymptomatic":8010,"Ġadvisable":8011,"Ġinteresting":8012,"ipient":8013,"Ġflorid":8014,"Ġloosening":8015,"Ġoverdistension":8016,"Ġdisproportion":8017,"Ġpancoast":8018,"Ġundoubtedly":8019,"Ġmesothelioma":8020,"25":8021,"but":8022,"bility":8023,"dates":8024,"ductive":8025,"dilated":8026,"event":8027,"gu":8028,"ht":8029,"hans":8030,"ield":8031,"lic":8032,"oled":8033,"pr":8034,"pus":8035,"series":8036,"tostomy":8037,"tuse":8038,"ught":8039,"Ġ~":8040,"inosis":8041,"induced":8042,"alation":8043,"Ġcll":8044,"len":8045,"Ġsal":8046,"Ġomitted":8047,"asarc":8048,"Ġlanger":8049,"Ġiscoiled":8050,"Ġbol":8051,"union":8052,"uli":8053,"ulsion":8054,"Ġanemia":8055,"Ġanomal":8056,"Ġanasarc":8057,"Ġtack":8058,"Ġho":8059,"Ġfortu":8060,"Ġfecal":8061,"ionella":8062,"Ġdub":8063,"Ġthereafter":8064,"Ġrever":8065,"Ġreducing":8066,"Ġreevaluate":8067,"olitis":8068,"Ġstates":8069,"Ġstations":8070,"Ġorif":8071,"angi":8072,"Ġunidentified":8073,"ressive":8074,"Ġcompares":8075,"Ġproductive":8076,"etal":8077,"Ġsilou":8078,"Ġexer":8079,"Ġconsolidate":8080,"Ġcontributed":8081,"udate":8082,"Ġinterventricular":8083,"Ġford":8084,"Ġaller":8085,"Ġgain":8086,"Ġdisk":8087,"Ġdisrupted":8088,"ading":8089,"Ġwhole":8090,"Ġsubstrate":8091,"Ġmidly":8092,"Ġmidnight":8093,"Ġmidclavicle":8094,"Ġagre":8095,"Ġendpl":8096,"Ġobtuse":8097,"Ġplacing":8098,"Ġpersis":8099,"Ġrecover":8100,"Ġsignifying":8101,"alloping":8102,"Ġapproval":8103,"Ġdefine":8104,"Ġcalculus":8105,"Ġretrospec":8106,"Ġspong":8107,"Ġspans":8108,"Ġscrat":8109,"Ġscalloping":8110,"Ġparalyzed":8111,"Ġremoving":8112,"Ġactivity":8113,"Ġatria":8114,"Ġ33":8115,"Ġverify":8116,"Ġii":8117,"Ġthicker":8118,"Ġpooled":8119,"Ġdiscomf":8120,"amous":8121,"amiliar":8122,"Ġsubsegment":8123,"Ġdoctor":8124,"Ġoutward":8125,"Ġoutput":8126,"Ġ52":8127,"Ġfills":8128,"loaded":8129,"Ġtransition":8130,"Ġtranscutaneous":8131,"Ġtranshepatic":8132,"ologically":8133,"Ġnonunion":8134,"Ġcompressions":8135,"Ġminim":8136,"Ġpheresis":8137,"Ġ60":8138,"Ġdistribute":8139,"Ġhyperextended":8140,"Ġunfav":8141,"Ġprone":8142,"Ġreferred":8143,"leton":8144,"Ġshadowing":8145,"Ġyield":8146,"Ġvagus":8147,"Ġlumens":8148,"Ġesc":8149,"Ġincons":8150,"Ġincipient":8151,"Ġphysicians":8152,"Ġdepends":8153,"Ġredemonstrates":8154,"Ġskeleton":8155,"xture":8156,"Ġoriginally":8157,"Ġcholecystostomy":8158,"ordin":8159,"Ġacromial":8160,"Ġconvexed":8161,"Ġcorrespondingly":8162,"Ġstimulators":8163,"Ġmorphologic":8164,"Ġdepict":8165,"Ġcannulation":8166,"Ġpenetrating":8167,"Ġanatomically":8168,"Ġglobally":8169,"Ġhistiocytosis":8170,"caliber":8171,"mildly":8172,"Ġmixture":8173,"Ġimmune":8174,"Ġintermediate":8175,"Ġsooner":8176,"Ġundulating":8177,"Ġexpectoration":8178,"Ġcreates":8179,"Ġptbd":8180,"approach":8181,"Ġbreaks":8182,"Ġconsequently":8183,"Ġjudged":8184,"Ġpeaking":8185,"Ġinhalation":8186,"Ġadipose":8187,"Ġblurred":8188,"Ġinadequately":8189,"Ġlegionella":8190,"Ġopacitiy":8191,"Ġsillouette":8192,"given":8193,"Ġwhee":8194,"Ġchilai":8195,"Ġquickly":8196,"Ġintestines":8197,"Ġclothing":8198,"Ġmillimeters":8199,"superior":8200,"Ġvomiting":8201,"Ġuncommon":8202,"ocyst":8203,"Ġcicatricial":8204,"eventration":8205,"Ġlangerhans":8206,"Ġbolus":8207,"Ġanasarca":8208,"Ġtacks":8209,"Ġfortuitous":8210,"Ġallerg":8211,"Ġendplates":8212,"Ġretrospective":8213,"Ġscratch":8214,"Ġdiscomfort":8215,"--":8216,"amin":8217,"bral":8218,"bilateral":8219,"cc":8220,"cor":8221,"city":8222,"erence":8223,"fre":8224,"fied":8225,"fety":8226,"hib":8227,"ietal":8228,"jective":8229,"ked":8230,"kyph":8231,"lastic":8232,"lctasis":8233,"pting":8234,"pred":8235,"part":8236,"uri":8237,"utive":8238,"vol":8239,"Ġpumonary":8240,"tition":8241,"ending":8242,"Ġlisted":8243,"Ġindependent":8244,"Ġelective":8245,"Ġml":8246,"Ġmarrow":8247,"Ġmatter":8248,"ustr":8249,"ilation":8250,"Ġwaned":8251,"ulous":8252,"ulted":8253,"Ġtable":8254,"Ġtold":8255,"anced":8256,"Ġhes":8257,"Ġfun":8258,"icir":8259,"Ġconver":8260,"Ġdro":8261,"Ġdem":8262,"roax":8263,"raph":8264,"Ġrenew":8265,"itated":8266,"Ġuncoiled":8267,"Ġsees":8268,"cell":8269,"Ġbelong":8270,"Ġ___/":8271,"Ġcomposite":8272,"Ġdelay":8273,"cutive":8274,"ets":8275,"Ġsilic":8276,"Ġexudate":8277,"Ġapper":8278,"dering":8279,"Ġrare":8280,"Ġmodi":8281,"tening":8282,"tence":8283,"ographically":8284,"Ġga":8285,"Ġperceptible":8286,"gmata":8287,"Ġobes":8288,"Ġshunting":8289,"ssub":8290,"Ġresist":8291,"Ġsignfic":8292,"urface":8293,"Ġinfected":8294,"pig":8295,"cardiomediastinal":8296,"Ġassump":8297,"quency":8298,"Ġcandi":8299,"Ġacinar":8300,"Ġmarks":8301,"Ġintram":8302,"Ġintramed":8303,"Ġpatulous":8304,"Ġcorpus":8305,"Ġ35":8306,"Ġverified":8307,"Ġmedias":8308,"Ġsomeone":8309,"Ġperio":8310,"Ġsupplement":8311,"possib":8312,"Ġpersistant":8313,"Ġconference":8314,"Ġsole":8315,"Ġstigmata":8316,"Ġinsult":8317,"Ġinspected":8318,"Ġstreaking":8319,"Ġcombine":8320,"Ġlymphovenous":8321,"delen":8322,"terized":8323,"terization":8324,"stage":8325,"Ġnoncardiac":8326,"Ġnonobstructive":8327,"Ġsemicir":8328,"curv":8329,"Ġnearby":8330,"Ġpresuming":8331,"itoneum":8332,"Ġneural":8333,"Ġaxial":8334,"Ġillness":8335,"Ġillustr":8336,"apes":8337,"Ġgeographically":8338,"Ġspeck":8339,"Ġgasless":8340,"rhosis":8341,"Ġmarginating":8342,"Ġthyrom":8343,"Ġleftwards":8344,"Ġfocused":8345,"Ġseeing":8346,"ributes":8347,"romatosis":8348,"Ġgenerators":8349,"Ġalternatives":8350,"Ġdiscretely":8351,"Ġranging":8352,"Ġnarrows":8353,"caps":8354,"Ġfiducials":8355,"Ġhrct":8356,"Ġdiminutive":8357,"Ġblebectomy":8358,"Ġjuxtamediastinal":8359,"Ġcirrhosis":8360,"Ġfell":8361,"body":8362,"Ġcarcinoid":8363,"Ġcoincide":8364,"Ġlymphangitis":8365,"Ġsecret":8366,"Ġcoalesced":8367,"Ġislands":8368,"Ġsafety":8369,"Ġbarrel":8370,"Ġimpactions":8371,"Ġradiofre":8372,"Ġhandful":8373,"Ġhyperdensities":8374,"Ġdiscontinuous":8375,"Ġdiscordant":8376,"Ġparallels":8377,"Ġrespects":8378,"Ġbbs":8379,"Ġtranssub":8380,"Ġinterfaces":8381,"Ġintention":8382,"Ġpanlobular":8383,"sug":8384,"hydro":8385,"Ġwaxed":8386,"calcific":8387,"thoracocentesis":8388,"rame":8389,"Ġfluctuated":8390,"Ġmycobac":8391,"Ġburs":8392,"Ġmanubrial":8393,"approximately":8394,"Ġdisplaying":8395,"Ġthymoma":8396,"Ġsenile":8397,"Ġleukemic":8398,"Ġdemarcation":8399,"Ġredund":8400,"Ġpnu":8401,"Ġthrombus":8402,"Ġindiv":8403,"Ġconsecutive":8404,"subclavian":8405,"Ġcounts":8406,"Ġproducts":8407,"Ġconcealed":8408,"Ġvaricella":8409,"Ġargues":8410,"Ġaugment":8411,"Ġinstability":8412,"Ġaspergillosis":8413,"formation":8414,"Ġcrack":8415,"Ġconsultation":8416,"marked":8417,"Ġsquamous":8418,"Ġobservations":8419,"diagnos":8420,"Ġtrendelen":8421,"Ġcardiopul":8422,"Ġpneumothroax":8423,"Ġundersurface":8424,"Ġintralobar":8425,"inserted":8426,"Ġomr":8427,"Ġtransmitting":8428,"Ġbundles":8429,"Ġcommunicate":8430,"worsening":8431,"better":8432,"expand":8433,"Ġstimulation":8434,"Ġphenomenon":8435,"guided":8436,"promin":8437,"Ġsponge":8438,"Ġwheezing":8439,"Ġallergic":8440,"predomin":8441,"Ġrenewed":8442,"Ġsignficant":8443,"Ġassumption":8444,"Ġintramedullary":8445,"Ġsemicircular":8446,"Ġthyromegaly":8447,"Ġradiofrequency":8448,"Ġtranssubclavian":8449,".\"":8450,"ae":8451,"burg":8452,"bibasilar":8453,"ck":8454,"centric":8455,"elect":8456,"gkin":8457,"ier":8458,"lty":8459,"mur":8460,"nament":8461,"ounded":8462,"prior":8463,"pase":8464,"pled":8465,"stim":8466,"tral":8467,"tomy":8468,"tuber":8469,"ups":8470,"yth":8471,"za":8472,"Ġ__":8473,"Ġpec":8474,"Ġtheore":8475,"arach":8476,"Ġsort":8477,"Ġsend":8478,"ori":8479,"orra":8480,"orable":8481,"Ġnet":8482,"Ġing":8483,"Ġincomp":8484,"Ġmk":8485,"Ġmur":8486,"acath":8487,"Ġbuck":8488,"ushed":8489,"iling":8490,"Ġwat":8491,"ulator":8492,"Ġhod":8493,"Ġfasc":8494,"Ġconcent":8495,"neck":8496,"Ġdail":8497,"Ġvo":8498,"Ġvide":8499,"Ġleaning":8500,"Ġthereby":8501,"Ġpleurally":8502,"Ġreappearance":8503,"olization":8504,"emothorax":8505,"Ġornament":8506,"physi":8507,"Ġunre":8508,"Ġununited":8509,"Ġunstable":8510,"estration":8511,"pacities":8512,"Ġconstric":8513,"Ġconsulted":8514,"___.":8515,"Ġatelctasis":8516,"atab":8517,"Ġenhan":8518,"Ġasym":8519,"Ġascri":8520,"Ġexclusive":8521,"Ġexhib":8522,"ocentric":8523,"ocrit":8524,"ogens":8525,"Ġposteromedial":8526,"Ġmovement":8527,"Ġfron":8528,"atite":8529,"Ġradiotherapy":8530,"seous":8531,"secting":8532,"Ġlateralization":8533,"Ġpreferen":8534,"Ġalle":8535,"Ġgent":8536,"Ġdisappearance":8537,"Ġdissecting":8538,"Ġpercei":8539,"Ġremove":8540,"again":8541,"Ġ___..":8542,"Ġhemorra":8543,"Ġendoscop":8544,"Ġhemithy":8545,"Ġ26":8546,"Ġ27":8547,"Ġ29":8548,"ticulation":8549,"sies":8550,"Ġpap":8551,"Ġpaired":8552,"Ġportacath":8553,"Ġdeflection":8554,"cardial":8555,"Ġdecreases":8556,"Ġparticul":8557,"Ġparietal":8558,"tains":8559,"Ġprominance":8560,"Ġregular":8561,"Ġcanted":8562,"Ġexamine":8563,"Ġintraabdominal":8564,"Ġbronchocentric":8565,"Ġhypertrans":8566,"Ġmedius":8567,"Ġgrounds":8568,"mental":8569,"posing":8570,"Ġbasally":8571,"Ġblank":8572,"Ġpoore":8573,"moan":8574,"Ġcompressing":8575,"Ġgives":8576,"Ġ42":8577,"Ġ43":8578,"ameral":8579,"Ġsurgically":8580,"istinguish":8581,"Ġtransmitted":8582,"terium":8583,"erves":8584,"Ġswans":8585,"Ġinvoke":8586,"Ġinvolution":8587,"Ġpulm":8588,"Ġdistributes":8589,"Ġindistinguish":8590,"Ġdevelopments":8591,"Ġdevelopmental":8592,"Ġuploaded":8593,"apatite":8594,"Ġrefers":8595,"avid":8596,"Ġavm":8597,"roidectomy":8598,"Ġexploratory":8599,"Ġhydroxy":8600,"Ġsubdiaphragmatically":8601,"Ġpathogens":8602,"Ġ(#":8603,"Ġbulges":8604,"Ġdextrocardia":8605,"Ġdextrocurv":8606,"Ġreadout":8607,"Ġefforts":8608,"culous":8609,"Ġplethoric":8610,"Ġlordosis":8611,"Ġcontinually":8612,"Ġrind":8613,"Ġuncertainty":8614,"median":8615,"Ġhypoinflation":8616,"Ġhrs":8617,"Ġbiopsies":8618,"prob":8619,"Ġvalvuloplasty":8620,"Ġtented":8621,"Ġintroducing":8622,"Ġradiological":8623,"Ġulcer":8624,"Ġlymphangi":8625,"Ġaneurysmally":8626,"Ġtunnel":8627,"trapping":8628,"Ġsideports":8629,"Ġmedullary":8630,"Ġbronchopneumonic":8631,"Ġparasternal":8632,"Ġdiscerned":8633,"Ġcompleted":8634,"Ġoperating":8635,"Ġpseudocyst":8636,"Ġintense":8637,"Ġflare":8638,"Ġflushed":8639,"Ġdecide":8640,"Ġdecision":8641,"Ġinterventions":8642,"Ġhollow":8643,"Ġcomplexity":8644,"Ġcompensation":8645,"Ġcoupled":8646,"Ġundulation":8647,"Ġneurostim":8648,"Ġinstruction":8649,"Ġpractition":8650,"Ġredo":8651,"bronchi":8652,"bronchoscopy":8653,"fibrotic":8654,"jejunal":8655,"Ġinfradiaphragmatic":8656,"Ġjudge":8657,"Ġpredisposing":8658,"Ġcannulate":8659,"Ġhematocrit":8660,"Ġaspergillus":8661,"Ġthermal":8662,"Ġreversal":8663,"Ġreverses":8664,"Ġmisalignment":8665,"Ġinadequate":8666,"ouching":8667,"Ġcollpase":8668,"Ġcomplicating":8669,"Ġencased":8670,"Ġsliding":8671,"Ġunchaged":8672,"athyroidism":8673,"Ġchemoemb":8674,"Ġatelecatsis":8675,"Ġlaminectomies":8676,"slightly":8677,"Ġtracheobronchoplasty":8678,"Ġprotruding":8679,"Ġsyndesmophytes":8680,"Ġhepatomegaly":8681,"Ġinfluenza":8682,"Ġproteinosis":8683,"Ġaccomplished":8684,"Ġtapering":8685,"Ġpromptly":8686,"Ġunfavorable":8687,"Ġchilaiditi":8688,"Ġhesitate":8689,"Ġfundic":8690,"Ġapperance":8691,"Ġspeckled":8692,"Ġfellow":8693,"Ġsecretary":8694,"Ġmycobacterium":8695,"Ġredundancy":8696,"Ġpnuemothorax":8697,"Ġindividual":8698,"Ġaugmentation":8699,"diagnostic":8700,"Ġtrendelenburg":8701,"predominant":8702,"electro":8703,"tuberculous":8704,"Ġtheoretically":8705,"Ġmurmur":8706,"Ġhodgkin":8707,"Ġdaily":8708,"atabase":8709,"Ġascribe":8710,"Ġexclusively":8711,"Ġperceived":8712,"Ġhemithyroidectomy":8713,"Ġpoorer":8714,"Ġindistinguishable":8715,"Ġhydroxyapatite":8716,"Ġdextrocurvature":8717,"Ġneurostimulator":8718,"Ġinstructions":8719,"Ġpractitioner":8720,"Ġchemoembolization":8721,"**":8722,"40":8723,"bus":8724,"cosis":8725,"coid":8726,"df":8727,"dr":8728,"down":8729,"dose":8730,"eph":8731,"fol":8732,"flex":8733,"hr":8734,"ian":8735,"jd":8736,"lli":8737,"ns":8738,"ror":8739,"ster":8740,"ylo":8741,"zen":8742,"Ġiliac":8743,"thes":8744,"Ġaut":8745,"onal":8746,"onogram":8747,"inder":8748,"inated":8749,"indic":8750,"allower":8751,"Ġcig":8752,"Ġcub":8753,"Ġcited":8754,"arter":8755,"lesion":8756,"Ġsate":8757,"Ġsear":8758,"Ġsonogram":8759,"ora":8760,"tile":8761,"Ġnative":8762,"edded":8763,"Ġlu":8764,"Ġlul":8765,"Ġisch":8766,"Ġnocardia":8767,"Ġmra":8768,"Ġbold":8769,"illo":8770,"Ġwent":8771,"omas":8772,"oming":8773,"Ġtort":8774,"Ġtribut":8775,"Ġrij":8776,"Ġconcluded":8777,"lymph":8778,"Ġdatabase":8779,"Ġdjd":8780,"Ġvas":8781,"Ġvns":8782,"Ġled":8783,"Ġthereto":8784,"ros":8785,"rostomy":8786,"Ġreinserted":8787,"Ġcharach":8788,"cts":8789,"empyema":8790,"Ġstart":8791,"Ġstamp":8792,"osal":8793,"Ġseats":8794,"estaff":8795,"reso":8796,"Ġatelectais":8797,"atypical":8798,"Ġexc":8799,"Ġexl":8800,"Ġexpi":8801,"Ġexperi":8802,"ogr":8803,"Ġposteri":8804,"opel":8805,"vial":8806,"Ġpretracheal":8807,"Ġpreprocedure":8808,"lies":8809,"Ġlobectomies":8810,"gestive":8811,"Ġstudent":8812,"Ġalve":8813,"Ġgj":8814,"Ġgone":8815,"Ġgrid":8816,"Ġdistant":8817,"therapy":8818,"utum":8819,"Ġwegen":8820,"aggressive":8821,"agraph":8822,"Ġenlargment":8823,"minant":8824,"tiform":8825,"Ġosh":8826,"roneph":8827,"Ġcathe":8828,"Ġshock":8829,"Ġshallower":8830,"Ġrespiration":8831,"Ġhapp":8832,"Ġclass":8833,"Ġctpa":8834,"vices":8835,"piric":8836,"Ġspoon":8837,"Ġspillo":8838,"Ġsputum":8839,"cardiomegaly":8840,"Ġclincal":8841,"lux":8842,"Ġparameter":8843,"extensive":8844,"examin":8845,"Ġremode":8846,"Ġacdf":8847,"Ġtes":8848,"Ġtether":8849,"Ġintrapleural":8850,"Ġbronchio":8851,"stand":8852,"Ġhyperpar":8853,"Ġsubstances":8854,"Ġunderside":8855,"Ġengor":8856,"Ġscarred":8857,"Ġpresternal":8858,"Ġdraw":8859,"Ġsurgeries":8860,"Ġbloss":8861,"cend":8862,"Ġdeserves":8863,"Ġconfoun":8864,"Ġ58":8865,"Ġlayered":8866,"Ġbackwards":8867,"Ġesophagitis":8868,"Ġsomewhere":8869,"Ġlymphomatous":8870,"Ġfulminant":8871,"Ġtransfi":8872,"devices":8873,"Ġindicator":8874,"Ġtiming":8875,"Ġnondiagnostic":8876,"Ġnonaggressive":8877,"Ġthoracoscopy":8878,"Ġphoned":8879,"overlying":8880,"Ġindent":8881,"Ġfailing":8882,"Ġmultichannel":8883,"Ġunfamiliar":8884,"Ġconvincingly":8885,"deform":8886,"Ġgeom":8887,"Ġabscence":8888,"drain":8889,"lets":8890,"Ġopd":8891,"Ġmarginates":8892,"Ġosteob":8893,"Ġosteomyelitis":8894,"Ġfatty":8895,"icially":8896,"Ġexplicit":8897,"Ġabdominopel":8898,"Ġwedged":8899,"Ġhydroneph":8900,"Ġempiric":8901,"trace":8902,"Ġfusions":8903,"Ġconfirmatory":8904,"Ġready":8905,"Ġembedded":8906,"Ġdextroscoliotic":8907,"Ġgroundglass":8908,"Ġinfiltrating":8909,"Ġcorresponded":8910,"indeterminant":8911,"shadow":8912,"Ġchains":8913,"Ġattached":8914,"Ġnarrower":8915,"Ġundergoing":8916,"obli":8917,"Ġcircul":8918,"Ġdislocations":8919,"lumbar":8920,"Ġosteopor":8921,"otumor":8922,"chondromatosis":8923,"flowing":8924,"lingula":8925,"Ġstabilizing":8926,"Ġpelves":8927,"assessment":8928,"Ġtemporal":8929,"Ġcannulating":8930,"Ġseeming":8931,"Ġsummary":8932,"Ġbrought":8933,"Ġhousestaff":8934,"Ġmagnitud":8935,"Ġoperated":8936,"Ġclosures":8937,"Ġdifferentiating":8938,"Ġflotation":8939,"Ġflush":8940,"inflammation":8941,"Ġosteochondromatosis":8942,"Ġsteep":8943,"Ġtapping":8944,"Ġcharacteristics":8945,"Ġingestion":8946,"Ġ(___).":8947,"Ġhemodynamics":8948,"Ġobliterate":8949,"Ġlentiform":8950,"Ġquantification":8951,"Ġhypoxemia":8952,"Ġabruptly":8953,"Ġmuscul":8954,"Ġaddressed":8955,"Ġthymus":8956,"Ġthymectomy":8957,"Ġcapsulated":8958,"Ġmammogram":8959,"Ġmatching":8960,"Ġguidance":8961,"Ġinhomogeneous":8962,"Ġstarted":8963,"Ġsillhouette":8964,"Ġoverdose":8965,"Ġpregnant":8966,"Ġargu":8967,"Ġargue":8968,"Ġopacifying":8969,"Ġprecluding":8970,"Ġhematogenous":8971,"Ġpalpation":8972,"Ġimmunosuppressed":8973,"Ġadipos":8974,"Ġosteolysis":8975,"Ġspacers":8976,"Ġslighly":8977,"Ġpenumothorax":8978,"Ġpenumonia":8979,"calcifications":8980,"Ġspeaks":8981,"Ġshorter":8982,"Ġstripes":8983,"Ġabsolutely":8984,"Ġuncoiling":8985,"Ġinterestingly":8986,"Ġagreed":8987,"Ġrecoverable":8988,"Ġminimize":8989,"Ġescapes":8990,"kyphoplasty":8991,"urious":8992,"Ġsilicone":8993,"Ġresistance":8994,"Ġsolely":8995,"Ġvideo":8996,"Ġenhancement":8997,"Ġpreferentially":8998,"Ġendoscope":8999,"Ġpapillary":9000,"Ġparticulary":9001,"Ġblanket":9002,"moanry":9003,"electrode":9004,"llite":9005,"sternotomy":9006,"Ġcigare":9007,"Ġcubitus":9008,"Ġsatellite":9009,"Ġtortous":9010,"Ġexpired":9011,"Ġwegener":9012,"Ġspillover":9013,"Ġremodeled":9014,"Ġhyperparathyroidism":9015,"Ġblossoming":9016,"Ġconfounding":9017,"Ġtransfix":9018,"Ġosteoblastic":9019,"Ġabdominopelvic":9020,"Ġmagnitude":9021,"+/":9022,"?)":9023,"aired":9024,"bri":9025,"bow":9026,"bone":9027,"cn":9028,"distention":9029,"ell":9030,"fication":9031,"gor":9032,"however":9033,"log":9034,"lined":9035,"linear":9036,"marg":9037,"mediastinum":9038,"mosis":9039,"mesis":9040,"por":9041,"pat":9042,"ras":9043,"rum":9044,"sity":9045,"sue":9046,"table":9047,"ug":9048,"ux":9049,"ucl":9050,"ulectomy":9051,"zrd":9052,"Ġ+/":9053,"thecal":9054,"onucl":9055,"inding":9056,"Ġthro":9057,"Ġcoc":9058,"Ġcris":9059,"Ġcurious":9060,"arder":9061,"lected":9062,"Ġsam":9063,"ises":9064,"titis":9065,"Ġlup":9066,"eried":9067,"especially":9068,"Ġinactive":9069,"Ġeve":9070,"Ġease":9071,"Ġmut":9072,"Ġmisplaced":9073,"riac":9074,"action":9075,"acardiac":9076,"unar":9077,"under":9078,"uscular":9079,"Ġwing":9080,"Ġward":9081,"ulties":9082,"Ġank":9083,"Ġangular":9084,"Ġaneur":9085,"Ġantral":9086,"Ġtag":9087,"Ġtace":9088,"atemesis":9089,"Ġhim":9090,"Ġhomogen":9091,"idation":9092,"Ġveter":9093,"oured":9094,"Ġredevelopment":9095,"month":9096,"Ġchild":9097,"emed":9098,"Ġstone":9099,"Ġstones":9100,"terstitial":9101,"Ġoro":9102,"chf":9103,"osterior":9104,"Ġunrec":9105,"ears":9106,"pact":9107,"ception":9108,"Ġcompact":9109,"Ġconsisted":9110,"resection":9111,"Ġcompelling":9112,"Ġopacific":9113,"Ġopacites":9114,"Ġdeemed":9115,"atly":9116,"attem":9117,"Ġencomp":9118,"Ġaspi":9119,"Ġexterior":9120,"Ġbaso":9121,"Ġmoreso":9122,"uded":9123,"Ġradial":9124,"Ġradionucl":9125,"Ġuzrd":9126,"Ġvigor":9127,"Ġcaud":9128,"Ġperistent":9129,"Ġperhilar":9130,"Ġperitoneum":9131,"adj":9132,"ureteral":9133,"aginous":9134,"Ġsubcu":9135,"clin":9136,"Ġimpressive":9137,"Ġcongestions":9138,"Ġhematemesis":9139,"Ġostomy":9140,"ticula":9141,"Ġreflux":9142,"Ġreced":9143,"Ġpaper":9144,"renal":9145,"levation":9146,"Ġspares":9147,"Ġworth":9148,"Ġworking":9149,"soft":9150,"lucent":9151,"Ġregressing":9152,"Ġmarket":9153,"Ġnasal":9154,"Ġintrathecal":9155,"Ġarticulation":9156,"Ġelevates":9157,"Ġcorpectomy":9158,"Ġ31":9159,"Ġfluidopneumothorax":9160,"Ġrecomm":9161,"Ġunderline":9162,"Ġgroove":9163,"Ġassessable":9164,"Ġperidiaphragmatic":9165,"Ġperihepatic":9166,"Ġlocate":9167,"Ġaccidental":9168,"Ġfollowups":9169,"Ġtracheoesophageal":9170,"Ġangled":9171,"Ġdevelops":9172,"Ġtortuousity":9173,"Ġbladder":9174,"Ġroux":9175,"imposed":9176,"Ġgrew":9177,"mothorax":9178,"Ġ41":9179,"Ġdescend":9180,"Ġdifficulties":9181,"Ġqueried":9182,"ĠĠĠĠĠ":9183,"Ġseconds":9184,"Ġfuller":9185,"Ġtransthoracic":9186,"Ġtransformation":9187,"Ġperforming":9188,"barrel":9189,"Ġnonenlarged":9190,"Ġpassage":9191,"Ġsemierect":9192,"Ġdistending":9193,"Ġshifts":9194,"Ġhistoplas":9195,"Ġelbow":9196,"Ġpresumption":9197,"Ġreplaces":9198,"Ġlingulectomy":9199,"Ġinferomedial":9200,"lerated":9201,"plasia":9202,"Ġaxis":9203,"ounds":9204,"respon":9205,"Ġscanned":9206,"apular":9207,"Ġabsor":9208,"Ġcharacterizing":9209,"Ġoption":9210,"Ġmargination":9211,"Ġseroma":9212,"Ġserpig":9213,"Ġdiagnose":9214,"Ġbend":9215,"Ġluminal":9216,"Ġmasking":9217,"Ġextremities":9218,"Ġbielectrode":9219,"please":9220,"Ġoccluding":9221,"Ġaxillae":9222,"Ġretractile":9223,"Ġexternally":9224,"Ġeventually":9225,"Ġannual":9226,"Ġplus":9227,"Ġplating":9228,"Ġplastic":9229,"sym":9230,"Ġembolized":9231,"Ġfarr":9232,"Ġtriang":9233,"penetration":9234,"penetrated":9235,"Ġrests":9236,"Ġjuxtacardiac":9237,"Ġfebri":9238,"cont":9239,"Ġperme":9240,"Ġextrapulmonary":9241,"Ġextraordin":9242,"Ġreticulated":9243,"Ġscapulae":9244,"Ġplugs":9245,"Ġcircumflex":9246,"Ġlooked":9247,"Ġdishis":9248,"Ġexplanations":9249,"Ġinfarctions":9250,"Ġdetached":9251,"pericardi":9252,".___.":9253,"Ġmeth":9254,"Ġlevo":9255,"Ġsuffers":9256,"ference":9257,"Ġexpands":9258,"Ġsequestration":9259,"Ġfacil":9260,"Ġcoverage":9261,"Ġbecoming":9262,"Ġaccelerated":9263,"Ġintensive":9264,"Ġjejunostomy":9265,"Ġrising":9266,"Ġimportantly":9267,"Ġpreferred":9268,"Ġcartilaginous":9269,"Ġpursue":9270,"Ġfluoro":9271,"Ġentra":9272,"Ġbifurcations":9273,"Ġerror":9274,"Ġcutoff":9275,"Ġswallowed":9276,"Ġimpingement":9277,"Ġultimate":9278,"Ġburst":9279,"Ġdiverticula":9280,"Ġinferolaterally":9281,"Ġleukemia":9282,"suprahilar":9283,"Ġparacentesis":9284,"Ġthrombosed":9285,"Ġpredisposes":9286,"tomas":9287,"Ġterrit":9288,"within":9289,"Ġcompany":9290,"Ġbottle":9291,"masses":9292,"Ġevery":9293,"Ġbrache":9294,"Ġmeasurements":9295,"Ġanastomotic":9296,"Ġposteroinferior":9297,"Ġobserves":9298,"Ġencasing":9299,"Ġmodestly":9300,"Ġrendered":9301,"osteal":9302,"Ġhighlights":9303,"Ġhighlighting":9304,"Ġdoppler":9305,"Ġpresumptively":9306,"Ġexpanders":9307,"degree":9308,"Ġsleeve":9309,"improved":9310,"Ġwaist":9311,"Ġtomography":9312,"Ġsilhoutte":9313,"Ġtravels":9314,"Ġgotten":9315,"Ġpushing":9316,"Ġsaline":9317,"Ġsilouhette":9318,"partum":9319,"Ġmodified":9320,"Ġcandidate":9321,"Ġmediastium":9322,"possibly":9323,"prominent":9324,"Ġ_____":9325,"oriented":9326,"Ġconcentrated":9327,"physiologic":9328,"probably":9329,"Ġsearch":9330,"Ġexperien":9331,"Ġalveolitis":9332,"Ġcatheterization":9333,"Ġparameters":9334,"Ġtethering":9335,"Ġengorgment":9336,"Ġgeometric":9337,"Ġexplicitly":9338,"Ġhydronephrosis":9339,"Ġcirculating":9340,"Ġcigarette":9341,"marginated":9342,"patchy":9343,"Ġ+/-":9344,"Ġcrisis":9345,"Ġlupus":9346,"Ġchildhood":9347,"Ġencompass":9348,"Ġradionuclide":9349,"Ġvigorous":9350,"Ġhistoplasmosis":9351,"Ġserpiginous":9352,"Ġfebrile":9353,"Ġextraordinarily":9354,"Ġterritory":9355,"32":9356,"aiton":9357,"bre":9358,"bid":9359,"cated":9360,"cology":9361,"cillary":9362,"ev":9363,"eff":9364,"eli":9365,"etence":9366,"elevation":9367,"fir":9368,"gans":9369,"hge":9370,"iw":9371,"ix":9372,"ius":9373,"itent":9374,"mp":9375,"mits":9376,"miss":9377,"nes":9378,"ocephalic":9379,"olecys":9380,"pulsion":9381,"rud":9382,"rist":9383,"stion":9384,"spaces":9385,"taken":9386,"vated":9387,"wer":9388,"xpansion":9389,"Ġ&":9390,"Ġace":9391,"ina":9392,"internal":9393,"including":9394,"rep":9395,"Ġthumb":9396,"Ġthirds":9397,"Ġthresh":9398,"alse":9399,"Ġpouch":9400,"Ġcd":9401,"Ġcast":9402,"Ġcere":9403,"Ġcases":9404,"arl":9405,"arm":9406,"ars":9407,"arse":9408,"leration":9409,"leman":9410,"Ġspite":9411,"tie":9412,"Ġland":9413,"esthes":9414,"Ġefusion":9415,"Ġebus":9416,"Ġmam":9417,"riform":9418,"acrom":9419,"unfol":9420,"using":9421,"Ġwomen":9422,"Ġwounds":9423,"Ġwrist":9424,"Ġancillary":9425,"Ġanesthes":9426,"umoral":9427,"Ġtap":9428,"Ġtng":9429,"ani":9430,"anterior":9431,"ghted":9432,"Ġhia":9433,"Ġhop":9434,"Ġhome":9435,"Ġfx":9436,"Ġfan":9437,"Ġfaces":9438,"Ġfole":9439,"Ġfalse":9440,"malign":9441,"Ġconc":9442,"Ġcontem":9443,"ings":9444,"Ġda":9445,"Ġdose":9446,"Ġdump":9447,"Ġthereof":9448,"rog":9449,"raindic":9450,"oura":9451,"Ġreappeared":9452,"Ġcardipulmonary":9453,"Ġleftsided":9454,"Ġlot":9455,"itating":9456,"Ġstop":9457,"Ġorgans":9458,"chi":9459,"chair":9460,"cholecys":9461,"osseous":9462,"Ġuninter":9463,"astinal":9464,"Ġseeding":9465,"Ġselected":9466,"___,":9467,"imaged":9468,"Ġcomputed":9469,"Ġdeal":9470,"Ġprot":9471,"Ġprolong":9472,"aturation":9473,"Ġens":9474,"Ġenvi":9475,"Ġencaps":9476,"Ġasd":9477,"Ġexistence":9478,"ocol":9479,"Ġcontraindic":9480,"oposterior":9481,"Ġabpa":9482,"Ġmoving":9483,"iferative":9484,"ifies":9485,"tened":9486,"Ġinterrupted":9487,"Ġinterrog":9488,"Ġpredates":9489,"Ġovershadow":9490,"Ġdisro":9491,"Ġdismiss":9492,"Ġperis":9493,"Ġpercent":9494,"adenopathy":9495,"Ġdivision":9496,"Ġweak":9497,"Ġsubm":9498,"Ġcongesion":9499,"clined":9500,"Ġaggra":9501,"outside":9502,"Ġimplying":9503,"Ġimplies":9504,"aphy":9505,"llular":9506,"pers":9507,"Ġjunct":9508,"Ġairtrapping":9509,"Ġairspaces":9510,"novial":9511,"clude":9512,"diaphragms":9513,"Ġrefel":9514,"Ġrecrud":9515,"Ġsignal":9516,"opharyngeal":9517,"Ġstoma":9518,"Ġaorto":9519,"urbed":9520,"Ġcalcif":9521,"Ġcalculi":9522,"Ġretrotracheal":9523,"Ġretropulsion":9524,"Ġspring":9525,"Ġspoke":9526,"cardiophrenic":9527,"soid":9528,"Ġscaff":9529,"Ġasses":9530,"Ġparathyroid":9531,"external":9532,"Ġsimulated":9533,"Ġsurround":9534,"Ġacid":9535,"Ġpace":9536,"Ġteh":9537,"Ġdiseases":9538,"Ġfreely":9539,"Ġintratracheal":9540,"Ġintragastric":9541,"Ġarc":9542,"Ġdiffering":9543,"elchair":9544,"mend":9545,"Ġfluids":9546,"infar":9547,"Ġundertaken":9548,"Ġperiosteal":9549,"Ġsupposed":9550,"organ":9551,"Ġhill":9552,"Ġreloc":9553,"Ġcontinuity":9554,"Ġovertly":9555,"Ġapproximates":9556,"Ġapproximating":9557,"Ġapproximatively":9558,"Ġsuperimposing":9559,"Ġcorrection":9560,"Ġ44":9561,"Ġdesire":9562,"Ġdesaturation":9563,"Ġconfusing":9564,"Ġcurl":9565,"Ġlessened":9566,"loyed":9567,"Ġpacers":9568,"Ġcrown":9569,"Ġpigtails":9570,"Ġmultifocality":9571,"ticularly":9572,"Ġtransit":9573,"Ġtransposition":9574,"Ġtransmits":9575,"dicial":9576,"Ġnonacute":9577,"Ġnonresolving":9578,"Ġnonhemorrhagic":9579,"Ġsemis":9580,"Ġswe":9581,"Ġminus":9582,"Ġhardly":9583,"Ġshiel":9584,"compression":9585,"Ġinvading":9586,"Ġinvoluted":9587,"Ġfibrill":9588,"Ġinferomedially":9589,"Ġindistinctly":9590,"atorily":9591,"pling":9592,"Ġneu":9593,"Ġentired":9594,"Ġ75":9595,"Ġgastrectomy":9596,"Ġpaging":9597,"Ġpaget":9598,"Ġserve":9599,"Ġexploration":9600,"Ġrightwards":9601,"question":9602,"Ġempt":9603,"Ġprospective":9604,"Ġoffset":9605,"Ġdifferentials":9606,"Ġsynovial":9607,"Ġinjection":9608,"Ġoriginate":9609,"Ġoriginated":9610,"Ġfundopl":9611,"Ġcontrary":9612,"Ġsupracardiac":9613,"sheath":9614,"Ġhematomas":9615,"Ġdisplacements":9616,"Ġdelineating":9617,"Ġrate":9618,"Ġplasty":9619,"Ġinsertions":9620,"Ġhypoxic":9621,"Ġhypovolemia":9622,"obi":9623,"oscopically":9624,"Ġmorbid":9625,"Ġameli":9626,"cons":9627,"Ġaccumulate":9628,"multiple":9629,"Ġtranspedic":9630,"emergently":9631,"Ġpedicles":9632,"Ġregards":9633,"Ġthinning":9634,"Ġimplantation":9635,"incidental":9636,"Ġrequirem":9637,"Ġpageable":9638,"assessed":9639,".___,":9640,"infiltrates":9641,"Ġmeaning":9642,"Ġsave":9643,"Ġclarity":9644,"Ġechocardiographic":9645,"Ġreticulo":9646,"Ġdysplasia":9647,"Ġorganization":9648,"Ġparaaortic":9649,"Ġhomogeneously":9650,"Ġpacks":9651,"Ġligation":9652,"Ġepiglot":9653,"Ġfacet":9654,"Ġdeposited":9655,"Ġasthmatic":9656,"Ġellipsoid":9657,"Ġacceleration":9658,"Ġhepatoce":9659,"Ġpseudotumor":9660,"Ġjejunal":9661,"Ġclusters":9662,"Ġfemur":9663,"partial":9664,"particularly":9665,"Ġeasy":9666,"Ġeasier":9667,"Ġbifid":9668,"Ġreflections":9669,"Ġcompensatorily":9670,"Ġ(___),":9671,"Ġfungus":9672,"Ġobliterans":9673,"Ġcrest":9674,"Ġnephroureteral":9675,"Ġmatched":9676,"Ġosteoarthritic":9677,"Ġcreated":9678,"Ġneurolog":9679,"Ġencoura":9680,"Ġsurvey":9681,"Ġmeniscoid":9682,"Ġinstructed":9683,"dgement":9684,"Ġnineth":9685,"Ġsuctioning":9686,"Ġoccasions":9687,"Ġtears":9688,"Ġtranslucent":9689,"developed":9690,"Ġtolerated":9691,"Ġhairpin":9692,"Ġmammilation":9693,"Ġrectal":9694,"Ġperifocal":9695,"Ġbreakage":9696,"Ġassymetry":9697,"Ġmicrocalcifications":9698,"Ġjustification":9699,"Ġcompromising":9700,"Ġmesenteric":9701,"Ġrecons":9702,"Ġtight":9703,"Ġdistraction":9704,"Ġinhaled":9705,"Ġreoccurred":9706,"Ġpreventing":9707,"Ġapplied":9708,"Ġtendonitis":9709,"Ġaspergilloma":9710,"Ġsepta":9711,"Ġitems":9712,"Ġpneu":9713,"Ġpnemothorax":9714,"Ġexcessively":9715,"Ġsuddenly":9716,"Ġdislodgement":9717,"Ġinfluence":9718,"Ġcentering":9719,"Ġconnections":9720,"Ġsillouhette":9721,"Ġsquare":9722,"Ġfoal":9723,"Ġforesh":9724,"Ġloading":9725,"Ġwheelchair":9726,"Ġslighlty":9727,"Ġcomplicates":9728,"Ġspeaking":9729,"Ġtrend":9730,"Ġrender":9731,"Ġintralobular":9732,"Ġformally":9733,"Ġproceed":9734,"Ġdiastasis":9735,"Ġdiastolic":9736,"Ġpolyangi":9737,"Ġlaminectomy":9738,"Ġnamely":9739,"Ġattests":9740,"Ġmoderatly":9741,"Ġhypodense":9742,"Ġelucidate":9743,"Ġsteroids":9744,"accumulated":9745,"Ġbalanced":9746,"Ġfudicial":9747,"Ġprevios":9748,"Ġdiscriminate":9749,"Ġdisproportionate":9750,"Ġanomalous":9751,"Ġdubious":9752,"Ġinconsistent":9753,"Ġobese":9754,"Ġintramural":9755,"Ġillustrated":9756,"Ġcrackles":9757,"Ġbuckshot":9758,"Ġornamentation":9759,"Ġconstrictive":9760,"Ġfront":9761,"Ġhemorrahge":9762,"bronchiectasis":9763,"Ġtributaries":9764,"rosthesis":9765,"Ġcharachterized":9766,"Ġclassic":9767,"examined":9768,"Ġadiposity":9769,"Ġtransfixing":9770,"Ġthroat":9771,"Ġsampling":9772,"Ġaneursym":9773,"Ġunrecogn":9774,"contusion":9775,"Ġpermeability":9776,"Ġentrapped":9777,"Ġbracheocephalic":9778,"unfolded":9779,"Ġhiatial":9780,"Ġhopes":9781,"Ġfoley":9782,"Ġfalsely":9783,"malignancy":9784,"cholecystectomy":9785,"Ġprolonged":9786,"Ġenviron":9787,"Ġencapsulated":9788,"Ġaggravated":9789,"Ġjuncture":9790,"Ġfibrillation":9791,"Ġfundoplication":9792,"Ġamelioration":9793,"Ġhepatocellular":9794,"Ġforeshor":9795,"Ġpolyangiitis":9796,",?":9797,"17":9798,"30":9799,"amen":9800,"bs":9801,"bul":9802,"bly":9803,"base":9804,"border":9805,"bile":9806,"bacterial":9807,"call":9808,"came":9809,"eon":9810,"ete":9811,"ece":9812,"fr":9813,"fill":9814,"frame":9815,"gragm":9816,"gam":9817,"hen":9818,"hema":9819,"hist":9820,"here":9821,"ipper":9822,"just":9823,"lar":9824,"lph":9825,"lme":9826,"lidation":9827,"my":9828,"mor":9829,"na":9830,"ni":9831,"pal":9832,"pet":9833,"rs":9834,"sor":9835,"uclear":9836,"uished":9837,"urative":9838,"wo":9839,"yl":9840,"Ġum":9841,"thac":9842,"Ġavi":9843,"Ġaler":9844,"onas":9845,"rex":9846,"repositioning":9847,"rehen":9848,"Ġpes":9849,"Ġpare":9850,"Ġpop":9851,"Ġpure":9852,"Ġpins":9853,"arian":9854,"leb":9855,"leak":9856,"iseg":9857,"orac":9858,"orso":9859,"tili":9860,"tity":9861,"Ġnj":9862,"Ġniss":9863,"Ġnuclear":9864,"enerative":9865,"Ġls":9866,"Ġlist":9867,"Ġlysis":9868,"Ġlpo":9869,"Ġincre":9870,"Ġeft":9871,"Ġmall":9872,"Ġmand":9873,"riel":9874,"Ġbring":9875,"Ġbanding":9876,"Ġbiseg":9877,"usting":9878,"Ġwron":9879,"Ġwoman":9880,"diaph":9881,"dilection":9882,"omach":9883,"omonas":9884,"umed":9885,"umors":9886,"Ġtl":9887,"Ġtrial":9888,"Ġtouching":9889,"Ġtumors":9890,"ane":9891,"Ġhar":9892,"Ġhence":9893,"Ġhope":9894,"Ġhcc":9895,"Ġfast":9896,"Ġfain":9897,"Ġframe":9898,"icema":9899,"Ġrig":9900,"Ġconern":9901,"Ġrightsided":9902,"Ġdw":9903,"Ġder":9904,"Ġdup":9905,"Ġdrop":9906,"Ġdressing":9907,"roke":9908,"Ġpleru":9909,"Ġrew":9910,"Ġrecur":9911,"Ġretains":9912,"Ġchart":9913,"olation":9914,"olds":9915,"ctation":9916,"emas":9917,"Ġlodged":9918,"axillary":9919,"axilla":9920,"Ġstress":9921,"Ġstroke":9922,"Ġoropharyngeal":9923,"anges":9924,"angement":9925,"ching":9926,"chron":9927,"osa":9928,"oske":9929,"Ġunchn":9930,"Ġunchange":9931,"ceeding":9932,"Ġcomm":9933,"Ġcommented":9934,"Ġbecame":9935,"Ġconstitution":9936,"Ġ___\"":9937,"Ġ___),":9938,"Ġcomprehen":9939,"Ġopaci":9940,"Ġdelete":9941,"Ġdecending":9942,"cual":9943,"Ġprol":9944,"Ġatelectas":9945,"atin":9946,"Ġask":9947,"Ġascer":9948,"Ġconsolidaiton":9949,"ocative":9950,"Ġtub":9951,"ogonal":9952,"Ġposter":9953,"Ġonto":9954,"oprosthesis":9955,"Ġbasically":9956,"Ġbasilic":9957,"Ġray":9958,"Ġrati":9959,"Ġpneumoniae":9960,"Ġmobile":9961,"Ġevocative":9962,"atial":9963,"Ġradiogr":9964,"Ġinterbody":9965,"Ġupp":9966,"Ġups":9967,"Ġutili":9968,"crease":9969,"Ġlaterality":9970,"Ġpredilection":9971,"Ġbilaterality":9972,"lighted":9973,"Ġimbed":9974,"tiplic":9975,"Ġforamen":9976,"Ġalters":9977,"Ġcadi":9978,"Ġdisorgan":9979,"Ġdiag":9980,"ured":9981,"Ġweb":9982,"Ġwhy":9983,"Ġsubs":9984,"Ġsubjective":9985,"Ġmidlevel":9986,"Ġinfrac":9987,"tifact":9988,"Ġcomparative":9989,"Ġagree":9990,"Ġimper":9991,"Ġimpair":9992,"Ġimpending":9993,"Ġendoprosthesis":9994,"Ġ___,,":9995,"lace":9996,"ronically":9997,"Ġrepro":9998,"Ġjp":9999,"gns":10000,"Ġobjective":10001,"Ġsugg":10002,"Ġhamm":10003,"Ġadmitted":10004,"Ġapprox":10005,"omyomatosis":10006,"Ġdeflated":10007,"Ġretroperitoneum":10008,"Ġretrocardial":10009,"Ġspare":10010,"Ġsplayed":10011,"Ġsparse":10012,"Ġscant":10013,"Ġpostpyloric":10014,"Ġpostthoracotomy":10015,"Ġpostpartum":10016,"gesting":10017,"reexpansion":10018,"Ġboarder":10019,"quarter":10020,"Ġmultiplic":10021,"Ġpacu":10022,"ystic":10023,"Ġatriobi":10024,"Ġarr":10025,"Ġarise":10026,"Ġarrh":10027,"Ġworsens":10028,"Ġlining":10029,"Ġhypertensive":10030,"Ġverses":10031,"mentectomy":10032,"psed":10033,"Ġrecommed":10034,"Ġunderstand":10035,"Ġgroin":10036,"Ġsuppression":10037,"Ġsuppurative":10038,"Ġnowhere":10039,"ails":10040,"Ġaccident":10041,"Ġclipping":10042,"Ġcold":10043,"Ġcolitis":10044,"Ġrelay":10045,"Ġtracheoplasty":10046,"Ġbasalar":10047,"Ġroute":10048,"cences":10049,"moth":10050,"Ġ46":10051,"Ġcompatibility":10052,"Ġconfounded":10053,"Ġresidue":10054,"Ġenterostomy":10055,"Ġinfiltrated":10056,"placement":10057,"tood":10058,"Ġinstal":10059,"Ġinsterstitial":10060,"Ġwidens":10061,"Ġdot":10062,"Ġdisplace":10063,"Ġvetebral":10064,"Ġveiw":10065,"Ġoutlined":10066,"lobe":10067,"lobectomy":10068,"Ġ50":10069,"Ġ57":10070,"Ġ500":10071,"pseud":10072,"Ġnodularities":10073,"Ġzipper":10074,"Ġfilament":10075,"upine":10076,"Ġcoun":10077,"Ġafterwards":10078,"Ġsupras":10079,"Ġsecondarily":10080,"Ġmets":10081,"Ġtimed":10082,"Ġtimeframe":10083,"stomach":10084,"Ġaccompany":10085,"Ġminnes":10086,"suspected":10087,"Ġnecklace":10088,"Ġinvolute":10089,"Ġmedialization":10090,"Ġtwice":10091,"week":10092,"Ġmultilobular":10093,"Ġexager":10094,"views":10095,"Ġhighlighted":10096,"risk":10097,"Ġ80":10098,"Ġ84":10099,"Ġconfigurations":10100,"Ġcommunity":10101,"Ġtram":10102,"Ġtrabe":10103,"Ġbowels":10104,"Ġheaded":10105,"Ġoptic":10106,"Ġopened":10107,"Ġavulsion":10108,"Ġbending":10109,"Ġazygoesophageal":10110,"Ġdictate":10111,"Ġcorrespondence":10112,"Ġincision":10113,"Ġeffu":10114,"Ġeffaces":10115,"iability":10116,"termost":10117,"Ġforearm":10118,"Ġpathcy":10119,"Ġbiv":10120,"Ġbipolar":10121,"pleuro":10122,"Ġinsert":10123,"Ġirri":10124,"Ġconspicious":10125,"Ġartificially":10126,"Ġeventual":10127,"Ġorigins":10128,"rylate":10129,"Ġapproached":10130,"ordotic":10131,"Ġcoarctation":10132,"Ġcolonoscopy":10133,"Ġmateriel":10134,"Ġdetector":10135,"Ġshunts":10136,"shell":10137,"portable":10138,"location":10139,"Ġrcc":10140,"Ġplural":10141,"medial":10142,"Ġhypochond":10143,"Ġduo":10144,"progres":10145,"Ġvariability":10146,"otherwise":10147,"Ġpyogenic":10148,"Ġmucosal":10149,"dislocation":10150,"Ġtends":10151,"ota":10152,"cavitary":10153,"Ġcalls":10154,"Ġrepairs":10155,"Ġcpa":10156,"oplasties":10157,"artomas":10158,"Ġseparating":10159,"apped":10160,"apparent":10161,"esophagectomy":10162,"Ġelectronically":10163,"Ġplueral":10164,"Ġwetness":10165,"Ġinformative":10166,"Ġcircumference":10167,"Ġpellets":10168,"Ġmorphologically":10169,"Ġaffor":10170,"Ġsecretion":10171,"Ġovarian":10172,"Ġmeet":10173,"Ġmethy":10174,"Ġmeets":10175,"Ġdiagnosable":10176,"Ġprecip":10177,"vealing":10178,"Ġclarifying":10179,"trauma":10180,"Ġattempting":10181,"Ġradiopacities":10182,"Ġdistinguished":10183,"Ġbridge":10184,"Ġorganism":10185,"Ġdistinguishable":10186,"Ġepihilar":10187,"Ġstrikingly":10188,"Ġorthogonal":10189,"Ġneglig":10190,"Ġsays":10191,"Ġgeneralize":10192,"Ġsizing":10193,"Ġairlessness":10194,"Ġfibrocalcific":10195,"Ġdominating":10196,"Ġcarotids":10197,"Ġeccentric":10198,"Ġpseudomonas":10199,"Ġurge":10200,"Ġurged":10201,"Ġphysiological":10202,"Ġclosed":10203,"Ġoutermost":10204,"Ġstenotic":10205,"Ġadjusting":10206,"Ġintensity":10207,"ropath":10208,"Ġosteochondroma":10209,"Ġsubcorac":10210,"Ġpseudoarth":10211,"opathies":10212,"Ġ//":10213,"graph":10214,"Ġleakage":10215,"Ġsteps":10216,"hyper":10217,"Ġmicronodularity":10218,"Ġaspirate":10219,"partially":10220,"paramediastinal":10221,"Ġfluoroscopically":10222,"Ġreaccumulate":10223,"Ġevacuate":10224,"Ġsupraaortic":10225,"Ġknees":10226,"Ġpericardiotomy":10227,"Ġbrachytherapy":10228,"Ġductal":10229,"Ġlends":10230,"Ġsometime":10231,"Ġoptimum":10232,"Ġcreate":10233,"Ġcreation":10234,"Ġlaparoscopy":10235,"Ġidentity":10236,"Ġsubtotally":10237,"Ġpractice":10238,"Ġmechanism":10239,"Ġbraid":10240,"Ġbelieved":10241,"Ġguide":10242,"Ġcrescenteric":10243,"pelvic":10244,"herent":10245,"Ġputting":10246,"Ġcompromises":10247,"Ġinadvertently":10248,"cription":10249,"Ġpiece":10250,"Ġvisibly":10251,"blunting":10252,"Ġtilting":10253,"Ġpredisposition":10254,"Ġstepoff":10255,"Ġexpense":10256,"Ġtib":10257,"Ġcementoplasty":10258,"Ġmyocardium":10259,"Ġinstruments":10260,"Ġlamin":10261,"tracheostomy":10262,"Ġflap":10263,"Ġflame":10264,"Ġleave":10265,"Ġpreclude":10266,"Ġeliminate":10267,"Ġhematology":10268,"Ġreconstructive":10269,"Ġeversion":10270,"Ġmaximally":10271,"Ġseizures":10272,"Ġhamartomas":10273,"Ġspontaneously":10274,"Ġconglomeration":10275,"Ġpnemonia":10276,"Ġumbil":10277,"Ġdeteriorated":10278,"Ġcorrobor":10279,"Ġfixating":10280,"Ġprotrusion":10281,"Ġaaa":10282,"Ġdisorders":10283,"Ġequalization":10284,"Ġconceals":10285,"Ġcollar":10286,"Ġdisconnection":10287,"diagnosed":10288,"Ġcardiopulmon":10289,"Ġchiladiti":10290,"Ġunderstood":10291,"Ġprofoundly":10292,"Ġvacated":10293,"Ġproceeds":10294,"Ġatelecatasis":10295,"Ġmoderated":10296,"Ġincorrectly":10297,"Ġsyndesmophyte":10298,"Ġelucidated":10299,"degenerative":10300,"Ġlaboratory":10301,"improvement":10302,"Ġpatches":10303,"accumulating":10304,"Ġbalance":10305,"Ġfuther":10306,"Ġbutton":10307,"Ġzenkers":10308,"Ġlymphadenop":10309,"Ġlymphadenopathies":10310,"Ġsmokers":10311,"uliar":10312,"Ġanomalies":10313,"Ġhook":10314,"Ġreverted":10315,"Ġreversible":10316,"Ġexertion":10317,"Ġretrospectively":10318,"Ġdrooping":10319,"Ġrarely":10320,"Ġperiods":10321,"Ġintentional":10322,"suggestive":10323,"Ġcardiopulmoanry":10324,"ythm":10325,"Ġpeculiar":10326,"Ġincompetence":10327,"Ġwatching":10328,"Ġfascia":10329,"Ġvoicema":10330,"Ġunrevealing":10331,"Ġasymetric":10332,"Ġexhibit":10333,"Ġgentleman":10334,"Ġhypertranslucent":10335,"Ġauto":10336,"oradi":10337,"Ġstamped":10338,"Ġexluded":10339,"Ġindenting":10340,"oblique":10341,"Ġosteoporosis":10342,"Ġseemingly":10343,"Ġmusculoske":10344,"Ġarguing":10345,"Ġmutli":10346,"Ġbasoapical":10347,"Ġcaudally":10348,"pericardiotomy":10349,"Ġthreshold":10350,"Ġmammoth":10351,"Ġanesthesia":10352,"Ġconcord":10353,"Ġprotocol":10354,"Ġdisrobed":10355,"Ġweakness":10356,"Ġrefelct":10357,"Ġrecrudes":10358,"Ġsemisupine":10359,"Ġminuscule":10360,"Ġentiredly":10361,"Ġemptying":10362,"Ġtranspedicular":10363,"Ġepiglottitis":10364,"Ġunrecognized":10365,"Ġenvironmental":10366,"borderline":10367,"fract":10368,"history":10369,"lmethac":10370,"Ġnissen":10371,"Ġmandatory":10372,"Ġbisegmentectomy":10373,"Ġwrong":10374,"Ġfainter":10375,"Ġduplicated":10376,"Ġplerual":10377,"Ġcomprehensive":10378,"Ġascertained":10379,"Ġutilizing":10380,"Ġimbedded":10381,"Ġhammer":10382,"Ġmultiplicity":10383,"Ġatriobiventricular":10384,"Ġminnesota":10385,"pleurodesis":10386,"Ġhypochondriac":10387,"Ġmethylmethac":10388,"Ġnegligible":10389,"Ġsubcoracoid":10390,"Ġpseudoarthrosis":10391,"Ġvoicemail":10392,"Ġmusculoskeletal":10393,"Ġmethylmethacrylate":10394,"./":10395,"/___":10396,"13":10397,"??":10398,"abe":10399,"bon":10400,"big":10401,"cation":10402,"cortic":10403,"cial":10404,"centu":10405,"cover":10406,"clip":10407,"cope":10408,"dual":10409,"dating":10410,"eu":10411,"een":10412,"ever":10413,"four":10414,"free":10415,"from":10416,"finding":10417,"go":10418,"gate":10419,"gement":10420,"gshell":10421,"hn":10422,"has":10423,"ie":10424,"iro":10425,"jp":10426,"ks":10427,"lf":10428,"lad":10429,"mediastin":10430,"met":10431,"may":10432,"micu":10433,"nary":10434,"niotic":10435,"ox":10436,"oly":10437,"oax":10438,"oir":10439,"ount":10440,"opacities":10441,"pore":10442,"pression":10443,"rn":10444,"rt":10445,"rin":10446,"rise":10447,"ser":10448,"sarcoid":10449,"sicu":10450,"tiss":10451,"torso":10452,"utes":10453,"vo":10454,"var":10455,"vessel":10456,"zones":10457,"Ġ]":10458,"Ġic":10459,"Ġ**":10460,"that":10461,"Ġaor":10462,"Ġaim":10463,"Ġaction":10464,"inion":10465,"increase":10466,"Ġthre":10467,"Ġpjp":10468,"Ġcul":10469,"Ġcow":10470,"Ġcentesis":10471,"arp":10472,"arment":10473,"arcer":10474,"Ġsid":10475,"Ġsch":10476,"Ġsbo":10477,"Ġsought":10478,"Ġstead":10479,"oroid":10480,"orrow":10481,"orpore":10482,"tih":10483,"enia":10484,"asth":10485,"asal":10486,"ased":10487,"asix":10488,"Ġlun":10489,"Ġlax":10490,"Ġisn":10491,"Ġnose":10492,"ert":10493,"Ġinterior":10494,"Ġinward":10495,"Ġinert":10496,"Ġej":10497,"Ġmar":10498,"Ġmegaly":10499,"rix":10500,"rieval":10501,"acco":10502,"Ġbib":10503,"Ġbuckle":10504,"Ġbinder":10505,"Ġbears":10506,"unless":10507,"ilunar":10508,"Ġwtih":10509,"diffuse":10510,"digns":10511,"omed":10512,"ometry":10513,"Ġante":10514,"Ġtro":10515,"Ġtand":10516,"Ġtapped":10517,"anticipated":10518,"ghb":10519,"atelect":10520,"Ġhold":10521,"Ġhug":10522,"Ġhumoral":10523,"Ġfro":10524,"Ġrigh":10525,"Ġconven":10526,"inger":10527,"net":10528,"neuro":10529,"Ġwit":10530,"Ġdh":10531,"Ġdx":10532,"Ġdri":10533,"Ġdanger":10534,"Ġdht":10535,"Ġva":10536,"Ġves":10537,"Ġvocal":10538,"Ġvad":10539,"Ġlet":10540,"rose":10541,"roach":10542,"rocal":10543,"Ġplex":10544,"Ġreen":10545,"Ġreinflation":10546,"Ġreexpand":10547,"Ġreception":10548,"monary":10549,"Ġcardiology":10550,"fts":10551,"Ġchylo":10552,"Ġchoroid":10553,"Ġtoe":10554,"itting":10555,"Ġstre":10556,"Ġstasis":10557,"Ġstay":10558,"Ġstring":10559,"Ġstating":10560,"Ġpneumocon":10561,"angitic":10562,"phas":10563,"phic":10564,"phag":10565,"phragm":10566,"pharynx":10567,"osing":10568,"Ġunin":10569,"Ġundist":10570,"Ġunsure":10571,"Ġundra":10572,"Ġunsh":10573,"Ġundisplaced":10574,"Ġuntre":10575,"Ġunrespon":10576,"Ġundiagnosed":10577,"Ġunanticipated":10578,"bered":10579,"estard":10580,"pacification":10581,"veci":10582,"Ġcomes":10583,"Ġconsent":10584,"Ġconsisten":10585,"Ġconslidation":10586,"imb":10587,"import":10588,"Ġcompounded":10589,"Ġdeci":10590,"Ġdetract":10591,"cuitous":10592,"Ġprop":10593,"Ġprotrac":10594,"Ġlowre":10595,"Ġatelet":10596,"Ġsihouet":10597,"atz":10598,"aton":10599,"atley":10600,"Ġasc":10601,"hour":10602,"Ġedme":10603,"Ġexostosis":10604,"ococ":10605,"iad":10606,"Ġcontoured":10607,"aine":10608,"verage":10609,"versus":10610,"Ġbasil":10611,"Ġbasiliar":10612,"ession":10613,"Ġfrac":10614,"Ġradigraph":10615,"tenance":10616,"itiy":10617,"Ġintercurrent":10618,"crete":10619,"Ġuter":10620,"Ġuper":10621,"sequent":10622,"Ġlateralized":10623,"Ġlateralizing":10624,"viated":10625,"Ġprepon":10626,"Ġpreceeding":10627,"Ġpredating":10628,"ineated":10629,"lied":10630,"liance":10631,"Ġoverlo":10632,"Ġforce":10633,"Ġalter":10634,"Ġcad":10635,"Ġger":10636,"Ġgarment":10637,"Ġdisce":10638,"Ġdisuse":10639,"Ġdispal":10640,"Ġperim":10641,"Ġdig":10642,"Ġapn":10643,"agul":10644,"Ġsubsc":10645,"Ġsubclavicular":10646,"Ġsubcaps":10647,"Ġsubacrom":10648,"Ġmidpoint":10649,"minutes":10650,"Ġinforadi":10651,"tified":10652,"remia":10653,"Ġcomparably":10654,"Ġunremak":10655,"Ġhemost":10656,"Ġendoscopy":10657,"Ġrepaired":10658,"Ġjoining":10659,"Ġjiro":10660,"Ġcathter":10661,"Ġlinea":10662,"Ġresto":10663,"Ġreserv":10664,"six":10665,"Ġreform":10666,"Ġpersisten":10667,"Ġpages":10668,"Ġclou":10669,"Ġclock":10670,"Ġclimb":10671,"Ġfind":10672,"Ġfindigns":10673,"Ġsigned":10674,"Ġsignifies":10675,"Ġdeficient":10676,"Ġspatial":10677,"Ġendoleak":10678,"Ġpostbiopsy":10679,"Ġcari":10680,"Ġcart":10681,"Ġclinicians":10682,"lucency":10683,"Ġbox":10684,"Ġbounded":10685,"Ġparad":10686,"Ġparagraph":10687,"izer":10688,"expiratory":10689,"Ġsuperposition":10690,"Ġcanula":10691,"Ġkind":10692,"Ġtech":10693,"Ġprobability":10694,"Ġintrabronchial":10695,"labe":10696,"Ġproviding":10697,"Ġcords":10698,"Ġ34":10699,"Ġ38":10700,"mentioned":10701,"Ġwashou":10702,"Ġrecommened":10703,"Ġetc":10704,"Ġunderling":10705,"Ġsetup":10706,"andrant":10707,"Ġperilesion":10708,"orgement":10709,"Ġlocul":10710,"Ġlocating":10711,"Ġpressed":10712,"Ġinternally":10713,"Ġight":10714,"Ġevaluable":10715,"Ġcollateral":10716,"Ġtracheomegaly":10717,"Ġsurgeon":10718,"Ġblo":10719,"Ġsuperimpose":10720,"Ġdiscitis":10721,"Ġ47":10722,"Ġdescent":10723,"Ġadvise":10724,"mming":10725,"Ġquandrant":10726,"Ġtechnician":10727,"Ġ53":10728,"Ġcrowds":10729,"Ġcombinations":10730,"Ġoverloaded":10731,"Ġcoordin":10732,"timates":10733,"Ġbackboard":10734,"Ġlymphovascular":10735,"Ġfulfill":10736,"Ġrotatory":10737,"Ġtransvers":10738,"Ġtranscription":10739,"Ġdiscussing":10740,"Ġvalues":10741,"Ġdoboff":10742,"picuous":10743,"Ġfissue":10744,"Ġnonactive":10745,"Ġnoncharacteristic":10746,"Ġnonunited":10747,"Ġnoninfectious":10748,"Ġnontuberculous":10749,"come":10750,"Ġtodays":10751,"Ġsemilunar":10752,"Ġ63":10753,"Ġ66":10754,"Ġ..":10755,"Ġpresumable":10756,"fully":10757,"Ġmaintenance":10758,"Ġlingering":10759,"well":10760,"Ġindented":10761,"Ġindents":10762,"Ġcausative":10763,"ators":10764,"platz":10765,"Ġmalplaced":10766,"erexposed":10767,"Ġunfused":10768,"pirator":10769,"Ġhighest":10770,"Ġillicit":10771,"Ġapico":10772,"Ġtraject":10773,"Ġ74":10774,"Ġreferral":10775,"Ġ90":10776,"Ġgoal":10777,"Ġopinion":10778,"Ġyou":10779,"Ġyestard":10780,"Ġavail":10781,"Ġgenerous":10782,"Ġdefines":10783,"Ġdefintie":10784,"demonstrate":10785,"Ġlumb":10786,"Ġmasqu":10787,"Ġlocalizer":10788,"Ġincarcer":10789,"Ġemp":10790,"Ġefffusion":10791,"Ġbihilar":10792,"Ġmaneu":10793,"Ġmanometry":10794,"Ġquestionably":10795,"Ġarterios":10796,"Ġsulcal":10797,"Ġsym":10798,"pneumonic":10799,"Ġdextropositioning":10800,"Ġfundal":10801,"Ġkyphoplasties":10802,"Ġremotely":10803,"Ġwarts":10804,"shape":10805,"Ġalternate":10806,"Ġparamediastinum":10807,"Ġplaying":10808,"Ġsubpulmonary":10809,"Ġrecurrently":10810,"Ġfewer":10811,"Ġruq":10812,"Ġstriated":10813,"Ġhypotensive":10814,"obed":10815,"Ġinitiating":10816,"Ġresponsive":10817,"proven":10818,"Ġfarther":10819,"Ġvaries":10820,"Ġtracts":10821,"Ġcircuitous":10822,"Ġaml":10823,"Ġample":10824,"Ġamylo":10825,"Ġamniotic":10826,"Ġamplatz":10827,"Ġpyopneumothorax":10828,"confir":10829,"otrex":10830,"Ġwindows":10831,"Ġwindowing":10832,"boemb":10833,"multifocal":10834,"Ġsterni":10835,"Ġstimulating":10836,"central":10837,"Ġcostochond":10838,"Ġmanifests":10839,"-___.":10840,"pretable":10841,"cinosis":10842,"Ġregardless":10843,"Ġthinner":10844,"Ġinterpreting":10845,"Ġretrieval":10846,"Ġscreen":10847,"Ġtotality":10848,"Ġradiologically":10849,"Ġmorphologies":10850,"Ġdeployed":10851,"Ġneighb":10852,"Ġsepticemia":10853,"Ġbilobed":10854,"Ġvsd":10855,"Ġmigrating":10856,"Ġhalfway":10857,"Ġofficial":10858,"Ġnasojejunal":10859,"Ġcells":10860,"Ġsuffering":10861,"Ġsaw":10862,"Ġpuncture":10863,"Ġdistinctness":10864,"Ġtempted":10865,"Ġsmoked":10866,"Ġhorner":10867,"Ġbenignity":10868,"Ġdysphag":10869,"istically":10870,"Ġepipharynx":10871,"Ġhands":10872,"rugger":10873,"Ġobtainable":10874,"Ġdrugs":10875,"Ġvirtual":10876,"Ġcva":10877,"Ġurgency":10878,"Ġ___%.":10879,"gedly":10880,"Ġbatwing":10881,"Ġconnecting":10882,"tream":10883,"cystic":10884,"Ġdepressions":10885,"Ġlongitudin":10886,"Ġstemming":10887,"Ġskinfolds":10888,"Ġcapable":10889,"Ġofficers":10890,"Ġpancreas":10891,"Ġcontacting":10892,"Ġeggshell":10893,"Ġadenoma":10894,"years":10895,"Ġdirections":10896,"Ġquantities":10897,"Ġmaturation":10898,"Ġmatrix":10899,"Ġmeandering":10900,"ilicus":10901,"Ġunderexposed":10902,"Ġoptimize":10903,"Ġbroadly":10904,"hemo":10905,"Ġneurosurgery":10906,"Ġaddress":10907,"Ġ300":10908,"Ġencases":10909,"Ġencroach":10910,"cussed":10911,"Ġlobulations":10912,"Ġtranslucencies":10913,"Ġcapsular":10914,"Ġthromboemb":10915,"Ġinadvertant":10916,"Ġrectum":10917,"Ġsections":10918,"Ġunderestimates":10919,"Ġbileaf":10920,"Ġopportunity":10921,"bronchitis":10922,"pah":10923,"Ġputs":10924,"Ġmorgani":10925,"Ġtransplantation":10926,"Ġpiriform":10927,"Ġtilt":10928,"subsequent":10929,"Ġsurprised":10930,"Ġpermitting":10931,"Ġestablishing":10932,"Ġexplo":10933,"Ġexpression":10934,"Ġdiverticulitis":10935,"Ġureter":10936,"Ġfistul":10937,"Ġemphasize":10938,"Ġemphasizing":10939,"delineated":10940,"Ġrhythm":10941,"Ġstatistically":10942,"Ġelimination":10943,"Ġsyncope":10944,"formed":10945,"Ġmotor":10946,"minimally":10947,"Ġbicameral":10948,"Ġtherm":10949,"Ġreversing":10950,"Ġlabel":10951,"Ġumbilicus":10952,"Ġinversion":10953,"Ġchondral":10954,"Ġchondrocal":10955,"Ġmislabe":10956,"Ġblurs":10957,"Ġblurry":10958,"Ġpulmonology":10959,"Ġmacro":10960,"Ġtachypnea":10961,"Ġopacitites":10962,"Ġatelecasis":10963,"Ġcoexist":10964,"Ġextravasated":10965,"Ġcopy":10966,"nodule":10967,"Ġparticle":10968,"marks":10969,"pneumonitis":10970,"osteomyelitis":10971,"Ġshortening":10972,"Ġshortened":10973,"Ġoccurs":10974,"Ġintestine":10975,"Ġproceeding":10976,"insertion":10977,"stenting":10978,"Ġextraction":10979,"Ġextracorpore":10980,"Ġhypodensity":10981,"Ġhypodensities":10982,"Ġinsufficiently":10983,"Ġprotrudes":10984,"pinatus":10985,"Ġtomorrow":10986,"Ġdisproportionately":10987,"Ġdubhoff":10988,"Ġiii":10989,"Ġinconspicuous":10990,"corre":10991,"volving":10992,"Ġconverted":10993,"Ġbelongs":10994,"Ġgau":10995,"Ġobesity":10996,"Ġintramuscular":10997,"Ġperiodic":10998,"Ġsupplemental":10999,"suggesting":11000,"Ġcardiopulm":11001,"ythmia":11002,"Ġwatched":11003,"Ġfascial":11004,"Ġvoice":11005,"Ġexhibits":11006,"Ġalleviated":11007,"Ġ(#___":11008,"Ġlymphangiographic":11009,"Ġischemia":11010,"Ġischemic":11011,"lymphadenopathy":11012,"Ġstarts":11013,"Ġposteriolateral":11014,"Ġtesting":11015,"Ġbronchioalveolar":11016,"Ġdrawn":11017,"deformity":11018,"poraneous":11019,"Ġcocaine":11020,"Ġankyl":11021,"Ġhomogenous":11022,"Ġveterbral":11023,"attempt":11024,"Ġaspirating":11025,"adjusted":11026,"clinical":11027,"Ġrecede":11028,"Ġabsorption":11029,"Ġdishiscences":11030,"Ġmethotrex":11031,"Ġfacilitate":11032,"Ġeverywhere":11033,"Ġexperienced":11034,"Ġencompassed":11035,"Ġcerebral":11036,"Ġlandmarks":11037,"Ġuninterpretable":11038,"Ġensuring":11039,"Ġinterrogation":11040,"persistent":11041,"Ġscaffold":11042,"infarction":11043,"Ġshielded":11044,"Ġneuropath":11045,"Ġprospectively":11046,"Ġrequirement":11047,"Ġneurology":11048,"Ġforeshortening":11049,"hematoma":11050,"lphone":11051,"morl":11052,"Ġrigid":11053,"chrond":11054,"Ġunchnaged":11055,"Ġproliferative":11056,"Ġupstream":11057,"Ġinfraclavicular":11058,"Ġarrhythmia":11059,"Ġsupraspinatus":11060,"Ġumbilical":11061,"Ġhooks":11062,"Ġmutliple":11063,"Ġconcordant":11064,"corticated":11065,"findings":11066,"mediastinoscopy":11067,"tissue":11068,"Ġ***":11069,"Ġschmorl":11070,"Ġlaxity":11071,"Ġtandem":11072,"atelectatic":11073,"Ġhugging":11074,"Ġfrozen":11075,"Ġchylothorax":11076,"Ġpneumoconi":11077,"Ġundisturbed":11078,"Ġundrained":11079,"Ġunsharp":11080,"Ġuntreated":11081,"important":11082,"Ġdecipher":11083,"Ġprotracted":11084,"Ġateletasis":11085,"Ġedmea":11086,"Ġpreponder":11087,"Ġsubscapular":11088,"Ġsubcapsular":11089,"Ġsubacromial":11090,"Ġinforadiology":11091,"Ġjiroveci":11092,"Ġrestored":11093,"Ġreservoir":11094,"Ġclockwise":11095,"Ġperilesional":11096,"Ġyestarday":11097,"Ġincarceration":11098,"Ġamyloid":11099,"Ġdysphagia":11100,"Ġthromboembolic":11101,"Ġbileaflet":11102,"Ġchondrocalcinosis":11103,"Ġextracorporeal":11104,"Ġmethotrexate":11105,"Ġneuropathic":11106,"\".":11107,"%)":11108,"34":11109,"35":11110,"60":11111,"aed":11112,"aps":11113,"apse":11114,"bal":11115,"bra":11116,"blo":11117,"bulated":11118,"bacco":11119,"cr":11120,"car":11121,"cli":11122,"could":11123,"cost":11124,"cond":11125,"cervical":11126,"corn":11127,"do":11128,"dation":11129,"dens":11130,"docum":11131,"etic":11132,"ease":11133,"eam":11134,"eving":11135,"evolving":11136,"fa":11137,"fly":11138,"fted":11139,"fici":11140,"flets":11141,"gas":11142,"gast":11143,"gged":11144,"hi":11145,"hic":11146,"homogeneous":11147,"ient":11148,"ivc":11149,"ilet":11150,"irable":11151,"idity":11152,"jury":11153,"jected":11154,"ld":11155,"love":11156,"loping":11157,"mate":11158,"mic":11159,"mature":11160,"mel":11161,"morph":11162,"non":11163,"nas":11164,"nding":11165,"nur":11166,"nominate":11167,"oar":11168,"ores":11169,"oval":11170,"oded":11171,"ody":11172,"odic":11173,"oaneurysm":11174,"obectomy":11175,"ojejunal":11176,"opacification":11177,"ped":11178,"pes":11179,"pent":11180,"pres":11181,"present":11182,"pad":11183,"plated":11184,"pathy":11185,"pouching":11186,"qe":11187,"tortu":11188,"tumor":11189,"tailed":11190,"uble":11191,"utic":11192,"vats":11193,"vanced":11194,"wa":11195,"wed":11196,"was":11197,"yn":11198,"yling":11199,"yseal":11200,"zes":11201,"zius":11202,"zoar":11203,"Ġ)":11204,"Ġ*":11205,"Ġ=":11206,"Ġion":11207,"Ġages":11208,"Ġajacent":11209,"Ġarot":11210,"Ġaverage":11211,"Ġawa":11212,"onse":11213,"onally":11214,"onitis":11215,"oncology":11216,"ince":11217,"inarily":11218,"injury":11219,"innominate":11220,"ref":11221,"review":11222,"Ġthigh":11223,"also":11224,"Ġpens":11225,"Ġcs":11226,"Ġcos":11227,"Ġcance":11228,"Ġcard":11229,"Ġcecal":11230,"arte":11231,"aran":11232,"arison":11233,"arded":11234,"aragraph":11235,"tesis":11236,"teremia":11237,"lest":11238,"Ġsg":11239,"Ġsn":11240,"Ġsph":11241,"Ġsaph":11242,"isen":11243,"isation":11244,"isible":11245,"orial":11246,"tian":11247,"tiges":11248,"tila":11249,"Ġna":11250,"Ġnc":11251,"Ġnid":11252,"Ġnails":11253,"eded":11254,"Ġoth":11255,"Ġove":11256,"Ġomin":11257,"Ġoment":11258,"Ġoap":11259,"Ġower":11260,"enic":11261,"enous":11262,"asilar":11263,"Ġlch":11264,"Ġlat":11265,"Ġlaryn":11266,"Ġlaryngeal":11267,"Ġlasix":11268,"eration":11269,"erading":11270,"ercosis":11271,"Ġinch":11272,"Ġinpatient":11273,"Ġineff":11274,"Ġinapparent":11275,"Ġef":11276,"Ġeth":11277,"Ġeffus":11278,"Ġequ":11279,"Ġmn":11280,"Ġmu":11281,"Ġmom":11282,"Ġmach":11283,"Ġmag":11284,"Ġmail":11285,"access":11286,"acquired":11287,"acinar":11288,"Ġbm":11289,"Ġbout":11290,"Ġbron":11291,"Ġbial":11292,"Ġbice":11293,"unc":11294,"Ġwant":11295,"Ġwise":11296,"Ġwrit":11297,"Ġwinding":11298,"Ġwane":11299,"dia":11300,"dit":11301,"directed":11302,"ditis":11303,"omic":11304,"omary":11305,"omonia":11306,"Ġanf":11307,"tioning":11308,"umonia":11309,"Ġtspine":11310,"Ġtpa":11311,"atearl":11312,"Ġhh":11313,"Ġhump":11314,"Ġhoff":11315,"Ġareseen":11316,"idng":11317,"Ġfen":11318,"Ġfish":11319,"Ġfamiliar":11320,"Ġfinger":11321,"ics":11322,"icameral":11323,"Ġconus":11324,"Ġconcurrence":11325,"near":11326,"Ġpneumectomy":11327,"ffused":11328,"Ġding":11329,"Ġdates":11330,"Ġdoph":11331,"Ġdress":11332,"Ġdbs":11333,"Ġveg":11334,"Ġwithe":11335,"Ġwithou":11336,"rounded":11337,"rotation":11338,"rax":11339,"rams":11340,"ouette":11341,"Ġreass":11342,"Ġredist":11343,"Ġredis":11344,"Ġretaining":11345,"Ġreaeration":11346,"Ġrebre":11347,"Ġcardiphrenic":11348,"ently":11349,"Ġchy":11350,"Ġchol":11351,"Ġchance":11352,"Ġchla":11353,"Ġchill":11354,"olding":11355,"olisthesis":11356,"Ġtoes":11357,"Ġtook":11358,"Ġtobacco":11359,"Ġtoilet":11360,"ctable":11361,"ctory":11362,"thora":11363,"Ġlogged":11364,"aximal":11365,"itable":11366,"itally":11367,"Ġstatic":11368,"Ġstayed":11369,"Ġstaphy":11370,"Ġpneumoretro":11371,"terclock":11372,"teromedially":11373,"terfly":11374,"Ġorally":11375,"Ġorogr":11376,"edias":11377,"ppy":11378,"pharyngeal":11379,"oster":11380,"ositis":11381,"Ġunicameral":11382,"earte":11383,"Ġselect":11384,"cet":11385,"Ġbean":11386,"Ġbegan":11387,"Ġbeha":11388,"Ġbezoar":11389,"Ġconstip":11390,"Ġconstra":11391,"Ġconsolation":11392,"___%)":11393,"image":11394,"impression":11395,"resia":11396,"rescence":11397,"residual":11398,"Ġcompu":11399,"Ġcompris":11400,"Ġcompliance":11401,"Ġdel":11402,"Ġdecl":11403,"cut":11404,"cuff":11405,"cured":11406,"cupy":11407,"Ġsuited":11408,"Ġsuitable":11409,"Ġprog":11410,"Ġprola":11411,"Ġproof":11412,"eting":11413,"etations":11414,"Ġatectasis":11415,"Ġatelecta":11416,"Ġatelectsis":11417,"Ġsihouette":11418,"Ġcardiome":11419,"Ġcardiomed":11420,"Ġcardiomedias":11421,"Ġatresia":11422,"ewall":11423,"atten":11424,"Ġenfor":11425,"Ġascen":11426,"Ġedeam":11427,"Ġextr":11428,"Ġexogenous":11429,"Ġappoint":11430,"Ġapposition":11431,"Ġapposed":11432,"Ġapplic":11433,"ociation":11434,"occupy":11435,"Ġpositon":11436,"versible":11437,"opy":11438,"Ġabn":11439,"Ġabuse":11440,"Ġmole":11441,"Ġmoves":11442,"Ġmobility":11443,"atio":11444,"aties":11445,"atible":11446,"udad":11447,"Ġradiogra":11448,"Ġsmallest":11449,"Ġcardiacmediastinal":11450,"Ġintertitial":11451,"segmental":11452,"second":11453,"Ġprev":11454,"Ġpreven":11455,"Ġpreprocedural":11456,"Ġpredescribed":11457,"Ġbilateraly":11458,"Ġappearant":11459,"Ġovercir":11460,"Ġoverpenetration":11461,"Ġoverpenetrated":11462,"trate":11463,"trub":11464,"track":11465,"arkably":11466,"Ġalth":11467,"Ġcame":11468,"Ġcaught":11469,"Ġgated":11470,"Ġgown":11471,"Ġdissected":11472,"Ġpercardial":11473,"aded":11474,"added":11475,"uting":11476,"Ġlipos":11477,"Ġliek":11478,"Ġdiath":11479,"Ġdieresis":11480,"Ġdiabe":11481,"Ġdiease":11482,"Ġdiffused":11483,"ibility":11484,"oulsy":11485,"Ġenlarges":11486,"Ġsubsided":11487,"Ġsubhilar":11488,"Ġsubstance":11489,"Ġsubtype":11490,"Ġsubpectoral":11491,"Ġsubdiaph":11492,"Ġmidhem":11493,"Ġmidchest":11494,"Ġmidabdomen":11495,"inii":11496,"Ġcomparision":11497,"iror":11498,"Ġaged":11499,"Ġ___.,":11500,"Ġlimite":11501,"Ġimply":11502,"Ġimposition":11503,"Ġimpart":11504,"aphysis":11505,"Ġhemomediastinum":11506,"Ġendarte":11507,"Ġosses":11508,"Ġostia":11509,"ostasis":11510,"performed":11511,"ichel":11512,"Ġreply":11513,"Ġrepos":11514,"Ġreprs":11515,"Ġjo":11516,"Ġsink":11517,"ruent":11518,"ticystic":11519,"noary":11520,"Ġshared":11521,"Ġresent":11522,"Ġresting":11523,"Ġreserve":11524,"Ġrespirator":11525,"Ġrefect":11526,"Ġperspective":11527,"Ġclam":11528,"Ġfinings":11529,"Ġadrenal":11530,"Ġaddit":11531,"omycin":11532,"omycosis":11533,"Ġaortal":11534,"Ġfracturing":11535,"Ġspect":11536,"Ġspinous":11537,"Ġspora":11538,"cardiothoracic":11539,"Ġscore":11540,"Ġscores":11541,"Ġpostural":11542,"Ġcarmel":11543,"Ġcartila":11544,"Ġcarinii":11545,"Ġclinic":11546,"Ġhyer":11547,"Ġbound":11548,"Ġvasculitic":11549,"Ġvenogram":11550,"Ġthank":11551,"quam":11552,"expiration":11553,"Ġsupersed":11554,"Ġsuperadded":11555,"Ġvisit":11556,"about":11557,"Ġmultifact":11558,"Ġmulticystic":11559,"Ġtee":11560,"Ġtevar":11561,"Ġatrius":11562,"ringothoracic":11563,"Ġnasopharynx":11564,"Ġart":11565,"Ġarmo":11566,"Ġarcing":11567,"Ġarisen":11568,"Ġlinq":11569,"Ġlinx":11570,"Ġbronchomalacia":11571,"Ġhyperaerated":11572,"Ġhyperdynam":11573,"Ġenlargements":11574,"els":11575,"Ġ39":11576,"geneous":11577,"Ġmedium":11578,"Ġmediast":11579,"Ġcostro":11580,"Ġcostoph":11581,"Ġcostopleural":11582,"Ġabducted":11583,"Ġperih":11584,"Ġengage":11585,"Ġaccord":11586,"Ġdrs":11587,"Ġtracheo":11588,"Ġcontinuation":11589,"Ġpossibl":11590,"Ġdraped":11591,"Ġemphys":11592,"Ġapproximatley":11593,"Ġnotify":11594,"Ġblast":11595,"Ġbloc":11596,"Ġroto":11597,"Ġrope":11598,"Ġrounds":11599,"Ġpoe":11600,"centesis":11601,"Ġinfilter":11602,"Ġdeserve":11603,"Ġdesirable":11604,"Ġdesquam":11605,"mma":11606,"Ġassoci":11607,"Ġquarter":11608,"Ġextents":11609,"Ġcrohn":11610,"Ġconstantly":11611,"Ġinsure":11612,"Ġinspect":11613,"Ġdoing":11614,"Ġdozen":11615,"Ġvehic":11616,"Ġoutpouching":11617,"loop":11618,"lobulated":11619,"reaky":11620,"Ġfiles":11621,"Ġengorgements":11622,"Ġ54":11623,"Ġ56":11624,"Ġ59":11625,"Ġevaluations":11626,"Ġzoster":11627,"Ġcoagul":11628,"Ġesophago":11629,"Ġesophagoscopy":11630,"Ġrotoscoliosis":11631,"Ġtransvascular":11632,"Ġmeta":11633,"Ġmetaphysis":11634,"Ġvalidity":11635,"picc":11636,"picardial":11637,"picious":11638,"Ġsustained":11639,"Ġperfused":11640,"olith":11641,"Ġallowed":11642,"Ġaccommo":11643,"status":11644,"streaky":11645,"Ġaccompaniment":11646,"ptures":11647,"terogeneous":11648,"Ġconfluate":11649,"Ġswit":11650,"Ġswir":11651,"suspicious":11652,"Ġpheum":11653,"Ġphleb":11654,"Ġ65":11655,"Ġ68":11656,"Ġ600":11657,"Ġlongterm":11658,"compared":11659,"Ġinvisible":11660,"Ġdilat":11661,"Ġpredominates":11662,"Ġreplace":11663,"Ġpulmoanry":11664,"Ġtwisted":11665,"Ġmaintain":11666,"Ġmaintains":11667,"Ġfibrin":11668,"Ġinferoposterior":11669,"Ġcomplain":11670,"Ġindis":11671,"intra":11672,"Ġexcepting":11673,"plastic":11674,"Ġneur":11675,"Ġmalacia":11676,"Ġmalformation":11677,"Ġxrt":11678,"cribing":11679,"Ġhyperextension":11680,"Ġmultiloc":11681,"Ġconvinced":11682,"Ġ83":11683,"Ġupdate":11684,"Ġpronou":11685,"Ġilldefined":11686,"Ġapicomedial":11687,"Ġapicoposterior":11688,"Ġtrape":11689,"Ġ734":11690,"Ġgases":11691,"Ġgasseous":11692,"Ġspecificity":11693,"Ġgastropa":11694,"Ġwithdrawl":11695,"Ġhemorrhages":11696,"Ġopc":11697,"Ġopening":11698,"Ġoptions":11699,"Ġopcity":11700,"scale":11701,"Ġosteopathy":11702,"Ġosteot":11703,"Ġosteosclerosis":11704,"Ġreceipt":11705,"Ġyour":11706,"Ġtreating":11707,"Ġazygus":11708,"Ġdefining":11709,"Ġdictates":11710,"Ġdirectory":11711,"Ġhydrated":11712,"Ġempy":11713,"Ġemesis":11714,"Ġdistributions":11715,"Ġsutural":11716,"positional":11717,"Ġphysci":11718,"Ġdeviate":11719,"Ġ(~":11720,"Ġdependant":11721,"Ġocclusive":11722,"Ġconvey":11723,"Ġparatrach":11724,"Ġsyringothoracic":11725,"Ġirreversible":11726,"Ġinjected":11727,"romise":11728,"Ġdextrocon":11729,"Ġcontracted":11730,"Ġcontraction":11731,"Ġcollapses":11732,"Ġconspicuously":11733,"Ġsaturation":11734,"Ġfirm":11735,"Ġgravity":11736,"Ġgrafted":11737,"Ġreduce":11738,"Ġballpoint":11739,"Ġaneurysms":11740,"Ġskull":11741,"Ġobstruct":11742,"Ġdetectably":11743,"Ġforming":11744,"Ġlordodic":11745,"Ġcontinual":11746,"Ġmaker":11747,"lococ":11748,"Ġranges":11749,"Ġplump":11750,"Ġplasm":11751,"Ġsubparagraph":11752,"Ġstripping":11753,"Ġhypoexpanded":11754,"Ġhypoventilated":11755,"obasal":11756,"Ġinitiation":11757,"Ġinitiated":11758,"Ġimpressions":11759,"Ġnecessity":11760,"Ġresponding":11761,"pros":11762,"project":11763,"Ġvarus":11764,"Ġvariably":11765,"Ġcoarsely":11766,"Ġbleomycin":11767,"Ġduodenojejunal":11768,"Ġamput":11769,"Ġambig":11770,"Ġflexible":11771,"Ġpyel":11772,"Ġ130":11773,"otope":11774,"both":11775,"Ġcallback":11776,"Ġcpr":11777,"Ġextravascular":11778,"Ġextrapericardial":11779,"Ġkeys":11780,"multi":11781,"Ġcaregi":11782,"Ġcoarser":11783,"Ġmanifesting":11784,"middle":11785,"sparing":11786,"Ġpedicular":11787,"Ġevolved":11788,"Ġplugged":11789,"Ġintroductory":11790,"Ġneoplasia":11791,"Ġinfiltrations":11792,"Ġspiculation":11793,"Ġchannels":11794,"Ġscreened":11795,"incter":11796,"urgently":11797,"Ġorders":11798,"Ġdepressing":11799,"Ġcoincidental":11800,"obstruction":11801,"obstructed":11802,"Ġaffection":11803,"Ġbilobectomy":11804,"Ġbilatearl":11805,"Ġcoalesce":11806,"Ġlipoid":11807,"Ġhospitals":11808,"operitoneum":11809,"Ġmistakenly":11810,"Ġdeterminate":11811,"Ġhalo":11812,"Ġaccuracy":11813,"Ġdiagnosing":11814,"Ġlevosc":11815,"Ġoffices":11816,"Ġdepiction":11817,"Ġpleurocentesis":11818,"Ġwidest":11819,"Ġpea":11820,"Ġpeep":11821,"Ġpunctuated":11822,"Ġcannulated":11823,"Ġdorsally":11824,"Ġventriculostomy":11825,"Ġventriculopleural":11826,"Ġtemporarily":11827,"Ġrecording":11828,"Ġdysmorph":11829,"Ġapicolaterally":11830,"Ġradioopacity":11831,"Ġexacerbating":11832,"Ġexacerbations":11833,"Ġseemed":11834,"Ġorganoax":11835,"Ġepipericardial":11836,"Ġexpand":11837,"Ġnumbers":11838,"Ġcraniad":11839,"Ġdissociation":11840,"Ġparathoracic":11841,"Ġbroch":11842,"consolidations":11843,"Ġdestructions":11844,"dynamically":11845,"Ġkerly":11846,"Ġhowver":11847,"Ġbiggest":11848,"Ġqualified":11849,"Ġcomplemented":11850,"Ġligamentum":11851,"Ġrealized":11852,"Ġ??":11853,"Ġbeside":11854,"Ġquantit":11855,"Ġossified":11856,"Ġanterolaterally":11857,"Ġphysiologically":11858,"Ġhugely":11859,"tubes":11860,"called":11861,"Ġfloppy":11862,"Ġviscous":11863,"Ġconnect":11864,"Ġconnective":11865,"Ġconnector":11866,"Ġsubcostal":11867,"Ġrisks":11868,"Ġparamedial":11869,"Ġdysfunctional":11870,"Ġmie":11871,"Ġperitonitis":11872,"Ġcapillary":11873,"Ġossifications":11874,"Ġpanacinar":11875,"Ġoperatively":11876,"supp":11877,"Ġresorptive":11878,"Ġsuprabasal":11879,"Ġerrant":11880,"Ġercp":11881,"Ġeroded":11882,"Ġfeatureless":11883,"Ġductus":11884,"Ġlending":11885,"Ġquantified":11886,"Ġmrcp":11887,"Ġquantitation":11888,"Ġinstitutions":11889,"Ġoptimization":11890,"Ġfluctuation":11891,"Ġcrease":11892,"Ġspondylitis":11893,"Ġspondylolisthesis":11894,"Ġcryptococ":11895,"Ġsacrum":11896,"Ġmechanics":11897,"Ġcolumns":11898,"Ġlymphatics":11899,"Ġrelief":11900,"Ġrelieved":11901,"Ġrelieving":11902,"Ġguess":11903,"Ġdegenerated":11904,"ocytic":11905,"ocytop":11906,"Ġdisruptions":11907,"Ġdiversion":11908,"Ġimmunocompromise":11909,"--___,":11910,"Ġmammography":11911,"Ġknowing":11912,"postsurgical":11913,"Ġnoticeably":11914,"Ġassymteric":11915,"Ġmicroatelectasis":11916,"Ġlacerations":11917,"Ġfossae":11918,"Ġrecesses":11919,"Ġexcretion":11920,"Ġparacardial":11921,"Ġthrombocytop":11922,"wire":11923,"Ġdebil":11924,"Ġjudgment":11925,"Ġdamaged":11926,"Ġdesignation":11927,"Ġdesignated":11928,"Ġmicronodulation":11929,"Ġbronchospastic":11930,"collapsed":11931,"Ġexpress":11932,"Ġdegradation":11933,"volemic":11934,"Ġtitle":11935,"Ġhoneycomb":11936,"Ġtruncated":11937,"Ġinstrument":11938,"Ġoxygenation":11939,"Ġinhib":11940,"Ġanterolisthesis":11941,"Ġvaricoid":11942,"Ġemphasizes":11943,"Ġcongruent":11944,"Ġleaflets":11945,"Ġprevents":11946,"Ġappliance":11947,"Ġinstance":11948,"Ġtendons":11949,"Ġpinched":11950,"Ġweights":11951,"tituted":11952,"Ġinappropriately":11953,"Ġmodearte":11954,"Ġshilouette":11955,"Ġdescribes":11956,"Ġinverted":11957,"Ġvolun":11958,"Ġrows":11959,"Ġmisaligned":11960,"Ġstrictly":11961,"Ġsigmoidal":11962,"Ġpulmonar":11963,"Ġpulmonologist":11964,"Ġcrus":11965,"Ġmembers":11966,"Ġspots":11967,"000":11968,"Ġbentall":11969,"Ġposterobasal":11970,"Ġtests":11971,"Ġcraniocaudad":11972,"Ġconcealing":11973,"Ġperpendicularly":11974,"marker":11975,"Ġfoot":11976,"Ġdynamics":11977,"Ġrendering":11978,"Ġpneumothrax":11979,"vertebra":11980,"Ġ360":11981,"Ġmanipulated":11982,"Ġdecidedly":11983,"Ġextracted":11984,"Ġextracardiac":11985,"Ġclothes":11986,"Ġtracheobronchomalacia":11987,"Ġelucidation":11988,"Ġbundle":11989,"Ġerosions":11990,"Ġinfluenced":11991,"Ġbacteremia":11992,"Ġuncooperative":11993,"Ġprevioulsy":11994,"Ġ___.___,":11995,"Ġbuttons":11996,"Ġthoroughly":11997,"Ġdiscriminating":11998,"Ġaccomplish":11999,"Ġtraveling":12000,"Ġhoars":12001,"angiocarcinoma":12002,"Ġexert":12003,"Ġagreement":12004,"Ġpersiste":12005,"Ġpersisitent":12006,"Ġinhalational":12007,"Ġelectively":12008,"Ġconverging":12009,"Ġdropping":12010,"Ġgauge":12011,"Ġcandidates":12012,"Ġintentionally":12013,"Ġbursa":12014,"Ġbursal":12015,"Ġbursitis":12016,"prominence":12017,"Ġconstriction":12018,"Ġallegedly":12019,"Ġgently":12020,"Ġhemorrage":12021,"Ġ435":12022,"Ġulceration":12023,"Ġlymphangiomyomatosis":12024,"bronchiolitis":12025,"Ġmurmurs":12026,"Ġautom":12027,"Ġlufts":12028,"Ġexcised":12029,"Ġexcrescence":12030,"Ġhappy":12031,"Ġhappened":12032,"standard":12033,"Ġindentations":12034,"deformities":12035,"drainage":12036,"Ġempirically":12037,"obliqu":12038,"Ġosteoporotic":12039,"Ġmusculature":12040,"Ġarguably":12041,"fications":12042,"Ġcocci":12043,"Ġankle":12044,"Ġtags":12045,"Ġhomogeneity":12046,"Ġveterbra":12047,"Ġopacifiction":12048,"Ġopacificaties":12049,"attempted":12050,"adjustment":12051,"Ġsubcutan":12052,"Ġrecommmend":12053,"Ġabsorbed":12054,"Ġdishiscence":12055,"Ġmethod":12056,"Ġexperiencing":12057,"Ġencompassing":12058,"evidence":12059,"Ġcontemporaneous":12060,"Ġcontemplated":12061,"Ġstops":12062,"Ġcontraindicated":12063,"Ġovershadowed":12064,"Ġdismissed":12065,"Ġsubmaximal":12066,"Ġassesment":12067,"Ġsupposedly":12068,"Ġsweep":12069,"Ġsweats":12070,"Ġmorbidly":12071,"Ġmeaningful":12072,"Ġtightly":12073,"Ġpneuomonia":12074,"Ġpreviosly":12075,"Ġpreviosuly":12076,"mydia":12077,"Ġavium":12078,"Ġalerted":12079,"Ġpopcorn":12080,"Ġhopefully":12081,"Ġconerning":12082,"Ġderangement":12083,"Ġrewiring":12084,"Ġcommand":12085,"Ġratio":12086,"Ġdisorganization":12087,"Ġdiagonally":12088,"Ġimperceptible":12089,"Ġobjectively":12090,"Ġarrange":12091,"Ġinstallation":12092,"pseudoaneurysm":12093,"Ġfilamentous":12094,"Ġcounterclock":12095,"Ġexagerrated":12096,"Ġtrabecular":12097,"Ġirritation":12098,"progression":12099,"Ġafforded":12100,"Ġprecipitated":12101,"Ġlaminar":12102,"Ġcorroborating":12103,"Ġcardiopulmonar":12104,"Ġrecrudescent":12105,"fractures":12106,"centuated":12107,"covering":12108,"fourth":12109,"goiter":12110,"metallic":12111,"Ġsidewall":12112,"asthma":12113,"neurosurgery":12114,"Ġdrive":12115,"Ġvestiges":12116,"Ġplexopathy":12117,"Ġreceptionist":12118,"Ġstret":12119,"Ġunresponsive":12120,"Ġconsistency":12121,"Ġdetracts":12122,"Ġpropensity":12123,"Ġsihouetting":12124,"Ġradigraphs":12125,"Ġdiscectomy":12126,"Ġdispalced":12127,"Ġperimeter":12128,"Ġdigital":12129,"Ġunremakable":12130,"Ġhemostats":12131,"sixth":12132,"Ġparadox":12133,"Ġwashout":12134,"Ġbloody":12135,"Ġcoordinator":12136,"Ġtrajectory":12137,"Ġavailability":12138,"Ġmasquerading":12139,"Ġmaneuver":12140,"Ġarteriosum":12141,"Ġcostochondritis":12142,"Ġneighboring":12143,"Ġlongitudinally":12144,"hemodynamically":12145,"Ġexplore":12146,"Ġthermometer":12147,"Ġmislabeled":12148,"Ġankylosing":12149,"Ġtandemheart":12150,"Ġpneumoconiosis":12151,"Ġpreponderance":12152,"blood":12153,"clips":12154,"ficiations":12155,"nasogastric":12156,"presumed":12157,"wedge":12158,"Ġsphincter":12159,"Ġsaphenous":12160,"Ġnidus":12161,"Ġominous":12162,"Ġomentum":12163,"Ġoapcity":12164,"Ġlaryng":12165,"Ġineffective":12166,"Ġmachine":12167,"Ġbialteral":12168,"Ġbiceps":12169,"Ġwritten":12170,"Ġdophoff":12171,"Ġvegetations":12172,"Ġreassuring":12173,"Ġredistrub":12174,"Ġrebreather":12175,"Ġcholangiocarcinoma":12176,"Ġchlamydia":12177,"Ġchills":12178,"Ġstaphylococ":12179,"Ġpneumoretroperitoneum":12180,"Ġorograstric":12181,"Ġconstipation":12182,"Ġconstraint":12183,"attenuation":12184,"Ġappointment":12185,"Ġapplicable":12186,"occupying":12187,"Ġprevented":12188,"Ġovercirc":12189,"tracking":12190,"Ġliposarcoma":12191,"Ġliekly":12192,"Ġdiathesis":12193,"Ġdiabetic":12194,"Ġmidhemi":12195,"Ġendarterectomy":12196,"Ġossesous":12197,"Ġreprsent":12198,"Ġsporadic":12199,"Ġcartilages":12200,"Ġboundaries":12201,"Ġmultifactorial":12202,"Ġarmored":12203,"Ġhyperdynamic":12204,"Ġaccordance":12205,"Ġdesquamative":12206,"Ġvehicle":12207,"Ġcoagulopathy":12208,"Ġmultilocular":12209,"Ġtrapezius":12210,"Ġgastroparesis":12211,"Ġosteotomies":12212,"Ġempyemas":12213,"Ġphyscian":12214,"Ġdextroconcave":12215,"Ġcaregiver":12216,"Ġdysmorphic":12217,"Ġorganoaxial":12218,"Ġhoarseness":12219,"Ġluftsichel":12220,"Ġcounterclockwise":12221,"'d":12222,",\"":12223,"-,":12224,".'":12225,".).":12226,"19":12227,"50":12228,";___":12229,">___%)":12230,"?.":12231,"?).":12232,"ah":12233,"aus":12234,"aion":12235,"ave":12236,"avin":12237,"br":12238,"bin":12239,"bble":12240,"band":12241,"bering":12242,"bors":12243,"bdominal":12244,"bale":12245,"cg":12246,"case":12247,"core":12248,"cula":12249,"cations":12250,"crow":12251,"carinal":12252,"cological":12253,"da":12254,"dt":12255,"dor":12256,"dil":12257,"dural":12258,"det":12259,"due":12260,"dec":12261,"dilation":12262,"eo":12263,"eal":12264,"eities":12265,"epi":12266,"eek":12267,"eteric":12268,"fl":12269,"fan":12270,"fron":12271,"fist":12272,"flu":12273,"fiss":12274,"furc":12275,"fused":12276,"fdg":12277,"gro":12278,"gmon":12279,"gst":12280,"gleno":12281,"gatory":12282,"gorgement":12283,"glove":12284,"hal":12285,"hce":12286,"het":12287,"host":12288,"hbo":12289,"hart":12290,"ii":12291,"ith":12292,"iest":12293,"iall":12294,"ience":12295,"ixed":12296,"ief":12297,"iomyomatosis":12298,"jection":12299,"ki":12300,"ky":12301,"kle":12302,"kly":12303,"lt":12304,"lte":12305,"last":12306,"lain":12307,"lates":12308,"lication":12309,"lating":12310,"lled":12311,"ldy":12312,"lordotic":12313,"litting":12314,"lcome":12315,"mr":12316,"mer":12317,"mri":12318,"ming":12319,"main":12320,"mere":12321,"muc":12322,"momediastinum":12323,"mester":12324,"np":12325,"nin":12326,"nar":12327,"nus":12328,"nded":12329,"none":12330,"nipple":12331,"nace":12332,"ov":12333,"odi":12334,"opp":12335,"otracheal":12336,"oap":12337,"olectomy":12338,"ovol":12339,"oius":12340,"poc":12341,"pla":12342,"piss":12343,"ported":12344,"pulmonic":12345,"parency":12346,"pcp":12347,"qual":12348,"run":12349,"rasc":12350,"rut":12351,"rll":12352,"rates":12353,"rpo":12354,"rgam":12355,"rfa":12356,"sa":12357,"sw":12358,"sol":12359,"sted":12360,"sur":12361,"smo":12362,"some":12363,"such":12364,"srated":12365,"since":12366,"tration":12367,"tone":12368,"tage":12369,"tab":12370,"tiny":12371,"tology":12372,"tty":12373,"tling":12374,"tvr":12375,"tolic":12376,"tachy":12377,"two":12378,"uer":12379,"ube":12380,"uable":12381,"uper":12382,"urable":12383,"va":12384,"vp":12385,"vs":12386,"vular":12387,"via":12388,"vical":12389,"vasive":12390,"wall":12391,"water":12392,"xe":12393,"ye":12394,"yt":12395,"ymal":12396,"yten":12397,"Ġral":12398,"Ġid":12399,"Ġung":12400,"Ġib":12401,"Ġident":12402,"Ġronchial":12403,"then":12404,"thus":12405,"tharg":12406,"three":12407,"Ġay":12408,"Ġaz":12409,"Ġati":12410,"Ġamal":12411,"Ġathough":12412,"Ġarotic":12413,"Ġaleft":12414,"Ġaip":12415,"Ġausc":12416,"onset":12417,"ino":12418,"inum":12419,"ining":12420,"inition":12421,"inical":12422,"into":12423,"intern":12424,"invasive":12425,"regular":12426,"reticular":12427,"recurrent":12428,"retrac":12429,"reverse":12430,"replacement":12431,"reased":12432,"Ġthic":12433,"Ġthry":12434,"alp":12435,"albe":12436,"Ġpf":12437,"Ġpun":12438,"Ġpil":12439,"Ġpedi":12440,"Ġparent":12441,"Ġpolar":12442,"Ġptosis":12443,"Ġtheleft":12444,"Ġthelungs":12445,"Ġcj":12446,"Ġced":12447,"Ġcra":12448,"Ġclac":12449,"Ġcect":12450,"Ġcass":12451,"Ġcrib":12452,"Ġcup":12453,"arr":12454,"arre":12455,"aral":12456,"artion":12457,"aria":12458,"arters":12459,"articulation":12460,"artifact":12461,"tee":12462,"tely":12463,"tected":12464,"team":12465,"telectasis":12466,"tette":12467,"tectable":12468,"least":12469,"leeting":12470,"lemma":12471,"legmon":12472,"leiomyomatosis":12473,"Ġsm":12474,"Ġss":12475,"Ġsun":12476,"Ġsic":12477,"Ġspac":12478,"Ġstic":12479,"Ġspiration":12480,"Ġslower":12481,"Ġsling":12482,"Ġsni":12483,"isis":12484,"isent":12485,"isilar":12486,"isure":12487,"isotope":12488,"orces":12489,"ordered":12490,"tiing":12491,"tiary":12492,"tich":12493,"titive":12494,"Ġnd":12495,"Ġnat":12496,"Ġnut":12497,"Ġnno":12498,"Ġneeding":12499,"Ġnicu":12500,"Ġncreased":12501,"Ġot":12502,"Ġoderate":12503,"Ġomental":12504,"ena":12505,"ential":12506,"ended":12507,"entero":12508,"enhan":12509,"entie":12510,"entified":12511,"engorgement":12512,"ask":12513,"asted":12514,"Ġld":12515,"Ġlac":12516,"Ġlag":12517,"Ġlisting":12518,"Ġluc":12519,"Ġlsc":12520,"Ġlisten":12521,"Ġlleft":12522,"Ġlunar":12523,"Ġisnot":12524,"Ġismid":12525,"eron":12526,"erate":12527,"erred":12528,"erving":12529,"erging":12530,"esd":12531,"esema":12532,"Ġintent":12533,"Ġinline":12534,"Ġintim":12535,"Ġintras":12536,"Ġinclin":12537,"Ġinclined":12538,"Ġinherent":12539,"Ġele":12540,"Ġeat":12541,"Ġemin":12542,"Ġeating":12543,"Ġecom":12544,"Ġelec":12545,"Ġephysema":12546,"Ġeye":12547,"Ġment":12548,"Ġmph":12549,"Ġmog":12550,"Ġmolar":12551,"Ġmpro":12552,"ried":12553,"rier":12554,"rient":12555,"aco":12556,"acral":12557,"acities":12558,"acement":12559,"accom":12560,"actions":12561,"activation":12562,"Ġba":12563,"Ġbus":12564,"Ġbear":12565,"Ġbad":12566,"Ġbiz":12567,"Ġbump":12568,"Ġbright":12569,"Ġbais":12570,"Ġbcg":12571,"Ġbordered":12572,"unky":12573,"usible":12574,"ilus":12575,"ilum":12576,"ilia":12577,"ilib":12578,"iliary":12579,"ilators":12580,"ilovol":12581,"Ġwears":12582,"Ġwks":12583,"dial":12584,"diac":12585,"diation":12586,"diment":12587,"dioid":12588,"dicual":12589,"dimer":12590,"ulare":12591,"ulting":12592,"ulates":12593,"omly":12594,"omities":12595,"omonary":12596,"ommend":12597,"ommere":12598,"Ġanteromedially":12599,"Ġanuer":12600,"tionale":12601,"umothorax":12602,"Ġtv":12603,"Ġtas":12604,"Ġtang":12605,"Ġtine":12606,"Ġtong":12607,"Ġtvr":12608,"Ġtouch":12609,"Ġtapes":12610,"Ġtsicu":12611,"any":12612,"ancies":12613,"atement":12614,"Ġhte":12615,"Ġhost":12616,"Ġhowe":12617,"Ġhub":12618,"Ġhint":12619,"Ġhind":12620,"Ġhinder":12621,"Ġharder":12622,"Ġareation":12623,"idcated":12624,"Ġft":12625,"Ġfresh":12626,"Ġfading":12627,"Ġfna":12628,"Ġfleeting":12629,"Ġfisure":12630,"ices":12631,"icult":12632,"icious":12633,"icty":12634,"icolectomy":12635,"Ġrigth":12636,"Ġriht":12637,"Ġconcur":12638,"Ġconvol":12639,"Ġconclude":12640,"Ġconcrete":12641,"ingently":12642,"neo":12643,"nets":12644,"Ġpneumthorax":12645,"Ġdance":12646,"Ġdove":12647,"Ġdwelling":12648,"Ġdumb":12649,"Ġduly":12650,"Ġdull":12651,"Ġdomed":12652,"Ġvc":12653,"Ġvess":12654,"Ġvital":12655,"Ġlef":12656,"Ġlend":12657,"Ġletharg":12658,"Ġwithing":12659,"Ġthereis":12660,"roved":12661,"ropneumothorax":12662,"rolateral":12663,"royed":12664,"rodesis":12665,"roiliac":12666,"rophic":12667,"raion":12668,"radic":12669,"rably":12670,"urally":12671,"Ġlungfi":12672,"oug":12673,"ourable":12674,"Ġreop":12675,"Ġretain":12676,"Ġreab":12677,"Ġreinf":12678,"Ġreoriented":12679,"Ġreclined":12680,"Ġredeveloped":12681,"Ġreexamined":12682,"Ġcardiover":12683,"Ġcardica":12684,"Ġcardiologist":12685,"enting":12686,"Ġches":12687,"Ġchst":12688,"Ġchurg":12689,"Ġchrac":12690,"Ġchorn":12691,"Ġchori":12692,"Ġchief":12693,"Ġchunky":12694,"ola":12695,"olly":12696,"ollection":12697,"olordotic":12698,"oldiation":12699,"Ġtow":12700,"Ġtox":12701,"Ġtole":12702,"ctal":12703,"emergency":12704,"emtric":12705,"emphas":12706,"embered":12707,"Ġlocu":12708,"axis":12709,"itc":12710,"itined":12711,"itations":12712,"itatively":12713,"Ġstalbe":12714,"astating":12715,"Ġpneumoper":12716,"Ġpneumohydro":12717,"Ġpneumopathy":12718,"tering":12719,"terval":12720,"chon":12721,"cher":12722,"chotomy":12723,"phritis":12724,"phram":12725,"osn":12726,"osities":12727,"osacral":12728,"Ġunm":12729,"Ġunn":12730,"Ġunits":12731,"Ġuncla":12732,"Ġunited":12733,"Ġunans":12734,"Ġunspec":12735,"Ġunchan":12736,"Ġunhealed":12737,"Ġself":12738,"Ġsequal":12739,"bepicardial":12740,"estamp":12741,"Ġnormality":12742,"cept":12743,"celain":12744,"Ġbell":12745,"Ġconsod":12746,"Ġconserv":12747,"Ġconstit":12748,"Ġconsitent":12749,"Ġconsisent":12750,"___).":12751,"imilar":12752,"resses":12753,"Ġcomply":12754,"Ġcompound":12755,"Ġopacit":12756,"Ġopacify":12757,"ously":12758,"Ġdeple":12759,"Ġdeclined":12760,"Ġsupper":12761,"Ġsups":12762,"Ġsubepicardial":12763,"Ġprox":12764,"emaking":12765,"Ġlowe":12766,"Ġlowered":12767,"Ġatele":12768,"Ġateral":12769,"Ġatelectat":12770,"Ġsiad":12771,"Ġaty":12772,"Ġattes":12773,"Ġatrophic":12774,"atd":12775,"atn":12776,"atri":12777,"atted":12778,"atoin":12779,"Ġmilldy":12780,"Ġenable":12781,"Ġenema":12782,"Ġenvelop":12783,"Ġensu":12784,"Ġensued":12785,"Ġasple":12786,"Ġasked":12787,"Ġedma":12788,"Ġedena":12789,"Ġexem":12790,"Ġexited":12791,"Ġexophy":12792,"olidation":12793,"Ġconsolidatin":12794,"ociated":12795,"occurred":12796,"ocostal":12797,"ocranial":12798,"ogged":12799,"Ġposte":12800,"Ġposed":12801,"Ġpostion":12802,"Ġposss":12803,"Ġpostext":12804,"ularly":12805,"area":12806,"iam":12807,"iaml":12808,"Ġcontingently":12809,"Ġont":12810,"Ġony":12811,"Ġoncology":12812,"Ġoncological":12813,"oprol":12814,"Ġbasic":12815,"Ġbasial":12816,"Ġram":12817,"Ġrationale":12818,"Ġablated":12819,"Ġhearts":12820,"Ġmodel":12821,"Ġevar":12822,"Ġeventu":12823,"ifocal":12824,"atized":12825,"udar":12826,"udge":12827,"Ġradiated":12828,"Ġradical":12829,"tend":12830,"tentially":12831,"itimate":12832,"ascoliosis":12833,"ographs":12834,"Ġinterse":12835,"Ġinterloc":12836,"Ġinterference":12837,"Ġlowering":12838,"Ġurose":12839,"segment":12840,"septal":12841,"Ġvoluminous":12842,"Ġmoderatecardiomegaly":12843,"viral":12844,"Ġprecur":12845,"Ġpredated":12846,"Ġprevalent":12847,"Ġpreintubation":12848,"Ġpremature":12849,"Ġpretty":12850,"Ġappearnace":12851,"liar":12852,"liation":12853,"liable":12854,"Ġimmin":12855,"Ġimmo":12856,"Ġimcomplete":12857,"Ġimrpo":12858,"Ġoveral":12859,"Ġoverwh":12860,"Ġovertime":12861,"Ġoveryling":12862,"Ġovercrow":12863,"achable":12864,"achment":12865,"trates":12866,"trason":12867,"trascoliosis":12868,"Ġviable":12869,"Ġviolation":12870,"Ġlobeectomy":12871,"Ġprocessing":12872,"normality":12873,"arking":12874,"tips":12875,"Ġforced":12876,"ayr":12877,"ays":12878,"gested":12879,"Ġvascularization":12880,"Ġcapped":12881,"Ġabnormalies":12882,"Ġgib":12883,"Ġgag":12884,"Ġgist":12885,"Ġgath":12886,"Ġgold":12887,"Ġgrand":12888,"Ġglad":12889,"Ġdisuc":12890,"Ġperin":12891,"Ġperdomin":12892,"Ġperception":12893,"keing":12894,"add":12895,"aden":12896,"Ġpositionning":12897,"Ġpositionned":12898,"Ġligh":12899,"Ġdic":12900,"Ġdiv":12901,"Ġdial":12902,"Ġdiet":12903,"Ġdiure":12904,"Ġdimun":12905,"Ġdilemma":12906,"Ġdichotomy":12907,"Ġapro":12908,"Ġaplastic":12909,"ibronchial":12910,"Ġwelcome":12911,"Ġremarkably":12912,"Ġremembered":12913,"agly":12914,"agular":12915,"largement":12916,"Ġwhom":12917,"Ġwhic":12918,"Ġwholly":12919,"antly":12920,"Ġsubcl":12921,"Ġsubcomplete":12922,"Ġsubside":12923,"Ġsubcm":12924,"Ġsublobar":12925,"Ġsubapical":12926,"Ġsubdural":12927,"Ġsublte":12928,"Ġmidsternal":12929,"Ġintub":12930,"Ġnotwith":12931,"valvular":12932,"minus":12933,"Ġinfo":12934,"Ġinfla":12935,"Ġinfused":12936,"Ġinfrasc":12937,"eces":12938,"cling":12939,"remarkable":12940,"removal":12941,"inig":12942,"inization":12943,"Ġcomparatively":12944,"irt":12945,"iry":12946,"irregular":12947,"Ġ___.)":12948,"Ġlima":12949,"Ġbutterfly":12950,"outpatient":12951,"Ġimpr":12952,"Ġimpres":12953,"Ġimperative":12954,"Ġimplement":12955,"Ġimpressing":12956,"Ġimpaired":12957,"Ġimpession":12958,"Ġimplied":12959,"Ġimpeded":12960,"aphoid":12961,"Ġhemicolectomy":12962,"Ġendoscopic":12963,"Ġ___,.":12964,"laceration":12965,"Ġimproper":12966,"llation":12967,"persis":12968,"perhaps":12969,"Ġwhichever":12970,"Ġjan":12971,"Ġjob":12972,"Ġjoin":12973,"ectatic":12974,"Ġcathether":12975,"Ġslig":12976,"Ġslighty":12977,"Ġairbronchograms":12978,"chymal":12979,"gnani":12980,"Ġobvi":12981,"Ġbibasial":12982,"Ġbibasliar":12983,
[...]
